t h
i n
e r
a n
e d</w>
o u
th e</w>
er </w>
in g</w>
a r
t o</w>
o r
h e</w>
an d</w>
l l
h i
a t</w>
w a
r e
o n
s t
e n
h a
' '</w>
o f</w>
o w
in </w>
y ou
e n</w>
l i
o n</w>
m e</w>
a c
i t</w>
wa s</w>
you </w>
ll </w>
h er</w>
e s</w>
r o
g h
t i
b e
w h
s he</w>
or </w>
hi s</w>
s t</w>
e l
w i
th at</w>
th </w>
a l
an </w>
c h
r i
v e</w>
l d</w>
o o
s i
l e
er e</w>
s a
l y</w>
d i
s h
th e
m y</w>
u r
ow </w>
l e</w>
a t
i s</w>
b u
s e</w>
i r
n e
ou ld</w>
ou t</w>
n '
n' t</w>
o m
n o
a s</w>
s e
' s</w>
wi th</w>
ha d</w>
m a
k e</w>
gh t</w>
a b
f or</w>
u n
on e</w>
bu t</w>
l a
r a
c a
d e
c e</w>
hi m</w>
l o
h e
k ed</w>
e v
p p
m i
b e</w>
i d</w>
re a
t t
s p
d o</w>
th er</w>
ou n
e t</w>
s s</w>
t s</w>
t ed</w>
d e</w>
a g
n ow</w>
no t</w>
en t</w>
wh at</w>
f or
ac k</w>
m o
c o
ha ve</w>
f e
u p</w>
ch </w>
sa id</w>
the y</w>
l oo
th ing</w>
w e</w>
al </w>
f ro
v er</w>
a s
k ing</w>
d s</w>
th is</w>
t o
s o</w>
fro m</w>
di d</w>
g o
w e
ar </w>
t a
i c
r u
s u
c on
t e
a ll</w>
ow n</w>
gh </w>
j u
c ould</w>
m e
a d</w>
s ed</w>
wa y</w>
w ould</w>
w ere</w>
d o
ll y</w>
ar e</w>
t er</w>
b o
ti on</w>
s o
li ke</w>
i f</w>
er s</w>
w or
b ack</w>
ir </w>
oun d</w>
th ere</w>
d ed</w>
e x
ou gh</w>
q u
d a
n o</w>
ar d</w>
m or
f i
h o
in g
in to</w>
ju st</w>
' d</w>
wh en</w>
p u
ab out</w>
i t
p o
w an
th en</w>
y es</w>
ac e</w>
m u
v er
in d</w>
f u
w hi
f a
m p
s c
d y</w>
the m</w>
om e
d ing</w>
t ur
k now</w>
be en</w>
c om
g u
s ome
l ed</w>
g r
p a
you r</w>
v i
st i
o ver</w>
o f
b y</w>
d own</w>
s el
o p
r e</w>
ag a
p ro
er ed</w>
oo d</w>
g e</w>
n i
ti me</w>
t r
el </w>
n t</w>
l u
c k</w>
y s</w>
g et</w>
p e
mor e</w>
t y</w>
m b
n ed</w>
o ther</w>
on g</w>
d er</w>
h ow</w>
s ur
e yes</w>
si de</w>
c i
p ar
p re
k s</w>
t ly</w>
in e</w>
le a
he ad</w>
ll ed</w>
p l
pp ed</w>
g i
sel f</w>
in k</w>
at e</w>
g e
a f
c an</w>
k i
k e
y ing</w>
u s</w>
g a
wh o</w>
ri ght</w>
th r
the ir</w>
for e</w>
p er
h an
ev er
m an</w>
be fore</w>
t er
ev en</w>
ar ound</w>
y e
h ere</w>
ca u
sh </w>
ou ght</w>
an y</w>
. .</w>
st e
ne w</w>
an y
ou r</w>
st ar
go ing</w>
el y</w>
t ing</w>
se e</w>
. ..</w>
oo k</w>
s s
n a
c lo
v ed</w>
p s</w>
c u
g o</w>
t w
c e
f ir
o m</w>
v ing</w>
of f</w>
on ly</w>
so me</w>
wan t</w>
th an</w>
' re</w>
ab le</w>
m ed</w>
h and</w>
wh ere</w>
thr ough</w>
loo ked</w>
t e</w>
th ink</w>
on s</w>
t en
wi ll</w>
f ace</w>
b r
ou s</w>
aga in</w>
s hi
m ar
v o
to o</w>
n ing</w>
b l
a d
a way</w>
h el
a lly</w>
e p</w>
sti ll</w>
some thing</w>
ch e
ro om</w>
f t</w>
ev er</w>
s si
co me</w>
j o
f e</w>
m s</w>
ing s</w>
st a
t u
we ll</w>
r y</w>
ne ver</w>
an t</w>
da y</w>
c ha
tt le</w>
d er
c ar
s mi
af ter</w>
b i
ou r
as ked</w>
' ll</w>
th ought</w>
g re
sh ed</w>
b rea
sp e
le t</w>
cau se</w>
g ood</w>
tw o</w>
an g
en d</w>
s sed</w>
h u
loo k</w>
se e
ma de</w>
an ce</w>
ch ed</w>
s on</w>
wh y</w>
at ed</w>
t ri
mu ch</w>
m in
go t</w>
tt ing</w>
m ent</w>
be cause</w>
g g
s ha
l ing</w>
f in
i ce</w>
k new</w>
tur ned</w>
st o
f r
do or</w>
ac h</w>
ar s</w>
li ttle</w>
mo st</w>
d u
en ed</w>
p i
wa l
f f
c k
sur e</w>
m an
i ts</w>
ta ke</w>
ha pp
l ong</w>
ma ke</w>
ever y
el t</w>
l es</w>
t al
f o
ac h
sa y</w>
fir st</w>
fu l</w>
b ed</w>
b a
d ar
c ed</w>
t ra
m on
f elt</w>
ll ing</w>
ca me</w>
t ru
bo dy</w>
p ri
wan ted</w>
c t</w>
t ook</w>
s en
f ri
re e</w>
ne ed</w>
b le</w>
s er
a pp
p la
d d
te ll</w>
han ds</w>
v es</w>
rea lly</w>
st u
t ow
ver y</w>
c a</w>
s li
o se</w>
sh o
e ar
w ar
r ed</w>
aga in
s in
again st</w>
d re
s k
ha s</w>
sh ould</w>
j e
vo ice</w>
z e</w>
wa t
ni ght</w>
en ce</w>
a m</w>
qu e
th ough</w>
g l
st r
wi th
pe op
le ft</w>
p t</w>
whi le</w>
whi ch</w>
ow ed</w>
rea dy</w>
to ld</w>
peop le</w>
la st</w>
p h
an other</w>
c or
c hi
s ing</w>
m om
ag e</w>
con t
b ro
li fe</w>
w om
la u
ou s
m at
s l
ic </w>
c ked</w>
i l
tt er</w>
k n
m es</w>
fe w</w>
any thing</w>
p e</w>
wa ys</w>
c re
v e
s or
j a
g ra
e ss</w>
st ed</w>
h ind</w>
ma y
no thing</w>
be ing</w>
be hind</w>
ur e</w>
en ough</w>
in ed</w>
s w
k a
w ent</w>
fe el</w>
do es</w>
en ts</w>
sh ou
an d
a h</w>
un ti
ll s</w>
mi ght</w>
c r
sa w</w>
g ir
z ed</w>
th ings</w>
ou se</w>
he ar
b ab
unti l</w>
c le
ic k</w>
p le
li ght</w>
may be</w>
th ose</w>
he a
pu t</w>
d ra
ow ing</w>
x t</w>
ow s</w>
a u
st er</w>
f ind</w>
f ing
c la
loo king</w>
t re
f ac
pl ace</w>
un der
ever y</w>
m ind</w>
m y
it y</w>
h un
on ce</w>
ra i
fr on
ti ons</w>
m ou
ch ing</w>
ha ir</w>
lo ve</w>
w in
m er
i m
mom ent</w>
bo th</w>
be g
mb er</w>
h ouse</w>
al ways</w>
a tion</w>
s ma
c ur
h ar
si l
ne xt</w>
it e</w>
b ri
g en
an s</w>
d ri
fron t</w>
ro ss</w>
in side</w>
l ar
l at
le ss</w>
st re
ne ss</w>
st or
st an
o h</w>
h ard</w>
b loo
n er</w>
h er
k en</w>
hel p</w>
st ood</w>
ne e
f ound</w>
g er</w>
c er
with out</w>
o ld</w>
b ar
wor k</w>
ma g
n or
ll i
po in
gi ve</w>
mou th</w>
t or
ke ep</w>
t able</w>
w ard</w>
hi m
p ing</w>
sa me</w>
in ter
p ed</w>
shou l
every thing</w>
some one</w>
him self</w>
ar ms</w>
he ard</w>
i l</w>
si on</w>
at ing</w>
wom an</w>
tow ard</w>
v a
li e
be t
ho me</w>
op en</w>
fa ther</w>
g s</w>
d r
d ro
f lo
ac k
tr ying</w>
s we
c our
c ted</w>
be tter</w>
pu lled</w>
c tion</w>
m en</w>
o l
ri ed</w>
we en</w>
e ach</w>
bet ween</w>
an k</w>
mo ther</w>
ar m</w>
d ly</w>
b ur
see med</w>
oo l</w>
k es</w>
se con
an sw
s le
c ra
t on
f l
smi le</w>
y ed</w>
ach ed</w>
c oun
fe el
d ded</w>
ac ross</w>
h ur
pp ing</w>
qu i
st and</w>
my self</w>
i mp
th ree</w>
sin ce</w>
a th</w>
p ic
al ready</w>
en ti
at t
t ou
e i
star ted</w>
sma ll</w>
sp o
rea li
wor ds</w>
ga ve</w>
al most</w>
lau gh
v en</w>
un der</w>
ou t
s es</w>
ye ars</w>
d ge</w>
se t</w>
d one</w>
fa mi
par t</w>
m m
er ing</w>
ka y</w>
re me
hear t</w>
en ing</w>
u sed</w>
o b
p r
li ps</w>
do ing</w>
o kay</w>
dar k</w>
to ge
f re
fo ll
ha l
sto p</w>
tri ed</w>
com ing</w>
toge ther</w>
g la
ar ed</w>
el se</w>
wal ked</w>
an ge</w>
l on
min u
ow er</w>
u l
w on
ar y</w>
st s</w>
p an
u p
ous ly</w>
wor ld</w>
se en</w>
mu st</w>
c ou
bl ack</w>
no dded</w>
fe et</w>
in s</w>
tur n</w>
hel d</w>
me an</w>
re s</w>
ic k
bloo d</w>
m any</w>
tr y</w>
e st</w>
c l
gir l</w>
di ff
e k</w>
the se</w>
ti ve</w>
of f
gg ed</w>
gh ts</w>
ti mes</w>
s at</w>
re p
g ar
p as
n u
su pp
a li
f ar</w>
clo se</w>
lo t</w>
ca ll</w>
mo ved</w>
he ar</w>
e y</w>
c ar</w>
l s</w>
ti on
que sti
h or
brea th</w>
n a</w>
an e</w>
y et</w>
d ered</w>
sa ys</w>
th ers</w>
k ind</w>
ss ing</w>
fu lly</w>
ssi on</w>
a ir</w>
lea ve</w>
or t</w>
ch o
ch ar
f la
p er</w>
t es</w>
g ed</w>
smi led</w>
g ri
g one</w>
tal k</w>
d ers</w>
co l
ca lled</w>
c en
be lie
si g
her self</w>
ge tting</w>
fing ers</w>
wa ter</w>
flo or</w>
d es</w>
b it</w>
or s</w>
y e</w>
c lu
na me</w>
nee ded</w>
beg an</w>
th in
whi sp
al so</w>
m ur
ph one</w>
de ci
m ing</w>
sh ing</w>
ta in</w>
wor d</w>
sh ook</w>
d en</w>
a k</w>
tu ally</w>
cour se</w>
ye ah</w>
che st</w>
fri end</w>
he ll</w>
i de
pro bab
tur e</w>
as k</w>
fin ally</w>
m en
probab ly</w>
bi g</w>
secon d</w>
c li
c es</w>
su ch</w>
su dd
st ru
b le
i ous</w>
gr ab
po ssi
w r
de ep</w>
lea st</w>
sh u
win d
al ong</w>
happ ened</w>
v en
f f</w>
pa st</w>
cont in
re ached</w>
da m
st ing</w>
t en</w>
gr ound</w>
ho l
be st</w>
go d</w>
m ine</w>
an ed</w>
belie ve</w>
sor ry</w>
el e
it ing</w>
b ra
di s
ma king</w>
mo ve</w>
f le
lea se</w>
b lu
contin u
lat er</w>
sto pped</w>
hal f</w>
de ad</w>
s ound</w>
feel ing</w>
i ght</w>
sur pri
n y</w>
gre at</w>
ar ds</w>
te mp
so on</w>
s y
op ened</w>
whi te</w>
b en
w o</w>
any one</w>
rea d</w>
fri en
ta king</w>
da ys</w>
n s</w>
diff er
ar ing</w>
ir e</w>
qu ick
wh o
f ted</w>
b ad</w>
al e</w>
in ing</w>
every one</w>
fami ly</w>
re st</w>
a ll
to p</w>
ac t</w>
i es</w>
ide a</w>
ver ed</w>
di re
s oun
r un
wa i
shoul der</w>
stan ding</w>
c king</w>
tt y</w>
f oo
sk in</w>
for ward</w>
gl an
at ely</w>
ke pt</w>
t al</w>
o ver
com ple
an i
mor ning</w>
ir s</w>
c are</w>
ac ed</w>
b or
you n
m p</w>
th ro
t or</w>
no ti
ow ly</w>
quick ly</w>
b la
c al
i g
u se</w>
sta y</w>
wa ll</w>
en ly</w>
r an</w>
b oo
l an
al one</w>
e a
st ri
gu y</w>
sl owly</w>
clo sed</w>
on es</w>
d ou
w ri
on to</w>
s la
l ow</w>
ex pe
s k</w>
ha ving</w>
un i
r t</w>
ho ld</w>
be au
reme mber</w>
thin king</w>
ar ly</w>
ch es</w>
t wi
b er
z z
spe ci
me di
bo y</w>
s on
on d</w>
s er</w>
f li
c al</w>
p lease</w>
li st
th s</w>
li ed</w>
e mp
star ed</w>
r ow</w>
wr ong</w>
ca lly</w>
m ir
tal king</w>
ne ck</w>
fir e</w>
re al</w>
bu il
e f
wat ched</w>
ei ther</w>
c ro
ki ll</w>
s ch
en tly</w>
pro te
fu ll</w>
ti c</w>
hur t</w>
poin t</w>
f ine</w>
ti es</w>
minu tes</w>
t ely</w>
ha t
at ten
gh tly</w>
mo m</w>
ac tually</w>
ru n</w>
hi gh</w>
shi p</w>
tt en</w>
st ro
out side</w>
fac t</w>
mat ter</w>
th re
v el
pa in</w>
re sp
di sa
p ter</w>
sudd enly</w>
c ks</w>
ss es</w>
st ra
lo st</w>
under stand</w>
l ine</w>
pl an
wa it</w>
co ll
m r</w>
va mp
g ing</w>
th er
a w
c ing</w>
m on</w>
h on
p ur
ga ze</w>
ca p
d ad</w>
han d
b ru
di e</w>
li e</w>
wa iting</w>
f ur
our s</w>
frien ds</w>
p le</w>
c at
m et</w>
ste ad</w>
d rea
st er
pre tty</w>
cau ght</w>
ag o</w>
wal k</w>
who le</w>
t ers</w>
en s</w>
t un
you r
s ent</w>
po li
in stead</w>
c y</w>
fi g
answ er</w>
blu e</w>
laugh ed</w>
fi ve</w>
n at
en g
we a
cha pter</w>
ma y</w>
t on</w>
cont ro
ta ken</w>
differ ent</w>
w hat
co ld</w>
re la
o thers</w>
st om
tt ed</w>
si mp
s it</w>
car e
i a</w>
l ou
f our</w>
w s</w>
bro ther</w>
z ing</w>
sc rea
fa st</w>
e ks</w>
gu e</w>
d in
de sp
ch ang
s wi
loo ks</w>
le gs</w>
fin i
di st
l or
v y</w>
p en
n e</w>
s ou
i mag
ang er</w>
al s</w>
whisp ered</w>
per fe
youn g</w>
glan ced</w>
hi t</w>
in t</w>
t om
st rai
ca se</w>
ear ed</w>
n er
fe ll</w>
happ y</w>
e ping</w>
what ever</w>
rea son</w>
br ought</w>
shi t</w>
thro at</w>
t in
possi ble</w>
com p
questi on</w>
sen se</w>
wind ow</w>
star t</w>
de ath</w>
ple as
ste pped</w>
hol ding</w>
se ver
re n
th ir
ex ac
me ant</w>
ll ow</w>
con si
s na
en ty</w>
p at
e s
sch ool</w>
ki ss</w>
sho t</w>
k ne
c le</w>
exac tly</w>
in ten
shi rt</w>
so f
ac ked</w>
sh e
cha ir</w>
mp ed</w>
so l
qu ite</w>
si tting</w>
th an
le aned</w>
lar ge</w>
a m
i d
stor y</w>
dam n</w>
disa pp
wat ching</w>
t y
ch ange</w>
p ower</w>
di ed</w>
w ra
th ank</w>
sh ow</w>
ho pe</w>
reali zed</w>
r ing</w>
ch ri
c ru
hu man</w>
tou ch</w>
i ll</w>
beau ti
kn own</w>
mo ving</w>
co vered</w>
s me
c ity</w>
per son</w>
ho t</w>
mb led</w>
ex pla
run ning</w>
e ar</w>
d an
p or
foll owed</w>
v ic
gu ess</w>
wat ch</w>
r an
l in
t ered</w>
de li
ab o
resp on
h ours</w>
s ing
pro mi
fi ce</w>
clo ser</w>
gla ss</w>
sever al</w>
tru e</w>
c ir
continu ed</w>
grab bed</w>
sh ru
k er</w>
t ch</w>
app ro
sle ep</w>
rep lied</w>
lo ved</w>
li ty</w>
wh e
e ye</w>
gh t
beauti ful</w>
com for
atten tion</w>
t own</w>
s qu
d en
per i
sta irs</w>
t ment</w>
re ma
n ar
pu shed</w>
ex pre
e as
cu t</w>
ye ar</w>
f er
ar i
ste p</w>
ni ce</w>
lon ger</w>
u su
l ate</w>
ce pt</w>
be side</w>
tt ered</w>
su b
gh ter</w>
sa ying</w>
s wa
ll e</w>
ch en</w>
ch ance</w>
shoul ders</w>
gi ven</w>
ton ight</w>
se ar
bab y</w>
th ou
d a</w>
li ve</w>
sc re
li ving</w>
le ar
l un
se at</w>
s y</w>
k it
u m</w>
si gh
i e</w>
gh ten
el s</w>
ha ps</w>
gu n</w>
k no
per haps</w>
c ri
to day</w>
der ing</w>
b ack
pro ble
o c
tur ning</w>
mon ey</w>
e d
chi l
sh ar
pi e
fe ar</w>
l and</w>
b ook</w>
te ars</w>
jo b</w>
contro l</w>
j ack</w>
j er
m ents</w>
p al
dro pped</w>
te en</w>
b b
t t</w>
dou b
sa tion</w>
dd le</w>
d ent</w>
lea ving</w>
le y</w>
fi lled</w>
cou ple</w>
shu t</w>
f ree</w>
v in
ro se</w>
cle ar</w>
ur ed</w>
fi ght</w>
of fice</w>
v ely</w>
kit chen</w>
s un
ne ar</w>
wom en</w>
abo ve</w>
sh ort</w>
h ow
g ro
me et</w>
si ster</w>
vi e
s ar
l ar</w>
bu sin
ur ing</w>
deci ded</w>
cu ri
v el</w>
so ft</w>
si des</w>
l t</w>
par ents</w>
go tten</w>
la y</w>
me mor
al ex
ac ti
z y</w>
c an
pas sed</w>
on ed</w>
sk y</w>
for m</w>
at es</w>
rai sed</w>
e th</w>
ob vi
con ver
po si
se cre
any way</w>
spo ke</w>
ki lled</w>
ar ri
see ing</w>
g y</w>
wor king</w>
sha d
li fted</w>
t ched</w>
br ing</w>
gr y</w>
fi ed</w>
ul t</w>
comple tely</w>
sor t</w>
p ow
stre et</w>
ag ed</w>
f lu
sp i
th u
sil ence</w>
dre ss</w>
sa fe</w>
dre w</w>
ro ad</w>
stom ach</w>
g an</w>
ce i
tru th</w>
or t
tw enty</w>
gi ving</w>
supp o
ste ps</w>
tr ac
ll a</w>
wal king</w>
war m</w>
tr an
w ol
ra ther</w>
cor ner</w>
chi ld</w>
star ing</w>
str ong</w>
gu ys</w>
dar k
c ent</w>
busin ess</w>
pu ll</w>
vi si
th es</w>
r or</w>
c tor</w>
t ro
ben e
f all</w>
re co
s que
in for
strai ght</w>
p hi
gre en</w>
sh es</w>
im medi
a ss</w>
ra id</w>
st one</w>
v an
b and</w>
f un
e dge</w>
with in</w>
pre ssed</w>
ic i
ta in
i led</w>
b ir
li ev
spe ak</w>
buil ding</w>
pic ked</w>
in ning</w>
happ en</w>
chang ed</w>
dra w
t an
expre ssion</w>
ter ri
pr in
ig nor
te eth</w>
ing ly</w>
noti ced</w>
ne arly</w>
c tly</w>
f fe
i s
fing er</w>
wai ted</w>
f ood</w>
cr ow
d ding</w>
an ing</w>
ar e
reme mb
di es</w>
ro lled</w>
sigh ed</w>
your self</w>
kn owing</w>
mi ss</w>
gir ls</w>
ck et</w>
g on</w>
af raid</w>
in a</w>
up on</w>
ta tion</w>
ma kes</w>
qui et</w>
suppo sed</w>
wi de</w>
enti re</w>
ll er</w>
h our</w>
di sc
thou ghts</w>
tow ards</w>
brea k</w>
clo thes</w>
con cer
ag re
ea si
en jo
ne i
gr ou
tr ou
m a</w>
w oo
gr and
pa in
de al</w>
re turned</w>
b ly</w>
su n</w>
see m</w>
si x</w>
ce p
gg ing</w>
eas y</w>
el d</w>
de e
we ek</w>
st y</w>
wor ked</w>
i se</w>
ce ss</w>
c rea
jo h
ki ssed</w>
s al
o pp
il s</w>
chil dre
wor ry</w>
perfe ct</w>
e ye
ba g</w>
m al</w>
te lling</w>
bene ath</w>
x ed</w>
tru st</w>
minu te</w>
at s</w>
than ks</w>
vamp ire</w>
imp ort
be come</w>
sa m</w>
mb </w>
be d
co ffe
shru gged</w>
si ght</w>
b lo
th i
ti ght</w>
at e
bar ely</w>
un g</w>
wi fe</w>
e f</w>
pl aced</w>
b s</w>
childre n</w>
ma tion</w>
answ ered</w>
coll e
foo t</w>
oun ded</w>
bl in
lor d</w>
some times</w>
he y</w>
g ge
e mo
ton gue</w>
surpri sed</w>
won dered</w>
emp ty</w>
y er</w>
fo l
lau gh</w>
pla y</w>
ck y</w>
fig ure</w>
c ting</w>
for e
ow ned</w>
immedi ately</w>
th y</w>
c oo
d uring</w>
de sk</w>
f ra
kn ows</w>
an k
poin ted</w>
sli d</w>
st e</w>
coffe e</w>
d red</w>
e mb
s m
p id</w>
e ts</w>
at or</w>
re ly</w>
proble m</w>
qui e
ing ing</w>
b al
sc en
cer tain</w>
m med</w>
ghten ed</w>
pl an</w>
da u
y n</w>
ac tion</w>
mi ddle</w>
t ar
sel ves</w>
b all</w>
e li
hea vy</w>
s an
app eared</w>
ha ll</w>
ach ing</w>
gen er
e ting</w>
com m
m oun
in st
af ter
al though</w>
at u
l a</w>
fini shed</w>
mon ths</w>
se tt
we aring</w>
s mo
ch u
k ni
dr ink</w>
la dy</w>
qu ick</w>
v al
no se</w>
as ed</w>
pu lling</w>
bo tt
how ever</w>
fu sed</w>
hea ded</w>
i an</w>
any more</w>
par tment</w>
inter e
g ni
simp ly</w>
th ed</w>
li ked</w>
b ar</w>
or der</w>
ke y</w>
gra y</w>
nu mber</w>
soun ded</w>
wi sh</w>
an n
tt e</w>
fami li
b re
h ers</w>
st ly</w>
in ned</w>
es ca
vie w</w>
gen tly</w>
conver sation</w>
hun dred</w>
in di
l er</w>
sli ghtly</w>
si r</w>
ex cept</w>
- -</w>
com es</w>
kne es</w>
c tive</w>
be came</w>
tin y</w>
er i
tou ched</w>
import ant</w>
sp ace</w>
re turn</w>
p lo
ali ve</w>
che ek</w>
v or
pre sen
l ying</w>
swe et</w>
g es</w>
fi f
sof tly</w>
pl ac
ex peri
sp ar
k y</w>
t one</w>
t a</w>
str ange</w>
sp ent</w>
mu sc
th ick</w>
w ind</w>
wa ke</w>
dire ction</w>
soun ds</w>
se x</w>
ab i
he si
n one</w>
reco gni
bro ken</w>
sp ed</w>
bu tt
ad ded</w>
grou p</w>
a head</w>
mm er</w>
tom or
p ho
e ars</w>
r y
do ors</w>
par ti
li ghts</w>
surpri se</w>
sig n</w>
some how</w>
we eks</w>
speci ally</w>
b att
h en
stu pid</w>
wra pped</w>
wan ts</w>
al ing</w>
tomor row</w>
r s</w>
re ach</w>
din ner</w>
er y</w>
wor se</w>
cra zy</w>
ear th</w>
m ale</w>
quie tly</w>
con ne
ne y</w>
some where</w>
pie ce</w>
vo l
d ang
de ser
ki ds</w>
sl ow</w>
cer tain
c us</w>
m el
stu ff</w>
per son
tion al</w>
st ic</w>
dau ghter</w>
sa ge</w>
e specially</w>
secon ds</w>
bo x</w>
gu ard</w>
trou ble</w>
lo cked</w>
bro ke</w>
dri ve</w>
d dy</w>
sing le</w>
h y
w el
c ab
re min
dark ness</w>
li t</w>
je ct</w>
ru p
ss a</w>
ma ge</w>
e at</w>
cla i
ll en</w>
be y
bed room</w>
rememb ered</w>
sque e
n or</w>
spe a
for ce</w>
are a</w>
wor e</w>
wea p
lu c
bey ond</w>
pr acti
man s</w>
pu l
li p</w>
k y
be at</w>
sil ent</w>
d on</w>
man aged</w>
wor ried</w>
ca tion</w>
won der</w>
pa per</w>
ex i
questi ons</w>
co ver</w>
thre w</w>
tre es</w>
pa used</w>
be a
i on</w>
be liev
wa lls</w>
si tu
m rs</w>
che ck</w>
me ans</w>
ti red</w>
si ve</w>
c ts</w>
u sing</w>
s ki
b bed</w>
al ed</w>
ow n
en ded</w>
i ously</w>
d ru
see ms</w>
infor mation</w>
dre ssed</w>
he at</w>
foll ow</w>
un k</w>
it al</w>
b right</w>
su gge
expe cted</w>
ju li
hu ge</w>
ga me</w>
mb ling</w>
gh ting</w>
do m</w>
de fin
k in
t ree</w>
dist ance</w>
ou d</w>
promi se</w>
sh or
sha king</w>
an gry</w>
doub t</w>
c lar
ic al</w>
j en
b li
me eting</w>
un t</w>
j ack
ta lly</w>
gr ow
a ma
c ool</w>
m ate</w>
br own</w>
t le</w>
th or
vi ce</w>
g oo
ha ll
st ate</w>
ear ly</w>
cat ch</w>
ce ss
si c</w>
poli ce</w>
o d
o s</w>
li er</w>
par ty</w>
g or
p lu
crow d</w>
bo ard</w>
smi ling</w>
for ced</w>
list en</w>
ex ci
w ood</w>
le ss
lou d</w>
wol f</w>
me s
f an
p ick</w>
de f
sme ll</w>
mag ic</w>
ser ious</w>
th ered</w>
m ac
sc ent</w>
gr in</w>
sc ri
gla d</w>
hu s
ne ws</w>
an a</w>
do or
for get</w>
ke eping</w>
th ous
s word</w>
mur mur
po cket</w>
so lu
cle arly</w>
sh oo
sur r
ner v
re pe
agre ed</w>
p ack</w>
stru gg
sna pped</w>
desp er
n g
bo ys</w>
a po
en a</w>
sa ve</w>
si te</w>
ch in</w>
pla ying</w>
of ten</w>
de si
ac ks</w>
s co
w ar</w>
n ick</w>
comfor table</w>
ver ing</w>
j as
ta ll</w>
sur vi
r a</w>
t ab
cho ice</w>
a i
th in</w>
as su
ba th
whe ther</w>
be low</w>
t el</w>
si st
ro ck</w>
posi tion</w>
g li
an im
hun g</w>
ta kes</w>
be th</w>
m ly</w>
kn ow
f ru
pa y</w>
v al</w>
ha u
p es</w>
pleas ure</w>
stre ng
v id</w>
at temp
ear lier</w>
se x
cal m</w>
ste a
alex </w>
mar k</w>
y si
app ar
as king</w>
d ate</w>
drea m</w>
d own
fu n</w>
li k
l ow
no on</w>
certain ly</w>
g un
spe ct</w>
li ved</w>
v ers</w>
cro ssed</w>
sli pped</w>
gr inned</w>
obvi ously</w>
d ness</w>
e ve</w>
ha te</w>
ti s
sp ir
ssi ve</w>
ti e</w>
le tting</w>
ev ening</w>
bott om</w>
do g</w>
ge ts</w>
fur ther</w>
dd en</w>
joh n</w>
br ow</w>
an ti
k id</w>
han ded</w>
situ ation</w>
b it
nor mal</w>
arri ved</w>
nat ur
pa ir</w>
f it</w>
m it</w>
it ely</w>
e mi
z en</w>
ju mped</w>
usu al</w>
g er
rea ding</w>
pri v
sol di
de man
the m
f ar
famili ar</w>
a partment</w>
ri es</w>
k en
hus band</w>
pp er</w>
fr owned</w>
sm oo
usu ally</w>
cu l
che eks</w>
k ic
fi eld</w>
bath room</w>
wai st</w>
d el
care fully</w>
ho ping</w>
expla in</w>
shar p</w>
mu ttered</w>
sc i
lo se</w>
l y
cle an</w>
cli mb
sh owed</w>
d om
reali ze</w>
bor n</w>
en er
pa th</w>
mi sta
ho ped</w>
st rea
i ll
brea thing</w>
e mer
spo t</w>
p un
gl ance</w>
w et</w>
cen ter</w>
ja ke</w>
a vo
them selves</w>
gre w</w>
imag ine</w>
u e</w>
for tun
pic ture</w>
b an
defin itely</w>
c tions</w>
secre t</w>
comp any</w>
ex plo
te st</w>
laugh ing</w>
ce ll</w>
r ying</w>
sc ra
ch an
li sh</w>
mm a</w>
sel y</w>
fu ck</w>
tur ns</w>
bu n
desp ite</w>
su c
le g</w>
hi de</w>
streng th</w>
sou l</w>
li ves</w>
lik ely</w>
in de
er e
j a</w>
d r</w>
ja mes</w>
ll owed</w>
pre par
at ure</w>
off ered</w>
sc ared</w>
si ck</w>
so ci
que en</w>
att ack</w>
tal ked</w>
mb ers</w>
fa ir</w>
an na</w>
fu ture</w>
le ts</w>
vamp i
be sides</w>
en tered</w>
ja w</w>
a p
we ight</w>
el ev
sti an</w>
chu ck
know le
b en</w>
kni fe</w>
do ctor</w>
ni e</w>
ne ar
ag es</w>
pa ss</w>
easi ly</w>
b ow</w>
dro p</w>
fi ghting</w>
r ound</w>
c ry</w>
ter min
hand le</w>
shou ted</w>
as ks</w>
ra ge</w>
coun ter</w>
hel ped</w>
st are</w>
memor y</w>
sta yed</w>
su it</w>
thir ty</w>
re n</w>
s end</w>
gr ace</w>
p ra
all owed</w>
d ying</w>
aw are</w>
rema ined</w>
atu res</w>
for ever</w>
ff ed</w>
me tal</w>
t ary</w>
mi d
lli e</w>
or y</w>
go ld</w>
oun ds</w>
ev en
it self</w>
m al
a side</w>
dang er
a da
pow er
in vol
w o
fore head</w>
c s</w>
mu sic</w>
d ry</w>
e than</w>
beg inning</w>
nei ther</w>
sil ver</w>
ck er</w>
ho sp
nee ds</w>
sear ch</w>
y a</w>
wor th</w>
se a</w>
tru ck</w>
m er</w>
hesi t
ex a
con vin
ph ysi
simp le</w>
pre ten
bra in</w>
vampi res</w>
c ried</w>
mi cha
re lie
pa ti
mi ssed</w>
ir ed</w>
ef for
g n
ic es</w>
br ows</w>
s se
b ing</w>
f ting</w>
s ons</w>
sha ll</w>
di sp
or ed</w>
si ty</w>
ke ts</w>
bu ll
ne w
mar ried</w>
diff ic
wi l
stan tly</w>
su ff
sp read</w>
fa lling</w>
de stro
a part</w>
p ly</w>
cap tain</w>
imp re
sha ke</w>
ar t</w>
prote ct</w>
cla ss</w>
p ale</w>
he ad
foo t
rela tion
ener gy</w>
ol der</w>
re le
oun ding</w>
re ci
d on
sett led</w>
cu sed</w>
o in
d ance</w>
noti ce</w>
v ir
ma ster</w>
gu il
we ar</w>
pan ts</w>
si gh</w>
je ans</w>
after noon</w>
a mu
ta il</w>
fle sh</w>
re si
hi gh
gu i
v an</w>
ll o</w>
ca lling</w>
wi se</w>
te am</w>
mb le</w>
expla ined</w>
v or</w>
c in
se ven</w>
c ated</w>
bb ing</w>
re ve
pu sh</w>
o t</w>
foll owing</w>
mi ssion</w>
z a
f er</w>
ab ri
dr in
ma x</w>
scre en</w>
ha ted</w>
wan ting</w>
ni ght
gu e
u ne
sho ck</w>
ch ur
d or
ma in</w>
mom ents</w>
pu tting</w>
ei ght</w>
lear ned</w>
under stood</w>
lo ck</w>
da vid</w>
cou ch</w>
h ood</w>
appar ently</w>
mar y</w>
con fi
g ate</w>
hosp ital</w>
parti cu
ca mer
pu bli
go es</w>
op ening</w>
z i
relie f</w>
ar ra
han ging</w>
disc u
dro ve</w>
mo ve
h oo
pa u
se curi
u n</w>
ra di
hun ter</w>
vi sion</w>
co le</w>
won dering</w>
ge st
ri de</w>
w n</w>
tu res</w>
gg er</w>
d ani
r owed</w>
ra in</w>
stu ck</w>
li es</w>
danger ous</w>
no ise</w>
wi lling</w>
k ar
hor se</w>
v in</w>
fig ured</w>
star ting</w>
thir d</w>
batt le</w>
l ted</w>
car ried</w>
le ad</w>
z e
bu sy</w>
sudd en</w>
micha el</w>
gu ards</w>
jas on</w>
c up</w>
cl en
speci al</w>
in clu
esca pe</w>
ho le</w>
screa med</w>
bo ttle</w>
hi ps</w>
disapp eared</w>
brea k
k a</w>
ti vely</w>
om s</w>
mi ke</w>
l ower</w>
stor e</w>
ou gh
in e
ab solu
boo ks</w>
w ed</w>
shi fted</w>
de mon</w>
bo dies</w>
l en
sh el
securi ty</w>
an ci
hor ri
list ening</w>
power ful</w>
j ac
cha se</w>
sh ower</w>
o li
ssi e</w>
un less</w>
c er</w>
fre e
de m
w ing</w>
gri p</w>
cont act</w>
go l
or g
sa tis
mi ssing</w>
expe ct</w>
com pu
happ ening</w>
in es</w>
v a</w>
re cei
we ir
murmur ed</w>
po se</w>
spea king</w>
s n
pro fe
care ful</w>
su sp
hall way</w>
mm ing</w>
k in</w>
lu cky</w>
lear n</w>
ur </w>
fre y
br an
even tually</w>
su mmer</w>
coun t</w>
c y
wind ows</w>
ef fe
le vel</w>
el ess</w>
z ane</w>
t ent</w>
mir ror</w>
mp ing</w>
tru ly</w>
thous and</w>
apo lo
twi sted</w>
frey ja</w>
col or</w>
la id</w>
a mer
hu mans</w>
ad ly</w>
har der</w>
gi e</w>
vi ol
ach el</w>
ac king</w>
sle eping</w>
sc ar
sho p</w>
ta ste</w>
desi re</w>
ac ted</w>
bur st</w>
st le</w>
ri ver</w>
a tions</w>
str on
de ar</w>
b ent</w>
wi t
r achel</w>
off er</w>
relation ship</w>
your s</w>
sy ste
ye lled</w>
plac es</w>
j on
co at</w>
pe ter</w>
ss y</w>
i sl
e my</w>
ru bbed</w>
tor s</w>
r ace</w>
st on</w>
at er</w>
d ence</w>
mi e</w>
pu shing</w>
consi dered</w>
on y</w>
gu ar
respon se</w>
bu l
a ir
th ru
off ic
swa llowed</w>
fre sh</w>
n al</w>
chri st
gr owing</w>
in ess</w>
qu e</w>
fo cus</w>
ab ly</w>
en ding</w>
p h</w>
grab </w>
y l
mi tted</w>
qu ar
ad mit</w>
s mar
as le
ma d</w>
smo ke</w>
mes sage</w>
asle ep</w>
tr ance</w>
wi d
opp o
thr ow</w>
en d
i sa
li d</w>
diffic ult</w>
sp end</w>
na h</w>
no d</w>
bur ned</w>
to m</w>
fin ding</w>
am ong</w>
s a</w>
po or</w>
tor y</w>
c ate</w>
sta tion</w>
b by</w>
s now</w>
ser iously</w>
re su
wa ved</w>
g ru
fun ny</w>
le aning</w>
com man
bur ning</w>
ab </w>
wa ve</w>
vi a</w>
blin ked</w>
mi les</w>
un cle</w>
laugh ter</w>
in ch</w>
di str
obvi ous</w>
tur ed</w>
feel ings</w>
beg in</w>
ho tel</w>
comple te</w>
f rea
con fused</w>
ada m</w>
cra w
mo vi
swe e
st y
wi ld</w>
s en</w>
presen ce</w>
li st</w>
f as
nerv ous</w>
ac cep
amer ic
x i
b are</w>
l eng
whisp er</w>
e k
any where</w>
comp li
sh are</w>
app reci
abi lity</w>
natur al</w>
fa llen</w>
w ine</w>
th om
or e</w>
possi bly</w>
emb arra
f ic
lu ci
ge or
remin ded</w>
priv ate</w>
stre tched</w>
j i
hea ds</w>
fl at</w>
no te</w>
st ick</w>
e u
ar gu
go d
dire ctly</w>
e mma</w>
tri p</w>
re fle
fac es</w>
shad ows</w>
ag er</w>
hi dden</w>
re cor
min i
lea ther</w>
ex cu
d an</w>
ele c
in ve
im possible</w>
b ite</w>
pla yed</w>
shad ow</w>
as sa
k ers</w>
supp ose</w>
lli on</w>
d ged</w>
s lu
person al</w>
de termin
vi sit</w>
ri ck</w>
sho es</w>
lin es</w>
pal m</w>
me ss</w>
w in</w>
tu al</w>
ac ing</w>
believ ed</w>
i ly</w>
si ze</w>
ne cess
for d</w>
in k
po sse
d ings</w>
p ers</w>
sur face</w>
feel s</w>
for est</w>
cir cle</w>
sar ah</w>
ser ved</w>
p ink</w>
vel op
ev id
la p</w>
clu b</w>
sho ved</w>
jack et</w>
p our
oun ced</w>
jo in</w>
bi lity</w>
coun try</w>
experi ence</w>
b ones</w>
mi li
door way</w>
o k</w>
clai med</w>
pre sent</w>
tr a</w>
deman ded</w>
fi sh</w>
spe ed</w>
in si
m as</w>
in stru
a ti
se th</w>
ev il</w>
l in</w>
ta ins</w>
pro du
knowle dge</w>
m or</w>
u h</w>
we st</w>
climb ed</w>
war ri
fo cused</w>
weir d</w>
li a</w>
cor re
fini sh</w>
si de
mo on</w>
thre at
e ding</w>
cr ying</w>
f ought</w>
gh o
n ers</w>
clo ck</w>
memor ies</w>
ar ti
ke e
c at</w>
m ach
en trance</w>
par t
appro ached</w>
wi shed</w>
for th</w>
dri ving</w>
screa m</w>
ran g</w>
c o</w>
fa ster</w>
hear ing</w>
all ow</w>
to tally</w>
brea the</w>
bo y
re aching</w>
fin al</w>
che cked</w>
mp s</w>
promi sed</w>
op s</w>
lea ding</w>
deci sion</w>
t ching</w>
sla mmed</w>
inter rup
fa vor
bo at</w>
invol ved</w>
low ered</w>
r at
su rely</w>
so phi
intere sted</w>
lun ch</w>
we ak</w>
to ssed</w>
b on
d or</w>
har dly</w>
a unt</w>
si on
in ation</w>
fi l
cen tr
musc les</w>
fa i
mi l
be er</w>
di r
s ne
in no
vi ll
cle ared</w>
un able</w>
si ons</w>
inter est</w>
ci ous</w>
s ni
no body</w>
wel come</w>
k o
gla sses</w>
perfe ctly</w>
stor m</w>
be t</w>
for med</w>
be ar</w>
stru ck</w>
cir c
e ment</w>
compu ter</w>
p y</w>
fr an
mo stly</w>
concer ned</w>
cei ling</w>
di tion</w>
st age</w>
d anger</w>
continu e</w>
com pan
de te
pau l</w>
pa id</w>
re gre
hon e
oc ca
dri ver</w>
hea ding</w>
e ty</w>
b ow
ri age</w>
i mage</w>
m ous</w>
in cre
s and
ru sh</w>
ki lling</w>
n ur
bri ef
c ross</w>
or dered</w>
ga sped</w>
kic ked</w>
hi ding</w>
la w</w>
n ine</w>
od d</w>
scen e</w>
bro thers</w>
twi ce</w>
st ers</w>
ar r
y ard</w>
for gotten</w>
pi er
in stantly</w>
tt ering</w>
lo gan</w>
y an
na ked</w>
j our
lo a
bla de</w>
a sh
ter ing</w>
gener al</w>
ac ci
op er
w ound</w>
ar my</w>
bru shed</w>
sw ung</w>
an no
gi gg
con sc
s nor
ad van
fac ed</w>
effor t</w>
n on
e lle</w>
pan ic</w>
ca st</w>
squee zed</w>
pro vi
wri st</w>
ll en
is su
bur n</w>
se par
jo ined</w>
hi story</w>
terri ble</w>
m c
won der
ri sk</w>
rep or
v ani
ro ll</w>
ignor ed</w>
sig ned</w>
ac he</w>
syste m</w>
woo ds</w>
soldi ers</w>
brea king</w>
bu y</w>
al e
list ened</w>
pie ces</w>
sa d</w>
isl and</w>
fi st</w>
fe male</w>
thom as</w>
a st</w>
re sted</w>
fle w</w>
c her</w>
si mon</w>
buil t</w>
enjo y</w>
nei gh
ber t</w>
par k</w>
v ar
hen ry</w>
fl ying</w>
ye llow</w>
chur ch</w>
s p</w>
war ning</w>
war ds</w>
boo ts</w>
f y</w>
ama zing</w>
sk ir
ri sing</w>
ac y</w>
break fast</w>
pho to
uni ver
fol ded</w>
af fe
he llo</w>
o ther
bit ch</w>
cla ire</w>
de scri
ru shed</w>
mu l
nor th</w>
ow ers</w>
st ic
c and
n ate</w>
absolu tely</w>
re nt</w>
respon si
stea dy</w>
he al
t in</w>
wor st</w>
weap on</w>
de v
si s</w>
cir cu
jo e</w>
loo se</w>
bloo dy</w>
swe at</w>
e m</w>
han g</w>
prepar ed</w>
b ag
we dding</w>
men tion</w>
fa ir
go ver
tion ed</w>
su per
ti ghtly</w>
tran s
par king</w>
oppo site</w>
bl ow</w>
ty pe</w>
s our
f ly</w>
drea ms</w>
la ke</w>
jer ked</w>
lu ke</w>
tt ers</w>
fa ult</w>
gr own</w>
excu se</w>
def en
lea ves</w>
dani el</w>
fu cking</w>
cr y
butt on</w>
ch oo
se y</w>
e yed</w>
woo den</w>
inst in
be ach</w>
mo tion</w>
inde ed</w>
dis gu
pre ss</w>
si x
cur led</w>
a i</w>
pl ate</w>
ta ils</w>
k ate</w>
st ab
r on
screa ming</w>
e ating</w>
p sy
gen tle</w>
gra ss</w>
leng th</w>
h i</w>
wi lli
ki ssing</w>
in i
su s</w>
men tal</w>
ex hau
exci te
la tion</w>
ti ed</w>
pl ans</w>
hu h</w>
nat ure</w>
s m</w>
go ds</w>
disapp oin
ti p</w>
move ment</w>
s sure</w>
sle pt</w>
ci l</w>
id enti
g lo
stu died</w>
re fu
necess ary</w>
tou ching</w>
visi ble</w>
d un
mon th</w>
t led</w>
ex ten
fi re
s ong</w>
gol den</w>
intere sting</w>
ki e</w>
c t
emo tions</w>
hun gry</w>
g ar</w>
ye ster
happ ens</w>
up set</w>
d ents</w>
sear ching</w>
ac ting</w>
cre ature</w>
easi er</w>
n el</w>
lo sing</w>
tra vel
ari ly</w>
ri se</w>
re action</w>
rele ased</w>
ro lling</w>
ma j
c ard</w>
er ic</w>
el ed</w>
s lo
e cho
con fu
cau sed</w>
an ds</w>
concer n</w>
nar rowed</w>
at trac
la w
fing er
st ard</w>
ac </w>
dee per</w>
fla shed</w>
sa fe
wh ose</w>
lu ck</w>
mista ke</w>
clen ched</w>
bi ll</w>
cl ou
p ool</w>
te ch
car ry</w>
grow led</w>
publi c</w>
bl ack
br inging</w>
fir m</w>
m enti
thin ks</w>
smoo th</w>
er ly</w>
pro per
yester day</w>
shi ft</w>
gr an
ha w
fre n
sou th</w>
deci de</w>
f ts</w>
ja mie</w>
te a</w>
str ang
sta ying</w>
fortun ately</w>
ag ree</w>
ry an</w>
di rt</w>
b one</w>
repe ated</w>
fif teen</w>
in vi
prin ce</w>
hesit ated</w>
wo ke</w>
ang el</w>
ca su
favor ite</w>
w ings</w>
st un
sp un</w>
st af
smi les</w>
y al</w>
cour t</w>
po sed</w>
ti ghtened</w>
plan ned</w>
sha pe</w>
sho cked</w>
sc rat
lan ded</w>
se ment</w>
weap ons</w>
i ling</w>
st an</w>
wor ks</w>
draw n</w>
bri dge</w>
re moved</w>
colle ge</w>
eye brows</w>
dir ty</w>
ju mp</w>
ri ch
sub ject</w>
1 9
enti rely</w>
gre y</w>
spe cted</w>
re fused</w>
bl ank
ke ys</w>
chuck led</w>
car rying</w>
stor ies</w>
e t
smar t</w>
ri ch</w>
or ig
wonder ful</w>
pe ace</w>
hi ll</w>
h ou
near by</w>
b ye</w>
clo sing</w>
recogni zed</w>
aw k
war m
sh owing</w>
ro oms</w>
gi ves</w>
less ly</w>
m ood</w>
re gi
ca lls</w>
con su
be lly</w>
kno cked</w>
nar row</w>
tr ack</w>
mat t</w>
ac cept</w>
brea thed</w>
wor n</w>
ac e
me an
in te
g as</w>
i di
sh ared</w>
every where</w>
ba stard</w>
sugge sted</w>
gh s</w>
sh a</w>
sa ved</w>
anim al</w>
t age</w>
v ul
char lie</w>
s mir
g ly</w>
desper ate</w>
mar k
ga thered</w>
in n</w>
char ge</w>
li br
ro of</w>
c kets</w>
warm th</w>
hea vi
kne e</w>
f al
c ele
gi ft</w>
fi ll</w>
dou ble</w>
answ ers</w>
a se</w>
p ort</w>
th ering</w>
b ought</w>
other wise</w>
lo g
sen ding</w>
spo ken</w>
re gar
pre gn
avo id</w>
sex y</w>
pl ane</w>
com b
su cked</w>
thu mb</w>
ba se</w>
s ca
r ough</w>
shoo t</w>
dr unk</w>
bu ried</w>
dee ply</w>
re sta
st ar</w>
gi ant</w>
l ing
resta ur
ma il</w>
bi e</w>
n ment</w>
on i
bo ther</w>
de vi
pro ce
gro aned</w>
te x
ta u
car s</w>
ali ty</w>
draw ing</w>
pre ssing</w>
s an</w>
tra in</w>
pleas ed</w>
p it
fa int</w>
consc ious</w>
pas sing</w>
reali ty</w>
sil ently</w>
do ll
on ing</w>
in tro
hel ping</w>
a wake</w>
inve sti
hu g</w>
cha llen
be lon
am oun
dra gged</w>
wri tten</w>
ach es</w>
in ti
emi ly</w>
sur ed</w>
du st</w>
bu s</w>
c el
th a</w>
swe ar</w>
exci ted</w>
my ster
sp r
m i</w>
e di
rep ly</w>
ro b
un ted</w>
p in
na mes</w>
g her</w>
bre e
hear t
x es</w>
surr ounded</w>
fa ded</w>
fif ty</w>
shi ps</w>
be lt</w>
beau ty</w>
inst ant</w>
in ted</w>
f light</w>
ex tra</w>
re gu
tra ining</w>
imag ined</w>
te en
zz y</w>
pu lls</w>
s and</w>
ste el</w>
dra w</w>
pa use</w>
e qu
supp ort</w>
pic tures</w>
attemp t</w>
s oo
wa ves</w>
ce ll
y or
apolo gi
hon ey</w>
lar ly</w>
experi en
ad mitted</w>
pur pose</w>
consi der</w>
menti oned</w>
g abri
st al
li ties</w>
g y
or tun
pla y
dis covered</w>
de st</w>
tu de</w>
le an</w>
a sh</w>
i or</w>
or din
opp ortun
app ear
le tter</w>
t ele
in ci
hor ses</w>
intro du
se tting</w>
kno ck</w>
fla sh</w>
sp ra
no ah</w>
stra tion</w>
wi ped</w>
0 0</w>
so a
b er</w>
pr oud</w>
j un
ti al</w>
gr ow</w>
poin ting</w>
vo ices</w>
oc cur
bru sh</w>
stre ss</w>
anci ent</w>
ho ly</w>
consi dering</w>
sli ding</w>
pl enty</w>
drin king</w>
s che
offic er</w>
b as
physi cal</w>
pro cess</w>
s ac
li ly</w>
k ick</w>
b oun
stu dy</w>
expe cting</w>
movi e</w>
ser vice</w>
ur a</w>
n ow
d are</w>
v ag
youn ger</w>
determin ed</w>
ti ps</w>
sh ri
s ink</w>
stre ets</w>
opportun ity</w>
cor ri
ab and
ser ve</w>
ster n</w>
tra il</w>
na med</w>
an ne</w>
he els</w>
incre di
moun tain</w>
gl ared</w>
do zen</w>
curi ous</w>
excite ment</w>
vi ous</w>
de tails</w>
ha m</w>
e tte</w>
lo cal</w>
hor ror</w>
interrup ted</w>
hon est</w>
proble ms</w>
p on
la y
thr owing</w>
cra p</w>
st in</w>
li ghtly</w>
com mon</w>
star s</w>
differ ence</w>
b ound</w>
pre ssure</w>
bri ef</w>
bla me</w>
ba stian</w>
sli p</w>
willi am</w>
te ar</w>
sc an
b adly</w>
coll ap
en emy</w>
re ver
bea st</w>
rela xed</w>
lan gu
a de</w>
f our
spe ll</w>
boy friend</w>
gr ate
gir l
ei gh
ac her</w>
squ are</w>
ir on</w>
h om
ca mp</w>
fl owers</w>
safe ty</w>
resp ond</w>
ma lly</w>
dom in
dra gon</w>
ju d
v i</w>
ex tre
d le</w>
stron ger</w>
we ek
staf f</w>
mi d</w>
j ared</w>
ti m</w>
an ts</w>
stan ds</w>
ill u
particu lar</w>
swe pt</w>
ti cal</w>
ca ssie</w>
comfor t</w>
be ll</w>
gl ow</w>
l and
or ders</w>
emo tion</w>
qu ired</w>
au di
mur der</w>
ri di
ki sses</w>
z es</w>
bl ond</w>
li ft</w>
fi le</w>
g al</w>
luc as</w>
christ mas</w>
bo ss</w>
ve hi
st ered</w>
pi ssed</w>
ta ined</w>
dr a</w>
tw el
tu cked</w>
wri ting</w>
de ck</w>
be coming</w>
w re
fe atures</w>
rich ard</w>
thi ghs</w>
in crea
hur ry</w>
fa iled</w>
je sus</w>
elev ator</w>
blo ck</w>
s nar
si mi
re li
t le
goo d
v ity</w>
pla in</w>
ky lie</w>
ir ri
oli via</w>
comm and</w>
d der</w>
pul se</w>
sk y
yor k</w>
cab in</w>
t v</w>
ro pe</w>
at en</w>
en t
mat eri
elec tri
lo ss</w>
geor ge</w>
du e</w>
fac ing</w>
now here</w>
re spect</w>
be l
fu ri
de st
fla mes</w>
b r</w>
be l</w>
evid ence</w>
f loo
ton y</w>
t ing
la un
respon ded</w>
i al</w>
pour ed</w>
re lease</w>
fir mly</w>
el ing</w>
cre w</w>
thru st</w>
sme lled</w>
comm un
ab by</w>
p uni
c ow
inclu ding</w>
for ty</w>
t less</w>
be tra
b ank</w>
as y</w>
se bastian</w>
sc u
orig in
por ch</w>
me mbers</w>
lea der</w>
e se</w>
sc ow
thre at</w>
rep ort</w>
eye brow</w>
restaur ant</w>
fra me</w>
pro ve</w>
bi gger</w>
lo ts</w>
so lid</w>
n ic
hur ried</w>
j or
an der</w>
in ha
b at
in y</w>
star ts</w>
spir it</w>
fi xed</w>
ca stle</w>
com pe
ob li
ri f
re liev
te xt</w>
sil k</w>
mb s</w>
b acked</w>
car ed</w>
ca ve</w>
p age</w>
r aced</w>
mor tal</w>
m my</w>
p ace</w>
as ing</w>
ne ath</w>
ang ed</w>
strugg led</w>
plan ning</w>
wh en
ga ll
whe el</w>
amoun t</w>
d ag
ge ous</w>
vill age</w>
ma ssive</w>
f ool</w>
th o
ignor e</w>
cu stom
je al
spe e
ge st</w>
twel ve</w>
ser v
sc oo
pp y</w>
par ts</w>
lo vely</w>
up stairs</w>
f an</w>
v ac
ma in
e sc
i vy</w>
j an
blank et</w>
juli an</w>
y n
pow ers</w>
v is</w>
f ed</w>
a th
sli de</w>
dam ned</w>
hi gher</w>
gri pped</w>
ff led</w>
le e</w>
ti tude</w>
t oo
mat ch</w>
mar ked</w>
wid ened</w>
ri pped</w>
rema in</w>
si e</w>
p a</w>
coun cil</w>
mach ine</w>
ssi ons</w>
under standing</w>
chi ef</w>
when ever</w>
in j
bl ur
shi eld</w>
mar riage</w>
th ri
inten se</w>
par ked</w>
pa pers</w>
on er</w>
con centr
chri stian</w>
guil t</w>
mi a</w>
un comfortable</w>
oc cu
o ce
a mon
an tly</w>
vic tor
re que
dem ons</w>
f lat
ridi cul
ur ge</w>
g age</w>
wh om</w>
k al
eli za
pur se</w>
rea sons</w>
ni ghts</w>
brief ly</w>
mi llion</w>
in ches</w>
ten sion</w>
under neath</w>
insi sted</w>
reliev ed</w>
wri te</w>
enjo yed</w>
cap able</w>
choo se</w>
wol ves</w>
practi cally</w>
ous es</w>
co vering</w>
ex pen
joh n
eng lish</w>
war ned</w>
sli ght</w>
mon ster</w>
c ure</w>
ac cor
survi ve</w>
anti ci
star tled</w>
maj or</w>
bir d</w>
ti cally</w>
wh el
heavi ly</w>
mp a
m m</w>
rela x</w>
ru bbing</w>
j ane</w>
z ation</w>
r ou
di a</w>
confu sion</w>
ri an</w>
dan cing</w>
rai se</w>
ic a</w>
tab les</w>
ea se</w>
pla stic</w>
h at</w>
g as
li am</w>
on a</w>
sto pping</w>
fi er
eng ine</w>
ba lls</w>
l ined</w>
libr ary</w>
po i
wi tch</w>
gar den</w>
re g
bla ke</w>
sp or
ble w</w>
haw k</w>
camer a</w>
ne t</w>
chri s</w>
g ers</w>
w ow</w>
conne ction</w>
mar ry</w>
inno cent</w>
c ture</w>
ang le</w>
li ght
st ate
p ure</w>
tra vel</w>
ta li
grate ful</w>
mer ely</w>
bir th
al er
nor mally</w>
na ils</w>
ru les</w>
re sting</w>
eliza beth</w>
acci dent</w>
con nor</w>
ho pe
al d</w>
ga tion</w>
convin ced</w>
plan et</w>
off ici
sig ns</w>
for got</w>
me al</w>
hand some</w>
f ic</w>
emp lo
ch o</w>
li qu
ga in</w>
i zed</w>
ad mir
x ing</w>
app ear</w>
ag ent</w>
swi r
hal f
fi x</w>
char ac
thr own</w>
dro pping</w>
juli a</w>
p et</w>
te lls</w>
h int</w>
f ying</w>
p ounding</w>
win ter</w>
l ack</w>
cre ated</w>
fro ze</w>
horri ble</w>
ang s</w>
s ank</w>
t an</w>
hone stly</w>
pic king</w>
pi le</w>
en ter</w>
sp ring</w>
profe ss
sp lit</w>
cre atures</w>
girl friend</w>
gu l
be lle</w>
jo y</w>
sh y</w>
pleas ant</w>
assu med</w>
mi ser
se ven
tun nel</w>
li fe
glan cing</w>
no ds</w>
effe ct</w>
ac tions</w>
mili tary</w>
stu mbled</w>
sen si
dist ur
re luc
prin cess</w>
week end</w>
ff s</w>
se an</w>
tre ss</w>
vi o
fren ch</w>
gra du
conne cted</w>
cu te</w>
over whel
j ace</w>
wea k
sh ment</w>
fas hi
in du
fli pped</w>
anim als</w>
ji m</w>
wal ks</w>
un fortunately</w>
fir ed</w>
con st
ous ness</w>
b om
ow ning</w>
b ble</w>
ac es</w>
cen tly</w>
fi sts</w>
u pper</w>
de b
k i</w>
lun gs</w>
sty le</w>
ri d</w>
i us</w>
t at
ca sh</w>
appreci ate</w>
me aning</w>
ex per
a lli
l ts</w>
ni fic
ci gar
w ere
ghten ing</w>
h ouses</w>
pregn ant</w>
ea st</w>
grab bing</w>
dd led</w>
gre e
or ange</w>
pas sion</w>
than k
chang ing</w>
bl on
cha irs</w>
fe ed</w>
z a</w>
hu gged</w>
clo set</w>
tan tly</w>
dist ant</w>
ar med</w>
ther e
cr ack</w>
lou dly</w>
da ddy</w>
en ces</w>
bag s</w>
ac le</w>
ed die</w>
sp ine</w>
ki ller</w>
pas sen
jo sh</w>
sear ched</w>
as se
fer red</w>
h a</w>
aw ful</w>
i st</w>
ev ents</w>
g w
buil dings</w>
tre mbling</w>
ssi on
k ev
sti ff
gho st</w>
da y
tau ght</w>
sk u
plu s</w>
hon or</w>
wa shed</w>
co tt
practi ce</w>
gen tle
o p</w>
we i
e qui
cl oud</w>
z o
ti lted</w>
recogni ze</w>
con fe
fur y</w>
l ace</w>
tre ated</w>
se ction</w>
clou ds</w>
bro o
m ely</w>
e ss
har d
as m</w>
accep ted</w>
li ssa</w>
destro y</w>
some body</w>
me as
qu a
radi o</w>
tre at</w>
ri s</w>
se qu
langu age</w>
fro zen</w>
clo thing</w>
a my</w>
sh ly</w>
cep tion</w>
ri ley</w>
l o</w>
k ir
cha in</w>
warri or</w>
da mage</w>
sa ke</w>
cry st
f at</w>
el bow</w>
regre t</w>
cur rent</w>
belie f</w>
gor geous</w>
avo i
americ an</w>
ad di
tu gged</w>
ex </w>
re l</w>
fr ank</w>
be ating</w>
strea m</w>
l ab
tow el</w>
sta ir
cr ou
ang led</w>
con ten
p it</w>
cr acked</w>
ck les</w>
cha mber</w>
org ani
oce an</w>
ar i</w>
corri dor</w>
spo tted</w>
mp le</w>
ro cks</w>
str anger</w>
inten ded</w>
sex u
s ane</w>
ca ll
ch er
jo ke</w>
st led</w>
li fting</w>
lo gy</w>
to es</w>
ignor ing</w>
ti ves</w>
sen sation</w>
su spected</w>
temp le</w>
idi ot</w>
ch ose</w>
it u
for give</w>
s al</w>
d less</w>
fi lling</w>
fru stration</w>
ll ows</w>
g an
car ol
du ty</w>
bal ance</w>
down stairs</w>
b led</w>
clai m</w>
ste pping</w>
je ff</w>
spi ri
pre si
back ward</w>
gun s</w>
ck led</w>
pe ered</w>
be lla</w>
k at
st ir
g ent</w>
de fe
preten d</w>
e pi
bree ze</w>
esca ped</w>
cau sing</w>
m bo
skir t</w>
sma ller</w>
pri son</w>
s nu
susp ici
pu zz
guil ty</w>
a st
var ious</w>
gover nment</w>
occa sion
le ans</w>
stun ned</w>
recei ved</w>
fer ence</w>
gu t</w>
ten der</w>
desper ately</w>
exa min
whi r
pro gra
der ek</w>
lo e</w>
who ever</w>
secre ts</w>
p he
in v
tri es</w>
man i
cli mb</w>
ab rup
bu i
tor e</w>
gabri el</w>
hi ssed</w>
gr ant</w>
po pped</w>
y ne</w>
bui ld</w>
mo ves</w>
man age</w>
exi st
ad d</w>
ridicul ous</w>
enjo ying</w>
simi lar</w>
a mb
p han
har m</w>
pat ter
du g</w>
far ther</w>
o be
au thor
grand mother</w>
c les</w>
tra pped</w>
par ted</w>
ni a</w>
att acked</w>
d y
sist ers</w>
st ones</w>
ann ounced</w>
be gun</w>
tow er</w>
no tes</w>
co ck</w>
poin ts</w>
cho sen</w>
pal ms</w>
f ate</w>
state ment</w>
be ha
abrup tly</w>
mi s
com par
inte lli
re turning</w>
o l</w>
p en</w>
bl ing</w>
ll ey</w>
gest ure</w>
mar i
awk ward</w>
ma ke
da wn</w>
pi llow</w>
s nat
ho li
al arm</w>
l ated</w>
part ner</w>
stu dents</w>
ex plan
le x
terri fied</w>
i z
profess or</w>
dri fted</w>
ro a
st ated</w>
as sured</w>
and a</w>
yan ked</w>
gen cy</w>
hi p</w>
lon don</w>
al right</w>
soldi er</w>
clo th</w>
de ca
la dies</w>
lan ding</w>
rea son
ch loe</w>
crea m</w>
bun ch</w>
pain ful</w>
z ar
w ro
ru le</w>
sar a</w>
exhau sted</w>
wa ste</w>
musc le</w>
c tively</w>
te dly</w>
particu larly</w>
cur se</w>
hol ds</w>
sen sed</w>
pri de</w>
do gs</w>
une x
app e
cal e
con fir
con ce
fa lls</w>
tre nt</w>
in su
s ke
in ner</w>
grand father</w>
circu m
m un
nur se</w>
bi ts</w>
de scen
birth day</w>
moun tains</w>
photo gra
en ds</w>
l ur
ing ton</w>
m o</w>
r hy
com ment</w>
thi gh</w>
lar ger</w>
gr and</w>
fr own</w>
li cked</w>
mar cus</w>
che cking</w>
pre ci
shoo ting</w>
p ha
wea ther</w>
ga zed</w>
gl owing</w>
att ered</w>
bri lli
an x
pur ple</w>
imp ati
co lon
blon de</w>
echo ed</w>
ma sk</w>
li mi
ju dge</w>
li ter
r on</w>
snor ted</w>
mar ks</w>
t ch
gli mp
fli ck
ri ding</w>
sp ing</w>
si p</w>
a me
soun ding</w>
gar age</w>
sha kes</w>
thr ough
ci vi
sp la
k ing
k er
ar ched</w>
strai ghtened</w>
de p
col ored</w>
foot steps</w>
gu s</w>
bow l</w>
ck en</w>
bl an
bl es</w>
p acked</w>
en cou
vani shed</w>
ju sti
embarra ssed</w>
de velop
br a</w>
experien ced</w>
so oner</w>
sha de</w>
u gly</w>
shi r
mu m</w>
ang el
d at
g lea
ter y</w>
deser ve</w>
i sh</w>
ben ch</w>
half way</w>
d el</w>
to tal</w>
sof a</w>
w on</w>
cen tu
cu tting</w>
cla y</w>
r acing</w>
con clu
sa tur
frien dly</w>
satis fied</w>
ex ha
fa vor</w>
gri m
tra ff
n an
nu mbers</w>
she et</w>
sen ten
con sci
gl are</w>
al co
n on</w>
ex pl
wa sh</w>
mat ters</w>
advan tage</w>
tor n</w>
re be
victor ia</w>
ste ve</w>
con temp
ro bert</w>
en ter
o '
tt a</w>
pl at
ma p</w>
ma d
b o</w>
mu mbled</w>
l en</w>
convin ce</w>
cat ching</w>
en velop
appro ach</w>
through out</w>
corre ct</w>
sour ce</w>
f abri
ex it</w>
hun dre
po pu
ur y</w>
li kes</w>
sing ly</w>
pa ying</w>
ro de</w>
com pla
hea ven</w>
po st</w>
sche du
i te
cl an</w>
shi f
ta pped</w>
as sist
th less</w>
s mu
destro yed</w>
er ie</w>
un like</w>
b owed</w>
for cing</w>
ba y</w>
tra ined</w>
jo se
whisp ers</w>
hun t</w>
bi lly</w>
a va
eas ed</w>
rema ining</w>
me at</w>
si lly</w>
sco tt</w>
neigh b
bro ad</w>
t ask</w>
mag gie</w>
re ar</w>
cle aring</w>
stan ces</w>
n it
si zed</w>
b ond</w>
a man
pain ted</w>
appear ance</w>
tar get</w>
e ager</w>
spe ct
hel ple
el ds</w>
spar k
vi de
r ab
ser ies</w>
re tri
g al
lu cy</w>
ac cess</w>
la p
fai th</w>
co p</w>
gest ured</w>
cale b</w>
dete ctive</w>
pri ce</w>
peri o
ad dress</w>
gr inning</w>
sla pped</w>
bl ank</w>
jour ney</w>
prote ction</w>
e ter
lo tte</w>
r att
fri ghtened</w>
wro te</w>
lat ing</w>
su it
surr ounding</w>
ga mes</w>
ki d
pro gre
imag es</w>
responsi ble</w>
every body</w>
en or
p ack
ous in</w>
c ousin</w>
ten se</w>
gar ion</w>
compan i
al y
challen ge</w>
fe a
c tors</w>
de an</w>
wra p</w>
gue ssed</w>
possi bility</w>
f led</w>
ca m
sun light</w>
ma s
sku ll</w>
dri ve
pp le</w>
stri ke</w>
cur sed</w>
re cently</w>
w an</w>
de pen
m are</w>
ter ror</w>
w y
e ked</w>
ar gue</w>
tr ace</w>
au tom
vio let</w>
me mber</w>
a than</w>
b ou
hi tting</w>
v ent</w>
sti on</w>
men ted</w>
sha me</w>
sen ses</w>
o sity</w>
cer e
ad ju
tri stan</w>
a do
kee ps</w>
strugg ling</w>
bu zz
b ows</w>
vehi cle</w>
gh ten</w>
rai sing</w>
dr ank</w>
traff ic</w>
gh ty</w>
k at</w>
ex claimed</w>
char les</w>
li z</w>
y ards</w>
a de
tr act</w>
unex pe
shar ply</w>
pri son
our selves</w>
je cted</w>
co st</w>
discu ss</w>
h ome
lo cation</w>
bloo d
d ining</w>
f oun
di smi
pun ch</w>
wi ll
hun ting</w>
na u
di an</w>
col ate</w>
bo b</w>
ab sen
st ag
tru sted</w>
sel </w>
brea st</w>
ck le</w>
ough ly</w>
dam p</w>
stro ked</w>
an drew</w>
regu lar</w>
t ough</w>
br and
ci a</w>
drive way</w>
cryst al</w>
cho colate</w>
occur red</w>
lo ving</w>
ca ge</w>
bir th</w>
co ps</w>
lo s</w>
sc ar</w>
har ry</w>
bo thered</w>
ab e</w>
2 0
i sion</w>
d al
clo sely</w>
m n</w>
chi ll</w>
se ated</w>
wor l
ca tions</w>
t elev
le tters</w>
na than</w>
pi dly</w>
the tic</w>
g ant</w>
rememb ering</w>
accor ding</w>
jon athan</w>
smi th</w>
vo lu
lou der</w>
sa u
shu dd
some what</w>
pat ted</w>
explan ation</w>
sy mpa
re mo
v et</w>
re placed</w>
str ated</w>
pal ace</w>
co vers</w>
att ached</w>
she ll</w>
ver sion</w>
i ses</w>
mi st</w>
c lau
d ating</w>
wa ll
po ten
vo lun
bull et</w>
chri st</w>
po t</w>
exist ence</w>
se ttle</w>
sc ru
re search</w>
g own</w>
bu tt</w>
p y
sl owed</w>
assu me</w>
liqu id</w>
beha vi
doll ars</w>
vi br
sel ess</w>
pro per</w>
man ner</w>
yl an</w>
ordin ary</w>
ing ed</w>
ther ine</w>
t ness</w>
d i</w>
re al
ca li
ba ll
thou ght
cau ti
mo aned</w>
b ac
gg led</w>
plac ing</w>
sh ine</w>
y den</w>
ther n</w>
quar ters</w>
ro o
dan ny</w>
gas p</w>
cri me</w>
she ets</w>
char lotte</w>
stru ction</w>
no dding</w>
t i</w>
gre at
tra y</w>
gg y</w>
light ning</w>
hundre ds</w>
ale c</w>
de clar
de cor
tt erly</w>
de gre
ra w</w>
e m
mo on
f angs</w>
ro man
in sane</w>
ra y</w>
pre di
pi sto
ac cu
ca ke</w>
dra g</w>
fac tion</w>
or ing</w>
presi dent</w>
bir ds</w>
clu e</w>
ev ent</w>
gen u
squ ir
pre vious</w>
happ iness</w>
issu e</w>
no ted</w>
te ach</w>
confi dence</w>
invi ted</w>
ri e</w>
ph y</w>
bl ind</w>
ki dding</w>
suc cess
ev an</w>
squee ze</w>
pa tion</w>
aband oned</w>
gra sp</w>
po ckets</w>
lo ad</w>
drin ks</w>
b i</w>
rea s
s se</w>
po p</w>
ble eding</w>
dru g</w>
st ops</w>
re ss</w>
dra ke</w>
stu dying</w>
cigar ette</w>
recor d</w>
agre ement</w>
laugh s</w>
amu sed</w>
gg s</w>
f ence</w>
tri ck</w>
aman da</w>
a x
y ly</w>
confi dent</w>
or i
run s</w>
telev ision</w>
tra iled</w>
ve ins</w>
dro ps</w>
lo ves</w>
threat ened</w>
fa ke</w>
sexu al</w>
e llie</w>
z om
ali ce</w>
m ere</w>
re mind</w>
com mi
brea d</w>
extre mely</w>
st and
sp a
ha ired</w>
pro of</w>
te acher</w>
shor e</w>
pi ed</w>
col in</w>
wr ink
stro de</w>
sophi e</w>
se as
proper ty</w>
exten ded</w>
j o</w>
pan ties</w>
er al</w>
l an</w>
mon it
for mer</w>
at ors</w>
l ab</w>
origin al</w>
st ling</w>
da e
fu l
loa ded</w>
di ck</w>
shru g</w>
fas cin
ca p</w>
pl un
e ag
deser ved</w>
fla me</w>
log ical</w>
ten ed</w>
ex posed</w>
off ering</w>
vul ner
sna p</w>
cla ws</w>
sli pping</w>
id an</w>
di sh</w>
se es</w>
ff in</w>
st ates</w>
su e</w>
ga vin</w>
be ar
d ylan</w>
cra ft</w>
materi al</w>
disappoin ted</w>
sh eri
su spect</w>
kev in</w>
vir g
ex e
co de</w>
profe ssion
medi cal</w>
r ings</w>
devi l</w>
ow ns</w>
t rea
lan ds</w>
mat es</w>
finger tips</w>
b ars</w>
ner ves</w>
sho ts</w>
sp er
o tic</w>
univer se</w>
lu st</w>
enor mous</w>
su san</w>
mor gan</w>
and ra</w>
gri ef</w>
centu ries</w>
ic y</w>
gra ve</w>
hal t</w>
fe llow</w>
sle y</w>
har sh</w>
fabri c</w>
o b</w>
sur ve
han nah</w>
fe ared</w>
all ey</w>
ag ged</w>
thous ands</w>
fin n</w>
curi osity</w>
ro be</w>
b es</w>
m mer
ju stin</w>
hope fully</w>
lat ely</w>
m .</w>
belon ged</w>
pro ject</w>
vic tor</w>
sw ing</w>
b ren
soci al</w>
e c
par a
pa int</w>
suc ce
gh ted</w>
ing er</w>
bri ck</w>
deli cate</w>
swa llow</w>
sp ending</w>
in visible</w>
je cts</w>
shudd ered</w>
sh ining</w>
mon y</w>
brilli ant</w>
satur day</w>
expen sive</w>
reali zing</w>
ar a</w>
emer ged</w>
rif le</w>
all owing</w>
ma ss</w>
ser ge
any body</w>
af ford</w>
z ens</w>
g en</w>
answ ering</w>
na tion</w>
ri er</w>
sa tions</w>
cr ack
y o
free dom</w>
warri ors</w>
jor dan</w>
nerv ously</w>
passen ger</w>
deli ber
d it</w>
jeal ous</w>
collap sed</w>
gue sts</w>
d d</w>
shi vered</w>
ru shing</w>
ke lly</w>
mid night</w>
ga z
shor ts</w>
sp inning</w>
mac </w>
c ook</w>
appro aching</w>
pa y
p ment</w>
ar ely</w>
distr acted</w>
assa ss
a mber</w>
ob ject</w>
rhy th
ad vice</w>
gh ed</w>
a z
hur ting</w>
hor iz
ex act</w>
se du
sh own</w>
tion ally</w>
cho ked</w>
ava il
t ate</w>
re quired</w>
a we
car ds</w>
di ly</w>
bri an</w>
pho to</w>
te asing</w>
wri sts</w>
screa ms</w>
disp lay</w>
back ground</w>
par is</w>
sar ca
craw led</w>
in fe
vide o</w>
b and
cre ate</w>
ul ar</w>
cre te</w>
dan te</w>
stra ined</w>
over head</w>
a y</w>
explo ded</w>
or a</w>
fli cked</w>
x ic
pre cious</w>
con ven
fair ly</w>
su ck</w>
bor ed</w>
jac ob</w>
jen ny</w>
sig n
di gging</w>
scan ned</w>
mi le</w>
so fi
imp ro
p ad</w>
clo se
impre ssed</w>
re tt</w>
coll ar</w>
comman der</w>
ti s</w>
el even</w>
bi ke</w>
kn u
encou ra
i sy</w>
sol ve</w>
ll an</w>
dru gs</w>
sho pping</w>
reve aled</w>
in tri
trac ks</w>
b y
i ted</w>
pain ting</w>
hun ger</w>
qu it</w>
sta ined</w>
circum stances</w>
soci ety</w>
deser t</w>
sc al
si ts</w>
gro an</w>
ff y</w>
mi xed</w>
t ches</w>
fri day</w>
r ows</w>
kn elt</w>
char ged</w>
e aten</w>
a h
bo xes</w>
ga thering</w>
mat the
sun day</w>
avail able</w>
ren ce</w>
sh er
resi st</w>
dae mon</w>
ac count</w>
ce ment</w>
ti cs</w>
ky le</w>
con crete</w>
dar ling</w>
c ca</w>
john ny</w>
fan ta
w ounds</w>
si ck
l ac
ne ck
in ion</w>
cor e</w>
flu shed</w>
chang es</w>
brea ths</w>
tal s</w>
sci enti
infor med</w>
op inion</w>
ba si
di m</w>
mo der
ro land</w>
sne a
pati ent</w>
jer emy</w>
ta sted</w>
sp are</w>
de tail</w>
mo tioned</w>
sand wi
a va</w>
swe at
k ane</w>
dire ct</w>
se ll</w>
shou ting</w>
for ming</w>
so li
e py</w>
co m</w>
frien d
in ched</w>
sa ges</w>
al ty</w>
jer k</w>
f lar
r are</w>
de partment</w>
cra sh</w>
bor ing</w>
sac ri
wit ne
dra gging</w>
anno yed</w>
dag ger</w>
lo ver</w>
e y
ff ing</w>
du de</w>
stu b
den y</w>
kno cking</w>
jack son</w>
k o</w>
f arm</w>
for ms</w>
la d</w>
ti sh</w>
prote st</w>
ma gaz
dra g
pun ched</w>
amu sement</w>
emb race</w>
tr unk</w>
b iting</w>
ter ms</w>
col t</w>
mo thers</w>
wa ving</w>
mar a</w>
col ors</w>
re d
u ri
appro pri
ja x</w>
e ded</w>
te ased</w>
ty ler</w>
h o</w>
uni form</w>
al ter
y ers</w>
sheri ff</w>
bru shing</w>
disapp ear</w>
sha ped</w>
dev on</w>
cha mp
exi st</w>
deli cious</w>
hun ters</w>
rema ins</w>
tra p</w>
or ted</w>
ar m
glan ces</w>
g ates</w>
ev ed</w>
di amon
pro mp
ex er
ac tual</w>
ho ll
hel en</w>
bran ches</w>
clar y</w>
wra pping</w>
gu est</w>
bb led</w>
st a</w>
en e</w>
ace ful</w>
a ye</w>
g a</w>
l ance</w>
cor ners</w>
sing ing</w>
de on</w>
fl owing</w>
wor k
dis belief</w>
ye p</w>
n ine
reve aling</w>
b last</w>
vi er</w>
good bye</w>
th or</w>
p ages</w>
sha ttered</w>
re aches</w>
ri bs</w>
p oo
ide as</w>
sy mbo
ca ses</w>
b acks</w>
na sty</w>
spar hawk</w>
night mare</w>
ro yal</w>
p tion</w>
win ked</w>
reve al</w>
d led</w>
mark et</w>
in ts</w>
ar ia</w>
hi d</w>
ra pidly</w>
li ar</w>
sti ff</w>
th us</w>
or e
el a
t ated</w>
fo g</w>
l ting</w>
resu lt</w>
se ats</w>
we al
fa thers</w>
satis faction</w>
fier ce</w>
d oo
ti ghter</w>
be long</w>
de al
mm ered</w>
fla sh
j on</w>
shi fting</w>
circ les</w>
senten ce</w>
je ssi
thu si
fur nit
fa mous</w>
ar chi
furnit ure</w>
me lissa</w>
de ss</w>
wi shing</w>
cre dit</w>
he ight</w>
st atu
mu d</w>
en cy</w>
casu al</w>
tre vor</w>
pisto l</w>
ev es</w>
incredi ble</w>
comm uni
ju lie</w>
chi cken</w>
ll as</w>
gge st</w>
pu s</w>
de aling</w>
cur ren
survi ved</w>
ru ssi
stu ffed</w>
op ens</w>
bi ggest</w>
beg ins</w>
ow ner</w>
whi pped</w>
n i</w>
sw o
en thusi
co cked</w>
ski lls</w>
ch ann
re sc
bri de</w>
che er
sh ane</w>
k night</w>
ed ges</w>
mi c</w>
sc attered</w>
cre pt</w>
de e</w>
furi ous</w>
p se</w>
wa it
behavi or</w>
cab </w>
shi ver</w>
reque st</w>
clu tched</w>
ow e</w>
cu pped</w>
den i
qu inn</w>
t our</w>
op tion</w>
re move</w>
be ard</w>
min ds</w>
cal mly</w>
con dition</w>
sh out</w>
happ ily</w>
perio d</w>
l ink</w>
ti pped</w>
ti le</w>
cli ff</w>
mil k</w>
pu ts</w>
kic king</w>
grow l</w>
sensi tive</w>
p ity</w>
provi ded</w>
n is</w>
ro ger</w>
ste al</w>
consi der
ga ther</w>
const ant</w>
sp ort</w>
re act</w>
de a
sig nific
spee ch</w>
m ance</w>
on g
ver n</w>
liter ally</w>
gr unted</w>
side walk</w>
cou rage</w>
tab ly</w>
care er</w>
air port</w>
arr anged</w>
lu x
apologi ze</w>
ann oun
r ange</w>
ba th</w>
en ess</w>
ex cell
fur </w>
lear ning</w>
stu dent</w>
in va
no pe</w>
mar tin</w>
emer gency</w>
win ced</w>
make up</w>
st ry</w>
anx ious</w>
va lley</w>
ru pt</w>
ge ar</w>
pat rick</w>
s om
sa van
bi tter</w>
emo tional</w>
dri ven</w>
z ard</w>
ex change</w>
na tional</w>
app oin
mo an</w>
swee the
a ver
stri p</w>
chil d
e lla</w>
bl ink</w>
se cure</w>
eigh teen</w>
un usual</w>
arri ve</w>
j im
he al</w>
en emi
dan ced</w>
mir anda</w>
famili es</w>
swi f
t ank</w>
g or</w>
li ds</w>
climb ing</w>
cri min
exe cu
frea king</w>
enemi es</w>
thr one</w>
cro ssing</w>
argu ment</w>
to l
ve ment</w>
hou se
g le</w>
vi du
inj ured</w>
s day</w>
sp here</w>
defen se</w>
indi vidu
ro ared</w>
vel ed</w>
sc or
natur ally</w>
k ha
re st
d ge
du ll</w>
dun can</w>
equi pment</w>
so ld</w>
c on</w>
resc ue</w>
hu mor</w>
fr ank
al i</w>
four th</w>
up ward</w>
ri p</w>
jessi ca</w>
dre ssing</w>
foot ball</w>
ac cent</w>
b ased</w>
sto len</w>
sp en
sa v
clo ak</w>
ha ir
strugg le</w>
mm it</w>
disapp ear
r in
hu man
flo ating</w>
gree ted</w>
b al</w>
du cked</w>
law yer</w>
edi th</w>
vic es</w>
re call</w>
w ounded</w>
close st</w>
threat ening</w>
co py</w>
car pet</w>
do l
sweethe art</w>
ic ious</w>
dire ctions</w>
prote cted</w>
mal es</w>
n y
stre tch</w>
dist in
offic ers</w>
br y
whi mp
illu min
ka tie</w>
shor tly</w>
reli gi
ac hi
sc ul
j et</w>
separ ate</w>
dri ed</w>
antici pation</w>
gri m</w>
kid na
r out
mar ie</w>
ro ar</w>
mp led</w>
scre e
ad ven
do c</w>
ju mping</w>
glimp se</w>
r i</w>
de mon
ho l</w>
lo gi
occu pied</w>
se ful</w>
bi le</w>
sc ary</w>
der ly</w>
du ke</w>
move ments</w>
ter m</w>
cen tur
n ity</w>
alex ander</w>
gigg led</w>
tal e</w>
gh ters</w>
draw er</w>
cha sed</w>
ex pan
o il</w>
mag n
k el
ki ly</w>
luci en</w>
wa sh
heart beat</w>
ic s</w>
ri s
near est</w>
cra shed</w>
sel e
excell ent</w>
b in
r ate</w>
per man
impre ssion</w>
bra ve</w>
h ook</w>
matthe w</w>
ti ll</w>
fru strated</w>
cl in
real m</w>
sna ke</w>
crow ded</w>
ta ining</w>
up right</w>
g ence</w>
dar ted</w>
centur y</w>
bo lt</w>
wi cked</w>
ho lly</w>
sa dness</w>
ru in</w>
holi day</w>
v ari
lo bby</w>
stro ke</w>
ste ph
to p
ma ma</w>
d ney</w>
je sse</w>
g ment</w>
a .
ma son</w>
be gged</w>
ad or
c tu
sp y</w>
six teen</w>
or ity</w>
su cking</w>
da w
mi cro
temp er
ru ined</w>
de adly</w>
ad vi
d ated</w>
fl ow</w>
hea ther</w>
r arely</w>
s wore</w>
d ar</w>
casu ally</w>
sa ving</w>
fe li
r al
disappoin tment</w>
ro le</w>
vulner able</w>
bar n</w>
e du
da mi
co lu
el ena</w>
con sequ
be g</w>
unexpe cted</w>
sh ows</w>
ow en</w>
ye lling</w>
sugge st</w>
awe some</w>
cab in
ar ro
swi tch</w>
heal thy</w>
cur ve</w>
tw in</w>
te ssa</w>
snar led</w>
e stab
mat tered</w>
tor ture</w>
fre qu
ta pe</w>
susp icious</w>
twi sting</w>
sle eve</w>
hand ful</w>
aler t</w>
profession al</w>
cli cked</w>
vel s</w>
gar rett</w>
c ke
compli cated</w>
as si
li mbs</w>
wan dered</w>
ma tic</w>
p ir
ed ward</w>
st ance</w>
her o</w>
el e</w>
to e</w>
da ve</w>
for t</w>
ro b</w>
un known</w>
tr y
al ine</w>
sa f
co ach</w>
vi lle</w>
ab sor
ul ti
ag ony</w>
temp or
preten ding</w>
p ounded</w>
back pack</w>
disgu st</w>
g g</w>
mul ti
zz a</w>
coun ted</w>
pre fer</w>
per mission</w>
ing e</w>
mar ch</w>
civi li
cle aning</w>
con di
boo t</w>
ad rian</w>
circ led</w>
ga ined</w>
progre ss</w>
t ar</w>
fla shing</w>
tr i</w>
tech ni
tar a</w>
stag g
d ging</w>
ba sement</w>
provi de</w>
h mm</w>
conven i
psy chi
ta tions</w>
swif tly</w>
wa ter
hol den</w>
do cu
attrac tive</w>
con tra
fan cy</w>
serge ant</w>
1 0</w>
ven ge</w>
tu b</w>
sti cally</w>
sophi a</w>
sett ling</w>
s in</w>
mo lly</w>
sh aring</w>
er in</w>
ken dra</w>
god dess</w>
exi sted</w>
z er</w>
star es</w>
el bows</w>
vic tim</w>
ro me</w>
for ces</w>
mmer ing</w>
su gar</w>
str ing</w>
sto le</w>
re cent</w>
viol ent</w>
la ying</w>
ss ment</w>
ar ch
fol ks</w>
crou ched</w>
a idan</w>
lea pt</w>
spen cer</w>
ho llow</w>
side ways</w>
to dd</w>
ac knowle
su m
dark ened</w>
scre wed</w>
myster y</w>
pri est</w>
ser ving</w>
in flu
bab e</w>
a ar
on ic</w>
yl or</w>
univer sity</w>
bl owing</w>
poten tial</w>
mat tress</w>
doub ted</w>
alco hol</w>
is le</w>
bull shit</w>
ki m</w>
cru el</w>
re se
he li
audi ence</w>
ar mor</w>
scre w</w>
han k</w>
t ag
t ney</w>
movi es</w>
scra mbled</w>
justi ce</w>
fi gu
posse ssed</w>
tra de</w>
attemp ted</w>
sw inging</w>
kin ds</w>
si a</w>
un conscious</w>
g n</w>
an nie</w>
va st</w>
ne st</w>
confir med</w>
pi lot</w>
p ou
he aling</w>
ss ly</w>
re pu
fl ower</w>
fr ed</w>
mar ble</w>
an dre
poli te</w>
im ing</w>
val u
for ear
as soci
posi tive</w>
gre ater</w>
ten sed</w>
tion ing</w>
progra m</w>
chan ces</w>
gui de</w>
he ated</w>
a wa
d ant</w>
fi ts</w>
ha ven</w>
reluc tantly</w>
conten ts</w>
che mi
fr owning</w>
e th
fl or
appropri ate</w>
pati ence</w>
hesi tation</w>
horiz on</w>
be gging</w>
han na</w>
neigh bor
there fore</w>
cha os</w>
whisp ering</w>
end less</w>
e go</w>
gi deon</w>
t ant</w>
blo cks</w>
ca mp
mer cy</w>
z er
a she</w>
vi vi
fi elds</w>
cor por
se ts</w>
bal con
cont ent</w>
ri dge</w>
sou ls</w>
ma je
grand ma</w>
ho les</w>
lon ely</w>
incredi bly</w>
clu tching</w>
a id</w>
cl ined</w>
frea k</w>
ja il</w>
patter n</w>
sig nal</w>
bu ddy</w>
temp er</w>
th ick
wor thy</w>
e cho</w>
ast oni
g abe</w>
dis cover</w>
a ire</w>
un sure</w>
mel ted</w>
d ges</w>
tre mbled</w>
spi lled</w>
man u
po sing</w>
reas sur
assist ant</w>
ali en</w>
ma i
i sed</w>
th ful</w>
po st
sol ved</w>
fli es</w>
hoo ked</w>
li sa</w>
y aw
refle ction</w>
cla sses</w>
la mp</w>
cap tured</w>
la ura</w>
in tent</w>
supp lies</w>
pl es</w>
pour ing</w>
travel ed</w>
wa king</w>
cur ved</w>
u seless</w>
no te
ran dom</w>
pic al</w>
sh iny</w>
rou te</w>
wh er
con stantly</w>
car ved</w>
app ears</w>
o x
il a</w>
consci ousness</w>
e dly</w>
to i
si vely</w>
in ny</w>
commun ity</w>
l ers</w>
envelop e</w>
org asm</w>
qu ir
suc cess</w>
lo cated</w>
al oud</w>
moder n</w>
prote ctive</w>
en der</w>
v au
p inned</w>
snat ched</w>
for ei
mag ical</w>
fashi on</w>
ro lls</w>
roman tic</w>
st en
sy l
explo sion</w>
bi es</w>
at titude</w>
physi cally</w>
di pped</w>
nee ding</w>
cle aned</w>
mer edith</w>
viol ence</w>
helple ss</w>
soa ked</w>
at ri
knu ckles</w>
v ine</w>
inten sity</w>
o es</w>
de cent</w>
instin ct</w>
sh ow
americ a</w>
mon day</w>
je ss</w>
k ri
hi red</w>
brea sts</w>
br on
c iting</w>
bo t</w>
car t</w>
hi lls</w>
photo s</w>
er on</w>
fo ld</w>
ini ti
issu es</w>
smir k</w>
ite ms</w>
di g</w>
ick y</w>
blin king</w>
men tally</w>
h in
a tive</w>
wher ever</w>
th ly</w>
coun tered</w>
cur ls</w>
were wolf</w>
boo k
imag ination</w>
tur ing</w>
le g
an n</w>
br and</w>
ac ts</w>
l oun
psy cho
sto ck</w>
ve s
r ow
mer ci
moon light</w>
ag ing</w>
she er</w>
sn ow
pur po
stiff ened</w>
abi lities</w>
friend ship</w>
e ll
fl ung</w>
ber ry</w>
imp act</w>
tr aced</w>
slu mped</w>
declar ed</w>
re ck
k et</w>
in spe
jen ni
charac ter</w>
gh test</w>
in tru
ma da
scow led</w>
gw en</w>
stir red</w>
c ely</w>
con tained</w>
sci ence</w>
dri pping</w>
je ssie</w>
the ory</w>
fru it</w>
gl or
figu res</w>
stro king</w>
grim aced</w>
offici al</w>
sch oo
bran ch</w>
a ked</w>
ser van
wi pe</w>
sp at</w>
serv ant</w>
swo llen</w>
lap top</w>
pi zza</w>
pro ved</w>
high way</w>
pan ic
ob se
ar se</w>
hur ts</w>
per cent</w>
l ang
p are</w>
stic king</w>
cl ung</w>
surpri singly</w>
ni pple</w>
che a
ar ran
gy m</w>
centr al</w>
suff ering</w>
jim my</w>
ar row</w>
di se
lea ds</w>
tri gger</w>
ti re</w>
foo lish</w>
saf ely</w>
responsi bility</w>
l ane</w>
tw ins</w>
t angled</w>
mi lli
ch or
co ast</w>
less on</w>
tat too</w>
sa lly</w>
servan ts</w>
sla ve</w>
travel ing</w>
a tic</w>
de vice</w>
arran ge
gri pping</w>
cele br
proper ly</w>
te e</w>
pre pare</w>
u seful</w>
pl ant</w>
mar ia</w>
sp reading</w>
e state</w>
an xi
zo e</w>
rhyth m</w>
war n</w>
ol as</w>
tre at
ou l</w>
ye ll</w>
brand on</w>
compar ed</w>
sh one</w>
co ck
colle ction</w>
stru cture</w>
fac i
s words</w>
twi st</w>
do ck</w>
sho ve</w>
le i
st ool</w>
ag u
separ ated</w>
en z
com pre
v ar</w>
fl owed</w>
fa in
shel f</w>
pp ers</w>
e ds</w>
mur dered</w>
suff er</w>
uni ted</w>
ro cked</w>
deli vered</w>
high ly</w>
d war
u tterly</w>
ra ven</w>
plan ted</w>
da mmit</w>
pat ch</w>
che ese</w>
fli r
er up
su ite</w>
kee per</w>
chuck le</w>
moun ted</w>
b ic
t att
de lla</w>
l yn</w>
a ms</w>
ab or
wit ness</w>
e tt
car ing</w>
dra ined</w>
jenni fer</w>
cli ck</w>
occasion ally</w>
swe ater</w>
blo cked</w>
br ings</w>
tre n
st ack</w>
mon d</w>
te ss</w>
person ally</w>
dire cted</w>
e lli
quar ter</w>
da isy</w>
te aring</w>
d ur
spiri ts</w>
la tions</w>
r ounded</w>
heal th</w>
cru shed</w>
n ings</w>
st en</w>
kar en</w>
arri val</w>
il er</w>
butt er
ank le</w>
ry der</w>
see k</w>
ru de</w>
r inging</w>
aar on</w>
sp s</w>
back wards</w>
chi ca
tra sh</w>
so le</w>
ven s</w>
fun eral</w>
ex changed</w>
sor e</w>
pre ferred</w>
cour ty
balcon y</w>
pe ar
inten tion</w>
war dly</w>
bi o
lo cks</w>
refu se</w>
fac ts</w>
car riage</w>
ga u
jen ks</w>
pp led</w>
continu es</w>
qu ire</w>
schedu le</w>
cri es</w>
da tion</w>
prote cting</w>
su its</w>
ci p
child hood</w>
pas sage</w>
enti al</w>
drea med</w>
st able</w>
pi e</w>
un it</w>
bra d</w>
smir ked</w>
g id</w>
tri bu
dem and</w>
rai l</w>
u ten
mu g</w>
du mb</w>
sc ars</w>
ha bit</w>
le gi
gra de</w>
m son</w>
wil dly</w>
sal t</w>
e tr
e ggs</w>
en i
ad ren
sur ren
introdu ced</w>
emplo ye
d ale</w>
y le</w>
chica go</w>
wi ping</w>
s ought</w>
p in</w>
ner ve</w>
ang ing</w>
bl own</w>
coun ting</w>
jo ining</w>
ous y</w>
ha mmer</w>
de vo
di stri
wat ers</w>
a bu
ci ti
1 1</w>
at us</w>
glo ves</w>
exha led</w>
a k
mi x</w>
ta ylor</w>
car ter</w>
stre tching</w>
strang ely</w>
ne u
ma id</w>
g rea
pl ates</w>
pe te</w>
re presen
sc are</w>
ne tt</w>
questi oned</w>
l i</w>
d ley</w>
discu ssion</w>
stair case</w>
neighbor hood</w>
ra gged</w>
pan ting</w>
di vor
shel ter</w>
thir teen</w>
s her</w>
tan e
boo th</w>
isa ac</w>
qu o
mm m</w>
mat ched</w>
cy cle</w>
g lu
sofi a</w>
it a</w>
cr own</w>
yn n</w>
fal se</w>
en tering</w>
repe at</w>
r h
o' clock</w>
sor ts</w>
avoi ding</w>
prepar ing</w>
contro lled</w>
re venge</w>
an dy</w>
app le</w>
un ting</w>
ang els</w>
ll ers</w>
la wn</w>
su per</w>
m in</w>
ani e</w>
anxi ety</w>
an ces</w>
n ly</w>
sp it</w>
sp in</w>
ste fan</w>
drag ons</w>
magn us</w>
ai den</w>
ta ller</w>
mur der
p ounds</w>
j i</w>
ni ch
b our
u mp
do ctors</w>
ch arm</w>
sla mming</w>
def end</w>
success ful</w>
concentr ate</w>
ph ra
swi tched</w>
mor s</w>
myster ious</w>
courty ard</w>
ss er</w>
fe ar
solu tion</w>
mel o
w ren
comple x</w>
puzz led</w>
tt er
spra w
expe c
ca ssi
dam on</w>
craw l</w>
ly n
oli ver</w>
remo te</w>
jose ph</w>
ob served</w>
ri ly</w>
he el</w>
bott les</w>
th ra
bab ies</w>
neck lace</w>
re stra
me ta
priv acy</w>
p an</w>
th al</w>
to ps</w>
en na</w>
d in</w>
inci dent</w>
wi re</w>
cra shing</w>
butt ons</w>
as ha
grab s</w>
e ps</w>
ho pes</w>
t ance</w>
coo king</w>
coo per</w>
suff ered</w>
fa il</w>
flick ered</w>
star k</w>
bull ets</w>
li ghting</w>
stub born</w>
sha ft</w>
li mp</w>
overwhel ming</w>
an o</w>
squee zing</w>
vin cent</w>
c he</w>
r at</w>
can dy</w>
four teen</w>
mir acle</w>
co inci
pre y</w>
ll owing</w>
sp ite</w>
s or</w>
b ounced</w>
u tter</w>
gu it
for k</w>
visi ted</w>
fli p</w>
mes sages</w>
cali for
ju de</w>
tri al</w>
sk i</w>
v ance</w>
mb les</w>
immedi ate</w>
vel vet</w>
miser able</w>
to ssing</w>
degre e</w>
di ty</w>
in ev
cha sing</w>
inter ior</w>
ai med</w>
m ingly</w>
no stri
n ina</w>
lat est</w>
drea ming</w>
mu ffled</w>
mon sters</w>
char ming</w>
heli co
instru ctions</w>
tr ed</w>
sa dly</w>
dd ling</w>
cauti ously</w>
cur tain</w>
r o</w>
eter nity</w>
b end</w>
an ge
li cen
re lated</w>
comman ded</w>
d les</w>
ra z
sal v
ra in
ha tred</w>
ma li
questi oning</w>
a in</w>
inclu ded</w>
bur y</w>
intelli gence</w>
le o</w>
tech no
ad ver
fin ds</w>
sme lls</w>
om i</w>
t ons</w>
1 2</w>
volun te
mi stress</w>
fortun e</w>
off en
fair y</w>
nu mb
puni shment</w>
sla p</w>
dami en</w>
see king</w>
p ened</w>
na tive</w>
equ ally</w>
ca de</w>
it able</w>
sin s</w>
flash light</w>
p .
d ane</w>
bo ar
na il</w>
ben ef
me xic
flar ed</w>
impre ssive</w>
flo ated</w>
be th
han ding</w>
curren tly</w>
e ing</w>
o dd
some day</w>
tal ent</w>
ou ts</w>
sa man
great est</w>
ge on</w>
gr ounds</w>
con tract</w>
poi son</w>
gra sped</w>
scrat ched</w>
bo ards</w>
invi tation</w>
ev a</w>
certain ty</w>
re fer
at lan
fe eding</w>
cott on</w>
surpri sing</w>
ph a</w>
sho ving</w>
sta ke</w>
under ground</w>
br ac
nat ali
ru b</w>
th under</w>
c ti
god damn</w>
da ily</w>
bo bby</w>
je w
k ins</w>
att le</w>
ki es</w>
swi mming</w>
nu ts</w>
bom b</w>
j ill</w>
he i
camer on</w>
war med</w>
hi ts</w>
descen ded</w>
ca in</w>
b at</w>
na p
mag ed</w>
pre vent</w>
terri tory</w>
hear ts</w>
d ens</w>
thor ne</w>
c ane</w>
califor nia</w>
k u
s i</w>
cru sh</w>
regar dless</w>
worl ds</w>
la ws</w>
fi res</w>
forei gn</w>
under wear</w>
k not</w>
gl and</w>
da llas</w>
str ate
mat ely</w>
ph ones</w>
mon ica</w>
investi gation</w>
b a</w>
tol er
su al</w>
speci es</w>
inten tly</w>
dire ctor</w>
defe at</w>
ven ess</w>
cli ent</w>
ac i
bi lities</w>
mo tor
ter r
so le
la dder</w>
our ed</w>
b in</w>
roa ds</w>
k ings</w>
new spa
life time</w>
li f
cla ssi
de sign</w>
ka therine</w>
de signed</w>
cla sped</w>
' em</w>
ti ci
bu t
ne il</w>
pre su
sin king</w>
el ine</w>
after ward</w>
pier ce</w>
mi tch</w>
lex i</w>
gl owed</w>
preten ded</w>
me tho
inti mate</w>
sacri fice</w>
du sty</w>
gentle man</w>
sl ender</w>
cu ts</w>
whi s
bas ket</w>
chea p</w>
jen na</w>
exer ci
thank fully</w>
plat form</w>
deci sions</w>
ame lia</w>
cr un
acti vity</w>
cre ating</w>
commun ic
t ful</w>
ank les</w>
believ ing</w>
cle an
ta lity</w>
man ager</w>
op tions</w>
refle cted</w>
de light</w>
t z</w>
ag ents</w>
adren aline</w>
gru mbled</w>
le gal</w>
prison er</w>
to by</w>
t re</w>
six ty</w>
newspa per</w>
is a</w>
vag u
f s</w>
nostri ls</w>
emp ha
mom ent
fi les</w>
bar rel</w>
exa mple</w>
saman tha</w>
mo del</w>
dar ker</w>
i ri
indi cated</w>
absolu te</w>
at op</w>
e mail</w>
kno b</w>
resu lts</w>
bor e</w>
p at</w>
je wel
ni k
atten d</w>
e z</w>
call um</w>
mi ghty</w>
dar ed</w>
cu ps</w>
twi tched</w>
dra ped</w>
hi re</w>
sha ky</w>
an ton
jo bs</w>
deliber ately</w>
sou thern</w>
ra fe</w>
per su
grou ps</w>
s ack</w>
en gland</w>
wrink led</w>
at ory</w>
ti ger</w>
inter view</w>
ro l</w>
sy dney</w>
descri bed</w>
lau ren</w>
lon g
y alty</w>
sni ffed</w>
go al</w>
author ity</w>
ici ent</w>
d read</w>
bar ked</w>
camer as</w>
en ted</w>
fe ars</w>
betra yed</w>
wait ress</w>
wal ker</w>
gl aring</w>
seven teen</w>
ja y</w>
bla des</w>
tri ump
mo s</w>
col or
recor ds</w>
magaz ine</w>
pro phe
a isle</w>
ti ms</w>
mat ching</w>
g ary</w>
may or</w>
z ach</w>
x on</w>
effor ts</w>
lo cker</w>
wor rying</w>
cle ver</w>
rout ine</w>
shad ow
ac les</w>
sun shine</w>
er a</w>
king dom</w>
c ating</w>
hel met</w>
affe cted</w>
weak ness</w>
seas on</w>
swi m</w>
go ssi
cur tains</w>
ni cole</w>
comfor tably</w>
l aced</w>
squ inted</w>
sy n
con fron
r oughly</w>
gu ed</w>
sne ak</w>
prote sted</w>
smo king</w>
tatt oo
re called</w>
p ted</w>
inha led</w>
dat a</w>
me ter</w>
n an</w>
floo ded</w>
par an
adju sted</w>
ex tra
ar ch</w>
pra yed</w>
cha ins</w>
lie uten
lli an</w>
shel ves</w>
b ad
ch y</w>
odd ly</w>
fi cation</w>
deman ding</w>
bu ll</w>
produ ced</w>
stri pped</w>
ba se
me g</w>
th ouse</w>
reason able</w>
prin ts</w>
pa per
sen ior</w>
descri be</w>
bu sh</w>
examin ed</w>
imp er
en try</w>
eng aged</w>
li ghter</w>
ve ge
cla ss
al ong
t us</w>
un locked</w>
ro cky</w>
hu mili
sh r
repu tation</w>
wa gon</w>
nu mb</w>
cere mony</w>
bri ghtly</w>
spi der</w>
ck ling</w>
visi ons</w>
compan ion</w>
repor ts</w>
rea ds</w>
carol ine</w>
ag ue</w>
val ue</w>
fa de</w>
investi g
supp ly</w>
flo ors</w>
sandwi ch</w>
antici p
zz led</w>
o ak</w>
asha med</w>
assa ult</w>
guar an
par ties</w>
d ates</w>
sel fish</w>
fortun ate</w>
increa sed</w>
out fit</w>
gui ded</w>
along side</w>
con ference</w>
pla yer</w>
estab li
jon as</w>
sour ces</w>
di shes</w>
uni on</w>
comfor ting</w>
shou ts</w>
3 0</w>
whir led</w>
su peri
avoi ded</w>
ad ding</w>
tou ri
nich olas</w>
an ce
continu ing</w>
du l
de ter
flu sh</w>
irri tated</w>
eli se</w>
vagu ely</w>
v ated</w>
tu g</w>
cu shi
see mingly</w>
shir ts</w>
gri tted</w>
pi ll
vic tory</w>
fa ding</w>
embarra ssment</w>
ran ch</w>
sho e</w>
ste am</w>
rai ling</w>
ou ter</w>
e ce</w>
c ine</w>
colon el</w>
panic ked</w>
ju ice</w>
san g</w>
spo ts</w>
bu shes</w>
speci fic</w>
r ant</w>
genu ine</w>
doll ar</w>
ex p
ga zing</w>
fr anti
maje sty</w>
limi ted</w>
lang don</w>
pri e
lu mp</w>
ph s</w>
vic tims</w>
electri c</w>
ga sping</w>
ac compli
ta p</w>
suspici on</w>
b an</w>
savan nah</w>
x i</w>
tu gging</w>
assu ming</w>
gg ling</w>
je an</w>
ty pical</w>
en ne</w>
g ur
wit ches</w>
oun ce</w>
basi cally</w>
w ha
kir a</w>
ag gre
con du
al o
gu st</w>
bb er</w>
sli ck</w>
oper ation</w>
plan ts</w>
ag ement</w>
gre en
pro pped</w>
be am</w>
ne at
i o</w>
determin ation</w>
d ling</w>
coun ts</w>
nor a</w>
ss er
qu ality</w>
com men
reali zation</w>
m ing
ac ade
ac cur
el i</w>
sh re
fa v
ere ction</w>
an ch
ling ering</w>
instin ctively</w>
ste ering</w>
serv ation</w>
e e</w>
th ur
sna pping</w>
repor ted</w>
gre g</w>
ha unted</w>
cur ed</w>
ama zed</w>
cl er
bo x
pe ering</w>
ele gant</w>
ca h</w>
exa sper
cam pus</w>
sum mon
di sh
occa sion</w>
ro d</w>
sub tle</w>
do ll</w>
fire place</w>
ro om
fan t
noti cing</w>
na k</w>
pas sion
cur l</w>
ro cking</w>
au </w>
mi ty</w>
li on</w>
cabin et</w>
blu sh</w>
ad ult</w>
stu di
colle ct</w>
ad a</w>
e sti
pi pe</w>
gigg le</w>
bu ying</w>
te ll
im mortal</w>
ici de</w>
sha llow</w>
day light</w>
ang rily</w>
ad en</w>
argu ing</w>
ve y</w>
j uni
tu be</w>
toi let</w>
i ties</w>
franti cally</w>
bl ur</w>
li ber
ti a</w>
po ked</w>
stagg ered</w>
p ine</w>
lea ped</w>
any time</w>
h an</w>
fol ding</w>
blan kets</w>
spor ts</w>
san ity</w>
diamon d</w>
se v
ig n</w>
j ar</w>
some time</w>
brea ks</w>
gh ing</w>
el der</w>
cho ices</w>
fl inched</w>
fri dge</w>
goo dness</w>
en de
soo thing</w>
he m</w>
in ting</w>
compe ti
bo thering</w>
mar ched</w>
pra yer</w>
hom es</w>
ati cally</w>
re spe
pack age</w>
eye lids</w>
su l
al pha</w>
mi ster</w>
grand pa</w>
gentle men</w>
stal ked</w>
inten d</w>
surr oun
pain fully</w>
luc kily</w>
in ity</w>
la shes</w>
ja i
swir ling</w>
pa thetic</w>
lan a</w>
fil m</w>
popu lar</w>
ex citing</w>
r he
un ks</w>
p aced</w>
zz le</w>
fant asy</w>
brea thless</w>
guar dian</w>
surroun dings</w>
e house</w>
tra vis</w>
c ers</w>
de struction</w>
cand les</w>
strang ers</w>
tan ner</w>
sli ghtest</w>
spi ke</w>
si pped</w>
pit ch</w>
cor pse</w>
statu e</w>
a war
sma shed</w>
n es</w>
ri son</w>
at mo
gho sts</w>
mon i
ir a</w>
as sure</w>
si ly</w>
ja h</w>
ev </w>
blo cking</w>
attemp ting</w>
horri fied</w>
blu shed</w>
pra y</w>
se aled</w>
con gr
ke y
a we</w>
ho pped</w>
we stern</w>
mar es</w>
gre gor
an th
el yn</w>
in f
sc hi
i er</w>
fran tic</w>
se i
car a</w>
ach ers</w>
pen etr
ac u
moment arily</w>
thro bbing</w>
you th</w>
occasion al</w>
spra y</w>
x a
gran ted</w>
gr in
secre tary</w>
lea p</w>
instru cted</w>
jo sie</w>
cand le</w>
lieuten ant</w>
consu med</w>
bri tish</w>
isa bella</w>
lun ged</w>
guit ar</w>
du mped</w>
a ks</w>
neat ly</w>
stea dily</w>
om in
re len
do ve</w>
li cking</w>
bro ad
r and
man sion</w>
b id</w>
sli m</w>
p ound</w>
visi ting</w>
poli shed</w>
be aten</w>
fo cu
reali sed</w>
shif ter</w>
s kill</w>
stic ks</w>
fi ona</w>
supp or
man eu
el ding</w>
a very</w>
ti tle</w>
m oo
land sca
co a
ban ds</w>
he aled</w>
od ds</w>
colle cted</w>
in her
hesit ate</w>
tion less</w>
pe aceful</w>
dep ths</w>
preci sely</w>
g st</w>
cli t</w>
affe ction</w>
gen e
ll on</w>
comp ound</w>
natali e</w>
sti ly</w>
wa sted</w>
amon gst</w>
ve st</w>
com mitted</w>
fa e</w>
overwhel med</w>
re mark
br aced</w>
benef it</w>
di vi
gro cer
distr action</w>
do zens</w>
appro val</w>
sof tened</w>
mi ller</w>
m our
d al</w>
i ley</w>
so b</w>
russi an</w>
mp y</w>
st atus</w>
pic k
sur ance</w>
to ss</w>
attrac ted</w>
meas ure</w>
mu se
mo l
cro ss
f in</w>
ho p
u ttered</w>
blur ted</w>
mir r
sa mu
zz ie</w>
h h</w>
poli tely</w>
gr ac
con trac
wi shes</w>
pit ched</w>
temper ature</w>
stab bed</w>
inter net</w>
de va
z ack</w>
rebe cca</w>
hy ster
mar shall</w>
deli ver</w>
mid st</w>
ff le</w>
helico pter</w>
ill e
ti te</w>
wa shing</w>
t to</w>
al an</w>
p her</w>
ag ers</w>
dre sser</w>
clar i
fi shing</w>
y ton</w>
z el</w>
bur ns</w>
comb ination</w>
a a
str ands</w>
ou ri
head ache</w>
pu shes</w>
wi zard</w>
skir ts</w>
hau led</w>
ga p</w>
m el</w>
ul ts</w>
cou ghed</w>
p our</w>
hor n</w>
electri city</w>
gi fts</w>
per for
argu ed</w>
w w
al y</w>
fi tting</w>
are as</w>
mou ths</w>
au thor</w>
ag ne</w>
tre y</w>
wash ington</w>
e p
sympa thy</w>
jas mine</w>
mu s</w>
mo bile</w>
war y</w>
war ren</w>
fra gi
p lea
cu p
ho vering</w>
jo king</w>
jun gle</w>
gu es</w>
de fi
pat ri
for mal</w>
ne ga
tra tion</w>
autom atically</w>
ste aling</w>
an cy</w>
fa il
ar es</w>
wall et</w>
p acing</w>
t ings</w>
esc ort</w>
remin ding</w>
medi a</w>
r ac
bo dy
re covered</w>
et ings</w>
we b</w>
nee dle</w>
cur ling</w>
any a</w>
une asy</w>
ad mi
mi sty</w>
a ven
ma '
craw ling</w>
swi ft</w>
cri mson</w>
sp on
domin ic</w>
ca m</w>
mi tri</w>
w ink</w>
anno ying</w>
i zzy</w>
fir ing</w>
z one</w>
b bling</w>
si tion</w>
ci ties</w>
se ized</w>
gr ins</w>
tex as</w>
gra ham</w>
lat ter</w>
spe ar</w>
y i
ear ned</w>
monit or</w>
su mm
base ball</w>
techno logy</w>
r owing</w>
li ck</w>
i tali
disappear ing</w>
d na</w>
z zed</w>
appoin tment</w>
flu ttered</w>
go ti
ma ll
signific ant</w>
be aring</w>
poli tical</w>
ba sic</w>
sur ge</w>
hel p
fin anci
swe eping</w>
tom my</w>
desper ation</w>
cla pped</w>
con tain
ash ley</w>
ral ph</w>
ri ghts</w>
o on</w>
sigh s</w>
pain ter</w>
wh ere
lo cking</w>
whe els</w>
th ur</w>
to ast</w>
absen ce</w>
stri king</w>
sla m</w>
consequ ences</w>
vac ation</w>
tele phone</w>
en sure</w>
li c</w>
2 0</w>
ff ling</w>
f on
jo y
ul ty</w>
ka y
squ ad</w>
thri lled</w>
e ff
night mares</w>
che lle</w>
sho t
b rai
cott age</w>
cro o
steph en</w>
in ven
na i
gre eting</w>
psychi c</w>
cru ci
no ises</w>
bra dy</w>
en counter</w>
gue ssing</w>
wan dering</w>
identi ty</w>
dre sses</w>
re vel
temp ted</w>
pr int</w>
fra med</w>
isa belle</w>
me gan</w>
o ke</w>
el abor
shu dder</w>
je ep</w>
di men
na omi</w>
mu sed</w>
curi ously</w>
d son</w>
neighb ors</w>
stand ard</w>
lu c</w>
eng ine
ter ia</w>
develop ed</w>
jud gment</w>
dri fting</w>
mani pu
sp rang</w>
influ ence</w>
u ses</w>
vi ties</w>
mu si
min or</w>
viol ently</w>
tra iler</w>
tro ops</w>
v ic</w>
af fair</w>
b age</w>
dri ft</w>
equ al</w>
regar ded</w>
de x</w>
tre ating</w>
mar gar
tw ink
ou tra
wh ore</w>
apolo gy</w>
ja se</w>
si ded</w>
lin da</w>
ling ered</w>
1 5</w>
comb at</w>
ad in</w>
anno y
su v</w>
lon ging</w>
ni k</w>
bo ston</w>
pe eked</w>
ma' am</w>
m ouse</w>
be comes</w>
ru mors</w>
tou ches</w>
mon k</w>
con fli
par ker</w>
f bi</w>
n ic</w>
champ agne</w>
ani sh</w>
guar ded</w>
hel ps</w>
je ction</w>
trea sure</w>
rob in</w>
re ception</w>
mo i
e den</w>
ta pping</w>
ur ged</w>
ca sting</w>
recei ve</w>
chann el</w>
instin cts</w>
in ju
moun t</w>
see ming</w>
atmo sphere</w>
ac compani
ear l</w>
sk inny</w>
r in</w>
ga il</w>
musc ular</w>
jo ey</w>
re sist
spea ks</w>
teen th</w>
erup ted</w>
appar ent</w>
individu al</w>
sle eves</w>
n els</w>
ne t
e king</w>
acci den
e h</w>
nu dged</w>
ru sty</w>
pier cing</w>
comple ted</w>
thu mbs</w>
survi val</w>
lea h</w>
sli ced</w>
ne at</w>
pi ss</w>
son gs</w>
wi der</w>
ch at</w>
ten ta
hi de
dise ase</w>
se al</w>
a v
pre ston</w>
terri bly</w>
fragi le</w>
b bles</w>
re tor
cha l
v om
fif th</w>
ri pping</w>
bar rier</w>
tu cker</w>
ho vered</w>
dest ination</w>
ent ine</w>
hu gging</w>
effe cts</w>
o id</w>
sp er</w>
car son</w>
scrat ch</w>
st oo
desp air</w>
lau rence</w>
forear m</w>
non sense</w>
ti ous</w>
1 4</w>
phi lli
shru gs</w>
th under
lou is</w>
elec tr
be ings</w>
le a</w>
fol k</w>
soa p</w>
ai m</w>
bu cket</w>
pi led</w>
stor ed</w>
gra vel</w>
di zzy</w>
c table</w>
ac tive</w>
ro man</w>
te ddy</w>
t ling</w>
human ity</w>
ari an</w>
b acking</w>
qu in
ar thur</w>
sc out</w>
in spir
pan el</w>
n ick
tu mbled</w>
suit case</w>
than ked</w>
advan ced</w>
distur bed</w>
an gie</w>
de ce
ma u
j en</w>
l as</w>
inv ite</w>
m ated</w>
tor so</w>
pon y
kni ghts</w>
ho st</w>
conver sations</w>
gi a</w>
glea ming</w>
st or</w>
hard ened</w>
ci es</w>
wi s
wor ries</w>
note book</w>
zom bie</w>
ma e</w>
li fts</w>
amb i
a llie</w>
as sig
mp les</w>
fre y</w>
che wed</w>
i ds</w>
qu es</w>
de clan</w>
wa y
chu ck</w>
j ones</w>
pi llows</w>
x ture</w>
ben ding</w>
0 00</w>
jeal ousy</w>
bra tion</w>
ri bb
ro ses</w>
ex hi
kni ves</w>
sli ce</w>
with drew</w>
hi stor
swe ep</w>
emp ire</w>
har b
distr act</w>
free zing</w>
treat ment</w>
laun ched</w>
san dy</w>
ca sey</w>
perman ent</w>
bi lls</w>
circ ling</w>
posse ssion</w>
woo d
pr on
san ctu
me ssed</w>
na vy</w>
cu e</w>
. s</w>
jo shu
re m
pow der</w>
re du
bou l
zer o</w>
anth ony</w>
di ce</w>
fini shing</w>
deser ted</w>
te sting</w>
gl ory</w>
cap ture</w>
ti cket</w>
p acking</w>
imag ining</w>
ti p
st in
d g
val entine</w>
gener ally</w>
c able</w>
ve gas</w>
hur ri
ce lls</w>
concentr ated</w>
dra ma</w>
ra m</w>
g loo
down town</w>
k able</w>
dest iny</w>
licen se</w>
g ated</w>
differ ently</w>
cur b</w>
1 3</w>
jun e</w>
w es</w>
cat s</w>
smoo thed</w>
ne goti
main tain</w>
qu ali
hu gh</w>
si es</w>
pen ny</w>
gan g</w>
ma dness</w>
corre cted</w>
g ic</w>
wor kers</w>
uni que</w>
ra tional</w>
di sor
pur chase</w>
explo de</w>
all e
ev i
pa vement</w>
top ic</w>
pin ched</w>
mb er
in clined</w>
reco ver</w>
mag nific
crimin al</w>
jud ging</w>
u t</w>
remin der</w>
refu sing</w>
war ehouse</w>
boun cing</w>
coun ty</w>
t ine</w>
tin a</w>
mada me</w>
scan ning</w>
accompani ed</w>
ss en
poi son
m at</w>
c ans</w>
te sts</w>
medi cine</w>
as sho
emp er
sm acked</w>
mo ck</w>
la yer</w>
s man</w>
se cu
bor der</w>
smoo thly</w>
af ri
sou p</w>
d ors</w>
expla ining</w>
coun ter
tra it
be e
buzz </w>
vag ue</w>
cli ents</w>
chi p</w>
fail ure</w>
la zy</w>
volu me</w>
m ers</w>
sc a</w>
twi r
miser y</w>
regar ding</w>
bo ats</w>
trou bled</w>
cre epy</w>
wh oo
zom bies</w>
at tor
d '
por tal</w>
so cks</w>
te x</w>
bu d
ru by</w>
st it
swir led</w>
mi ssi
we ary</w>
dau ghters</w>
deca des</w>
ru m
cor n</w>
gre gor</w>
landsca pe</w>
valu able</w>
impati ent</w>
cla mped</w>
itali an</w>
ger man</w>
se lling</w>
ate dly</w>
con cen
sa w
ca ss
b on</w>
bal an
gradu ally</w>
vie ws</w>
ne tte</w>
mar co</w>
con vic
whi p</w>
stri de</w>
. com</w>
sugge stion</w>
in sides</w>
be cky</w>
ser vices</w>
an ni
faci lity</w>
po sure</w>
on e
tr ous
pony tail</w>
be ck
mad die</w>
me chan
plun ged</w>
ine se</w>
witne ssed</w>
pi es</w>
k an
da maged</w>
bu cks</w>
cu ffs</w>
dr un
v o</w>
bl ouse</w>
rep lies</w>
sur g
eye ing</w>
tor tured</w>
ke llan</w>
eli jah</w>
te ase</w>
po le</w>
sigh ing</w>
spi lling</w>
gossi p</w>
ti er</w>
cor d</w>
sc ale</w>
sa ddle</w>
inju ries</w>
tra iling</w>
exper im
ma di
sti lled</w>
en vir
assass in</w>
brea th
ar rested</w>
thor oughly</w>
plea ded</w>
an na
per ched</w>
in ely</w>
itu te</w>
cel er
ch inese</w>
sa il
ban g</w>
mista kes</w>
ed ged</w>
win ning</w>
no ble</w>
tempor ary</w>
pas ses</w>
ev a
sun glasses</w>
muse um</w>
si m
y son</w>
ca vern</w>
per ry</w>
decor ated</w>
custom ers</w>
cl inging</w>
shot gun</w>
introdu ce</w>
on y
re scu
cal cu
sha des</w>
samu el</w>
for mation</w>
gri ffin</w>
exi ted</w>
vehi cles</w>
m ck
po l
di mitri</w>
melo dy</w>
ratt led</w>
ab s</w>
adven ture</w>
ma del
shif ters</w>
ar ies</w>
spar k</w>
discu ssed</w>
disp la
weal th</w>
fli cker</w>
con tain</w>
pra ying</w>
joshu a</w>
stor age</w>
deal t</w>
hand led</w>
con stru
person ality</w>
sor row</w>
disa ster</w>
rab bit</w>
en elle</w>
bu g</w>
shi vering</w>
an a
scow l</w>
reg ard</w>
v as</w>
aver age</w>
ac qua
y o</w>
mon t</w>
ri gid</w>
i i</w>
tra di
ic ed</w>
lea ders</w>
inter ro
bo l
as es</w>
pur su
promi ses</w>
a ura</w>
wai ter</w>
co lli
re quire</w>
scar let</w>
ha m
were wolves</w>
lo yal</w>
kin da</w>
tun e</w>
rh ys</w>
nu t</w>
fo yer</w>
ca kes</w>
we b
te aching</w>
e z
f oul</w>
bea sts</w>
posi tioned</w>
deci ding</w>
inde pen
s worn</w>
kne eling</w>
whis key</w>
exper t</w>
regi ster</w>
se p
mom en
re treat</w>
bu ck</w>
su icide</w>
so m</w>
p ru
ro t</w>
vic ious</w>
ha stily</w>
he ctor</w>
thought ful</w>
mac y</w>
be ds</w>
ad mini
de er</w>
intelli gent</w>
lo yalty</w>
e gg</w>
pe cu
ja enelle</w>
wat ch
appreci ated</w>
nu mer
1 8
k or
ann on</w>
char ges</w>
pro file</w>
por tion</w>
le vels</w>
arti cle</w>
spar ks</w>
hea ved</w>
terri fying</w>
annoy ance</w>
ssi vely</w>
coo per
too ls</w>
echo ing</w>
el o
cre ek</w>
win ding</w>
mor tals</w>
opp on
y u
co stu
ha ze</w>
dea ths</w>
be loved</w>
st all</w>
surren der</w>
fanta stic</w>
juni or</w>
cho king</w>
awk wardly</w>
bra ins</w>
zz </w>
assig nment</w>
bur den</w>
prison ers</w>
he ck</w>
g le
pic ks</w>
gar ath</w>
awar eness</w>
w ob
sa int</w>
the ater</w>
gg le</w>
who a</w>
ma ker</w>
bl ows</w>
to y</w>
re marked</w>
st ened</w>
sco pe</w>
po l</w>
re fri
zz ling</w>
bru ises</w>
fro st</w>
extre me</w>
temp les</w>
impati ently</w>
com mo
shu ffled</w>
gener ous</w>
studi o</w>
mel anie</w>
mo ther
cal s</w>
sal u
dang ling</w>
id a</w>
mi t
gi l
ad dition</w>
bel garath</w>
w er</w>
p leading</w>
envir on
virg in</w>
in qui
bru tal</w>
awa k
bla zing</w>
la sted</w>
sli des</w>
ru th</w>
thought fully</w>
refri ger
symbo l</w>
war ming</w>
ne ver
exhau stion</w>
fu el</w>
har per</w>
co ver
bar tender</w>
fri ghtening</w>
arro gant</w>
sp ill</w>
tra ve
que st</w>
it ated</w>
inten tions</w>
gar bage</w>
la h</w>
app re
cru mpled</w>
un certain</w>
tran sl
es a</w>
tun nels</w>
be ats</w>
mi chelle</w>
si an</w>
sc ur
sa fer</w>
sky la</w>
car l</w>
un ts</w>
re cru
luci var</w>
repor ter</w>
pi g</w>
new ly</w>
ph er
pati ently</w>
bu tter</w>
dor ian</w>
con struction</w>
conne ct</w>
w en
low ering</w>
cur ves</w>
char ity</w>
str ings</w>
so il</w>
emper or</w>
be ll
concen tration</w>
ten d</w>
ini tial</w>
conclu sion</w>
mor ti
enthusi asm</w>
less ons</w>
car es</w>
li zzie</w>
off ended</w>
ac cused</w>
i cally</w>
st ung</w>
ch ant</w>
insu lt</w>
ste p
divor ce</w>
pau ses</w>
ste lla</w>
spark ling</w>
ma th</w>
wa yne</w>
sweat y</w>
thu d</w>
tane ously</w>
mou thed</w>
trac king</w>
c had</w>
d ne
in t
bu bble</w>
descri ption</w>
lo g</w>
re vol
pi lls</w>
bar k</w>
cassi dy</w>
bour ne</w>
alli son</w>
sin cer
rele asing</w>
stro lled</w>
stra p</w>
l ings</w>
fi ery</w>
ma xi
a x</w>
th a
phi lo
indu l
xa vier</w>
cha p
ac celer
on line</w>
di um</w>
visi tors</w>
cla w</w>
fol ds</w>
ra ged</w>
pri me</w>
sa s</w>
per fu
fain tly</w>
dra matic</w>
discu ssing</w>
popu lation</w>
focu sing</w>
slo pe</w>
phi l</w>
shri eked</w>
cru shing</w>
wat ches</w>
har t</w>
inj ury</w>
fashi oned</w>
vi k
distin ct</w>
wis dom</w>
a while</w>
wor d
ar rest</w>
jewel ry</w>
lan ter
jer ry</w>
sto ve</w>
hat ch</w>
am bul
t ack
u res</w>
jour nal</w>
ju les</w>
rea d
co in</w>
con fin
ta xi</w>
cen tre</w>
floo d</w>
re qui
bu bb
ambul ance</w>
me ssy</w>
mi cah</w>
inev itable</w>
offici ally</w>
roo ts</w>
re acted</w>
free ze</w>
pear l</w>
ce me
fier cely</w>
as signed</w>
bit es</w>
chi ps</w>
bar re
m ack</w>
ti ghtening</w>
ti ck</w>
ox y
in da</w>
sl ung</w>
cal vin</w>
al tar</w>
a. m.</w>
bo lted</w>
di al</w>
coo kies</w>
inno c
di spo
su cks</w>
shor ter</w>
log ic</w>
spo on</w>
un believ
re treated</w>
ici al</w>
tor ch</w>
resist ance</w>
che ss</w>
cass andra</w>
inter f
r ack</w>
irri tation</w>
da shed</w>
presen ted</w>
men u</w>
bar bar
hu ddled</w>
hun ched</w>
stra pped</w>
ro ber
du ck</w>
wra th</w>
al together</w>
cr acking</w>
over come</w>
ski pped</w>
mal col
s well</w>
exerci se</w>
bal d</w>
stun ning</w>
bo ld</w>
ci an</w>
fac e
th read</w>
t land</w>
mi schi
ze ke</w>
pho eni
paper work</w>
ti re
disapp ro
cla iming</w>
spea ker</w>
a pri
attemp ts</w>
ye ar
compla ined</w>
embarra ssing</w>
pier ced</w>
strea ming</w>
so bbing</w>
a sp
re ed</w>
hu m</w>
ro of
be wil
seven ty</w>
thank ful</w>
abo ard</w>
sur ged</w>
cour te
madi son</w>
thu mp</w>
com mented</w>
ali zed</w>
y na</w>
an aly
m elt</w>
dismi ssed</w>
sc o</w>
f en
croo ked</w>
sk ye</w>
ag ger
fe min
eag erly</w>
limi ts</w>
dr yly</w>
raz or</w>
j ar
si mul
fur rowed</w>
el se
multi ple</w>
vi e</w>
pre sses</w>
sla ves</w>
ur gent</w>
an der
regi stered</w>
techni cally</w>
ar cher</w>
se ssion</w>
sc an</w>
lu ther</w>
cher ry</w>
ja de</w>
gre et</w>
f are</w>
sha ken</w>
te e
ll ic</w>
go s</w>
swe ating</w>
m ack
tu es
m ire</w>
re moving</w>
for getting</w>
flick ering</w>
de pu
anton io</w>
r and</w>
ten ded</w>
bru ised</w>
sa b
malcol m</w>
apo llo</w>
gen e</w>
gi l</w>
ro gue</w>
f ever</w>
ex agger
pr ou
fran ce
der ness</w>
an or</w>
de ad
cri sp</w>
ky rian</w>
fi cally</w>
bi dden</w>
ar ou
incre dul
len e</w>
sp anish</w>
parti ally</w>
attrac tion</w>
supp er</w>
will ingly</w>
ang les</w>
sen ator</w>
sh ops</w>
stra y</w>
coinci dence</w>
gra vity</w>
re sen
cur sing</w>
na vi
m ar</w>
mi xture</w>
1 0
un pleasant</w>
le vi</w>
disc om
mir a</w>
sa vor
ho sti
ll est</w>
aw oke</w>
christ op
nor thern</w>
ro th</w>
communi cation</w>
r ory</w>
obli vious</w>
dar ius</w>
absen tly</w>
trous ers</w>
perfor mance</w>
rai ses</w>
re solve</w>
back seat</w>
t cher</w>
fli pping</w>
sha pes</w>
can cer</w>
inti mid
fun c
ca therine</w>
ac knowledge</w>
bi shop</w>
ex ce
black ness</w>
mach ines</w>
ton es</w>
k it</w>
car go</w>
st ab</w>
ga ining</w>
na dia</w>
w are</w>
no tion</w>
n oo
j agged</w>
smu g</w>
broo ke</w>
stra w</w>
cat ches</w>
sun set</w>
distur bing</w>
car los</w>
con spir
inter nal</w>
phoeni x</w>
mean while</w>
per form</w>
je ff
financi al</w>
ru bber</w>
sanctu ary</w>
sen sing</w>
comb ined</w>
sa un
in fin
appre hen
ch a</w>
che ek
ou tw
sa sha</w>
du mb
sor cer
zi pped</w>
mon o
passion ate</w>
genu inely</w>
re x</w>
back yard</w>
re ce
clo ses</w>
ma ll</w>
tu m</w>
reluc tant</w>
att acks</w>
mean ing
sn ick
loun ge</w>
i ge</w>
doub ts</w>
pic tured</w>
ra m
ck ers</w>
arti st</w>
ap y</w>
del u
swa llowing</w>
bon nie</w>
ev ol
swa yed</w>
illu sion</w>
t ac
elabor ate</w>
dri vers</w>
c it
imag in
s ly</w>
l ining</w>
ett es</w>
at t</w>
fr ance</w>
compani ons</w>
sur real</w>
down ward</w>
help ful</w>
star ving</w>
por tra
ra pid</w>
inv iting</w>
au tu
r ats</w>
hi ss</w>
v ation</w>
win ds</w>
disa gre
spe lls</w>
bu mps</w>
nap kin</w>
disc i
ti res</w>
li lly</w>
ser ena</w>
sk ele
dal ton</w>
te sted</w>
ceme tery</w>
gy p
el ded</w>
fla shes</w>
magnific ent</w>
care ssed</w>
vin ce</w>
com ments</w>
murmur </w>
in se
c el</w>
pa using</w>
o ts</w>
citi zens</w>
kal adin</w>
y l</w>
ol dest</w>
p el
se cured</w>
bu mped</w>
stra in</w>
gre ek</w>
laun dry</w>
pen cil</w>
ele anor</w>
ig ni
pro vo
ro pes</w>
deli ghted</w>
spraw led</w>
cla d</w>
tre mble</w>
accep ting</w>
5 0</w>
fil thy</w>
sp ur
di ana</w>
vivi an</w>
che er</w>
sen ti
ille gal</w>
go in</w>
ra pha
fun ction</w>
st ir</w>
arri ving</w>
refriger ator</w>
pu </w>
ca ss</w>
expl ore</w>
lon ged</w>
un likely</w>
fi ghter</w>
si e
whi stle</w>
ken ne
arr ows</w>
bla sted</w>
fea thers</w>
al u
batt le
de sig
pregn ancy</w>
cau tion</w>
drea d
ven ge
. a</w>
na p</w>
ad ri
ach eron</w>
lo vers</w>
att acking</w>
cler k</w>
disgu sted</w>
lea k</w>
op e</w>
ac ity</w>
arr ange</w>
im men
f ond</w>
shu tting</w>
fo x</w>
wei ghed</w>
scen ari
mp er</w>
teen ager</w>
ser va
k ur
feli x</w>
posi tions</w>
y d</w>
in surance</w>
va mp</w>
lu is</w>
el a</w>
ch ina</w>
superi or</w>
deni ed</w>
kar a</w>
au dre
clau de</w>
un happy</w>
me etings</w>
ti ff
ha l</w>
dar y</w>
re served</w>
goo se</w>
sav age</w>
scoo ped</w>
beth any</w>
fli ck</w>
retri eve</w>
da sh</w>
eu rope</w>
so bs</w>
jon ah</w>
tal es</w>
gu ts</w>
ce ssi
fre sh
apri l</w>
enthusi a
sac red</w>
fac tory</w>
re turns</w>
vari ety</w>
photogra ph</w>
cr acks</w>
repe atedly</w>
mom my</w>
buzz ing</w>
fe males</w>
tues day</w>
pp les</w>
st ure</w>
sta tic</w>
ty pes</w>
tal ks</w>
ro y</w>
bi zar
sta in</w>
we dne
addi tional</w>
sen sual</w>
sme lling</w>
clai ms</w>
cow boy</w>
edu cation</w>
r ounds</w>
ex clu
deman ds</w>
an ked</w>
pri ze</w>
ho arse</w>
ob jects</w>
att ack
ca llie</w>
stu mbling</w>
sco ffed</w>
milli ons</w>
exa mine</w>
bu zzed</w>
e o</w>
o a
che wing</w>
betra yal</w>
pp ling</w>
f ling</w>
disgu sting</w>
sun ny</w>
assho le</w>
spe cu
may a</w>
ban ks</w>
do me</w>
de par
eigh ty</w>
un dead</w>
spe cts</w>
x ie</w>
mo ti
proce eded</w>
ba star
u i
app lau
ke st</w>
cr inged</w>
ad ults</w>
da zed</w>
ro mance</w>
pa ths</w>
mo tionless</w>
ri tual</w>
bar ri
pur sed</w>
dwar f</w>
identi fy</w>
acciden tally</w>
loa ding</w>
remin ds</w>
mo tel</w>
hea vens</w>
z ach
as her</w>
hu mming</w>
aband on</w>
summon ed</w>
can vas</w>
lur ched</w>
indi an</w>
di ans</w>
sle epy</w>
ke t
mur phy</w>
tru sting</w>
du ties</w>
bri s</w>
le wi
ac custom
jo el</w>
sil ky</w>
gigg ling</w>
no vel</w>
s our</w>
lin ked</w>
le on
accustom ed</w>
st icky</w>
syste ms</w>
lor ds</w>
gra ve
blin ding</w>
sc ore</w>
sw oo
madel ine</w>
up side</w>
concer ns</w>
ex qui
p re</w>
ru mbled</w>
et an</w>
ki tten</w>
bri ghter</w>
ex ter
d ous</w>
wan der</w>
refer ring</w>
pa irs</w>
reassur ing</w>
super natural</w>
ace fully</w>
swa m</w>
religi ous</w>
de di
infe cted</w>
c key</w>
ste ep</w>
saw yer</w>
gli ttering</w>
di aled</w>
ta iled</w>
defen sive</w>
ho t
else where</w>
con gre
dra in</w>
ab bed</w>
en countered</w>
fre ely</w>
ti de</w>
an gui
y ment</w>
l ena</w>
expre ssions</w>
lar gest</w>
defe ated</w>
ll e
autu mn</w>
foun tain</w>
evid ently</w>
gi ble</w>
acti vities</w>
promi sing</w>
audre y</w>
margar et</w>
pla in
furi ously</w>
de t
s ale</w>
p ond</w>
re place</w>
cauti ous</w>
rapha el</w>
mer ry</w>
whe el
pe st</w>
tran spor
prou dly</w>
li king</w>
cal med</w>
france sca</w>
ga ping</w>
tal on</w>
ba sis</w>
el et</w>
par ent</w>
coun tless</w>
dan a</w>
neighb or</w>
femin ine</w>
stre ssed</w>
pi per</w>
whi tney</w>
nine teen</w>
ob sc
pu mping</w>
mo tions</w>
gr unt</w>
spe ctive</w>
a mm
stom ped</w>
or n</w>
thur sday</w>
andre a</w>
un aware</w>
convin cing</w>
sha y</w>
ous al</w>
absor bed</w>
fascin ated</w>
affe ct</w>
s qui
vir us</w>
as cen
chi ck</w>
ta g</w>
ex ception</w>
t ating</w>
resi sted</w>
ri c</w>
stu art</w>
pat rol</w>
tiff any</w>
el and</w>
possi bilities</w>
rest less</w>
stor med</w>
str and</w>
m is</w>
phra se</w>
attor ney</w>
for ce
batt ered</w>
pa th
vie wed</w>
pu pi
identi cal</w>
glor ious</w>
cre eping</w>
cle ar
ax e</w>
ab sur
bea med</w>
c tion
play ers</w>
i le</w>
depen ds</w>
par don</w>
loo p</w>
po e
bed side</w>
di se</w>
f at
mp tion</w>
hope ful</w>
le dge</w>
dr owning</w>
shi fts</w>
congr atu
oxy gen</w>
ta d</w>
luci an</w>
au gust</w>
produ ce</w>
stro kes</w>
bac on</w>
te achers</w>
li ca</w>
apolo ge
ma scul
ste phan
pain tings</w>
retri eved</w>
cli pped</w>
zi o</w>
stron gly</w>
ske p
pecu liar</w>
pre ven
scra ped</w>
car ess</w>
le on</w>
tru cks</w>
distri ct</w>
lo dge</w>
un familiar</w>
ver on
aven ue</w>
h l</w>
isa bel</w>
fe sti
assist ance</w>
pu ppy</w>
y el
ra ging</w>
obe y</w>
choo sing</w>
ti ming</w>
sta ys</w>
st ine</w>
si enna</w>
pa pa</w>
pa ul
twi tch</w>
sa etan</w>
happ ier</w>
co dy</w>
stir ring</w>
pe eled</w>
din er</w>
le ment</w>
mean time</w>
lar ry</w>
tri be</w>
scar f</w>
off ers</w>
sarca sm</w>
inde x</w>
degre es</w>
gul ped</w>
secre tly</w>
lo ve
ar ousal</w>
ad just</w>
dr owned</w>
di scre
le ague</w>
tr acked</w>
ro aring</w>
g in</w>
stic s</w>
speci fically</w>
di sin
confe ssed</w>
re acher</w>
scri pt</w>
diffic ulty</w>
gall ery</w>
a like</w>
li gh
pati ents</w>
pi ano</w>
high est</w>
compli ment</w>
e con
e erie</w>
su ited</w>
nine ty</w>
del ay</w>
gen ius</w>
har m
promp ted</w>
fu mbled</w>
st acked</w>
necess arily</w>
e e
enz ie</w>
sal ad</w>
bastar ds</w>
a ds</w>
sun k</w>
logi st</w>
0 s</w>
bea ms</w>
gu lar</w>
ob je
hu sky</w>
deli very</w>
off ices</w>
acknowle dged</w>
gun ner</w>
ne phe
vo te</w>
finger nails</w>
wedne sday</w>
elli ot</w>
frank ly</w>
tra u
i est</w>
ha lls</w>
be lls</w>
se mi</w>
collap se</w>
gest uring</w>
wa sting</w>
qu et</w>
foll ows</w>
wel com
fo ster</w>
relation ships</w>
sten ch</w>
suspici ously</w>
de s
poli ce
lay la</w>
blur red</w>
co al</w>
flu id</w>
ha yden</w>
ha zel</w>
ou </w>
ha tes</w>
ab be
practi cal</w>
ma sters</w>
s ened</w>
ga ped</w>
bu mp</w>
bizar re</w>
pro spect</w>
stor es</w>
run g</w>
f ans</w>
cou sins</w>
re sources</w>
offen se</w>
tran smi
tran sport</w>
thre ats</w>
br yn
ha irs</w>
mini ster</w>
celebr ate</w>
mista ken</w>
ag ency</w>
ama z
s ers</w>
ite m</w>
grin ding</w>
dis co
thri ll</w>
fe der
the irs</w>
employe es</w>
pa ined</w>
po pping</w>
jer king</w>
weak ly</w>
co ats</w>
de sser
ght ness</w>
br ow
st es</w>
out stretched</w>
corre ctly</w>
cy n
motor cycle</w>
reque sted</w>
ea stern</w>
re i
snea king</w>
ro ot</w>
stra ining</w>
me ad
gra titude</w>
coo ked</w>
u sh
tis sue</w>
sev ere</w>
app lied</w>
alex ia</w>
appear ing</w>
dri pped</w>
welcom ed</w>
wai st
pa ja
tri pped</w>
cho ke</w>
hea p</w>
par tly</w>
x y</w>
vo id</w>
ll o
tattoo s</w>
m sy</w>
ri ses</w>
persu a
effe ctive</w>
swee tie</w>
mo ist</w>
gi es</w>
recogni tion</w>
nega tive</w>
w ren</w>
fi tted</w>
min i</w>
lac ey</w>
dru m</w>
ad vance</w>
c rai
confi d
de bris</w>
stu dies</w>
ar te
ro se
ski p</w>
row an</w>
di ve</w>
ad ds</w>
numer ous</w>
clen ching</w>
ra ys</w>
mu ttering</w>
di ver
sh ea
ad dressed</w>
el derly</w>
hu ffed</w>
ha y
kin dly</w>
rela xing</w>
v ors</w>
di ego</w>
gar dens</w>
ti ce</w>
tri cks</w>
ru mble</w>
colu mn</w>
con ner</w>
tt on</w>
consc iously</w>
origin ally</w>
le cture</w>
r ho
cr ow</w>
grow th</w>
agu es</w>
lu can</w>
th ing
cap ital</w>
jo int</w>
ama ze
cl are</w>
ess ence</w>
lewi s</w>
believ es</w>
com plain</w>
passen gers</w>
sm ack</w>
mel ting</w>
thre sho
gri mly</w>
so ber</w>
pe ek</w>
esca ping</w>
vi al</w>
su san
circu lar</w>
stor s</w>
app li
swa ying</w>
dep th</w>
posse ss</w>
night stand</w>
bur nt</w>
ele ssly</w>
ble ssed</w>
en ced</w>
import ance</w>
un fortunate</w>
drea m
puzz le</w>
in sist
ti an</w>
ulti mate</w>
guaran tee</w>
hu t</w>
frea ked</w>
al bert</w>
jo ked</w>
teen age</w>
san ta</w>
atten ded</w>
emer ald</w>
illumin ated</w>
dar ing</w>
conveni ent</w>
fai ling</w>
jo kes</w>
po king</w>
murmur s</w>
amaze ment</w>
innoc ence</w>
ca mi
home work</w>
ki l
ron an</w>
mi ld</w>
disco very</w>
wi llow</w>
o live</w>
st even</w>
sor ted</w>
te ch</w>
pa m</w>
or leans</w>
cei ved</w>
mexic o</w>
sli ps</w>
er o
philli p</w>
expla ins</w>
con firm</w>
organi zation</w>
1 6</w>
de pre
arrange ment</w>
ke en</w>
di ag
c ow</w>
dd les</w>
sa li
ca den</w>
eli za</w>
admir ed</w>
ta il
~ ~
nan cy</w>
mar ine</w>
hor se
so da</w>
pier re</w>
ne ll</w>
mo aning</w>
ti ghten</w>
perfu me</w>
hi lt</w>
ac commo
murder er</w>
thresho ld</w>
abi gail</w>
desi red</w>
cow ard</w>
rela tively</w>
he ll
ca mpa
co ordin
na th
fla g</w>
pati o</w>
trac ing</w>
pla gue</w>
th eless</w>
le thal</w>
bubb a</w>
con sole</w>
fl inch</w>
ho p</w>
un comfortably</w>
bu ff
sti ll
never theless</w>
in ser
head lights</w>
gover nor</w>
bi tter
r aces</w>
acade my</w>
deter mine</w>
jan et</w>
hone sty</w>
fic tion</w>
pla ys</w>
lar a</w>
bu ckled</w>
fl are</w>
don o
fu cked</w>
succe eded</w>
resu med</w>
mor ed</w>
le st</w>
kin dness</w>
b anged</w>
deb t</w>
ves sel</w>
min ded</w>
bra ss</w>
el ders</w>
ing es</w>
ga sps</w>
1 7</w>
sp lin
g ing
ma ddy</w>
c ough</w>
mb lance</w>
compu ters</w>
weal thy</w>
ali ens</w>
me ters</w>
eng ines</w>
commi tt
inter pre
ra y
di stress</w>
ro bot</w>
christop her</w>
discom fort</w>
inclu de</w>
a z</w>
an g</w>
mar i</w>
ye lls</w>
perfe ction</w>
nik ki</w>
mi es</w>
stephan ie</w>
ful ness</w>
oc to
enter tain
st ur
indu stri
con cept</w>
thru sting</w>
eter nal</w>
ber g</w>
ha iley</w>
lux ury</w>
the o</w>
ta vi</w>
hun ted</w>
eli min
compre hen
cell ar</w>
hal ted</w>
au stin</w>
mat ure</w>
bli ss</w>
me als</w>
or ies</w>
ti mi
car ol</w>
war ily</w>
int act</w>
d all</w>
examin ing</w>
pe er</w>
str ous</w>
wre ck</w>
indi cating</w>
ca lli
belon gs</w>
hone y
fe tch</w>
ab ra
rob es</w>
displa yed</w>
thi as</w>
car mine</w>
sl owing</w>
after wards</w>
mo de</w>
goo ds</w>
for gi
lin col
cor n
den se</w>
fre ed</w>
sli t</w>
l or</w>
t ool</w>
pro ven</w>
over ly</w>
plu cked</w>
re spect
boo m</w>
den nis</w>
sa il</w>
intri gued</w>
ol y
t s
re cep
encoura ged</w>
ri m</w>
ra v
competi tion</w>
kidna pped</w>
fer o
se ed</w>
conclu ded</w>
fi ghts</w>
leg end</w>
gu er
surg ery</w>
' l</w>
me ssen
cou ghing</w>
jo lt</w>
scrat ching</w>
mar sha
grow ling</w>
thr ows</w>
li zed</w>
uni son</w>
messen ger</w>
insi st</w>
spla shed</w>
pur chased</w>
she ep</w>
ru ins</w>
audi ble</w>
lo cate</w>
tr al</w>
ve il</w>
grocer y</w>
un lea
tau t</w>
con dom</w>
ter i
re ns</w>
gra sping</w>
re spected</w>
su m</w>
net work</w>
re sort</w>
bi ble</w>
wra ps</w>
jo an</w>
swee tly</w>
sle ek</w>
en han
hi ll
min ent</w>
cul ture</w>
ne al</w>
sna ps</w>
ex posing</w>
ta sting</w>
ni col
ri on</w>
the e</w>
ru g</w>
re pair</w>
fa ti
consci ence</w>
li mit</w>
ce ased</w>
a mi
bre ed</w>
mag ne
ur al</w>
non eth
p acks</w>
no elle</w>
imp li
patter ns</w>
esc orted</w>
nic ely</w>
wri ter</w>
lu sh</w>
thi ef</w>
star tling</w>
ro y
lay ers</w>
ch el
arrange ments</w>
noneth eless</w>
bi tten</w>
tow ers</w>
i son</w>
ghten s</w>
co ffin</w>
nur ses</w>
wind shield</w>
remark able</w>
cra dled</w>
docu ments</w>
poli tics</w>
bar ed</w>
min a</w>
lat tered</w>
dom en</w>
dor m</w>
challen ged</w>
dom s</w>
ear n</w>
si ble</w>
har ley</w>
in fer
lin d
co ins</w>
dee pened</w>
li p
photogra phs</w>
war lord</w>
slo ane</w>
to ys</w>
g el</w>
v lad</w>
flir ting</w>
meta llic</w>
te mer
tro y</w>
' cause</w>
f ing</w>
t abi
gener ation</w>
for bidden</w>
regre tted</w>
we e</w>
i sol
p. m.</w>
strate gy</w>
t lessly</w>
g love</w>
cor a</w>
phi c</w>
g na
gr aceful</w>
wi l</w>
re ward</w>
ab du
cu sto
ga w
di vine</w>
scoo ted</w>
ste ss</w>
pul sed</w>
practi ced</w>
mu ddy</w>
e ssa</w>
vel ing</w>
b anging</w>
t acti
pri or</w>
fa u
pu pp
shi mmering</w>
conce aled</w>
prin cip
class room</w>
po d</w>
head quarters</w>
she epi
charac ters</w>
in ar</w>
sla pping</w>
t angle</w>
az ar</w>
accur ate</w>
y wood</w>
ca fe
destro ying</w>
d .
expre ss</w>
out line</w>
de mean
vi vid</w>
investi gate</w>
com merci
om a</w>
e tta</w>
phi lip</w>
1 8</w>
co ke</w>
d ys</w>
v it
sto ck
pul sing</w>
cha tting</w>
tw enti
laun ch</w>
ne ared</w>
harb or</w>
sil hou
schedu led</w>
ca ine</w>
condi tions</w>
rea pp
anticip ated</w>
c ere</w>
a j</w>
t ying</w>
indi cation</w>
the a</w>
vie wing</w>
play fully</w>
ear th
la me</w>
wo ken</w>
ja ws</w>
me ch
du mp</w>
strea ked</w>
fle et</w>
environ ment</w>
le en</w>
deser ves</w>
pa dded</w>
part ners</w>
ra d</w>
supp re
c i</w>
ri char
mi ck</w>
simul taneously</w>
hu dson</w>
de dly</w>
th om</w>
ro bo
ll i</w>
ck in</w>
swi ped</w>
loo sened</w>
le f
so ph
nor th
hea ving</w>
inter rupt</w>
ga zes</w>
sin cere</w>
over night</w>
bu m</w>
h s</w>
over heard</w>
ur gency</w>
lincol n</w>
sen tin
nee dles</w>
stra ps</w>
ro s</w>
ma ze</w>
ste in</w>
ma x
ther apy</w>
e ll</w>
re tired</w>
hy p
stair well</w>
tech n
bar gain</w>
ti ly</w>
termin al</w>
p ag
pic nic</w>
in to
da m</w>
tabi tha</w>
ag ging</w>
ch an</w>
re id</w>
ad mire</w>
recei ving</w>
evid ent</w>
anx iously</w>
coo ler</w>
ba it</w>
ti t
ke i
obe di
r ank</w>
en da</w>
drun ken</w>
vi ously</w>
mascul ine</w>
li sted</w>
un mista
com passion</w>
fol der</w>
sque aled</w>
ca sin
co b
fr anci
e zio</w>
sa tin</w>
lea f</w>
prin ted</w>
eng agement</w>
car rie</w>
fi lls</w>
stu mble</w>
balan ced</w>
organi zed</w>
man ners</w>
contra st</w>
chuck les</w>
crai g</w>
it es</w>
crea tion</w>
tra ils</w>
shi elds</w>
al a</w>
venge ance</w>
dr own</w>
ni es</w>
re u
visi tor</w>
emo tionally</w>
respon ding</w>
u .s</w>
ma gi
in er</w>
fe e
pu mped</w>
tradi tional</w>
oppon ent</w>
co pper</w>
de scent</w>
cul ated</w>
bur nett</w>
dri ves</w>
visi bly</w>
geor gie</w>
bi tterly</w>
cheer ful</w>
wy att</w>
y a
er otic</w>
mo cking</w>
tro ll</w>
fi x
hor ns</w>
ca fe</w>
im mun
em be
promp tly</w>
post ure</w>
ra p
cha mbers</w>
do yle</w>
a shes</w>
susp ended</w>
civi l</w>
autom atic</w>
accep table</w>
un bear
retor ted</w>
hy po
bu st</w>
advi sed</w>
room mate</w>
temer aire</w>
cu pping</w>
bun dle</w>
whimp ered</w>
di g
fa llon</w>
l one</w>
bi lli
appe al</w>
la mps</w>
sma sh
bu d</w>
wil d
thir sty</w>
ta ti
tw ined</w>
dar cy</w>
s way</w>
for tress</w>
fan g</w>
draw ers</w>
m our</w>
cla wed</w>
experi ment</w>
veron ica</w>
dou g</w>
con tribu
a pr
heal er</w>
trans formed</w>
g ross</w>
tex ted</w>
accompli shed</w>
a ur
h ound</w>
vi le
flor ida</w>
swe lled</w>
win k
g ance</w>
excite dly</w>
fe ast</w>
mil dly</w>
sa ble</w>
ra ked</w>
crow ds</w>
ar ts</w>
religi on</w>
ki llers</w>
sna kes</w>
touri sts</w>
sha w</w>
sy r
b ani
epi so
arou sed</w>
desser t</w>
bla med</w>
communic ate</w>
cafe teria</w>
te ams</w>
sh annon</w>
hu shed</w>
ght ful</w>
s col
se dly</w>
vin es</w>
wi ves</w>
f ounded</w>
c ome
ab domen</w>
sick ness</w>
u gh</w>
re gan</w>
wal ter</w>
ev ie</w>
scienti sts</w>
establi shed</w>
be llowed</w>
stu res</w>
mi kha
be ck</w>
ca ves</w>
y ank</w>
ge mma</w>
ting ling</w>
dre n
per formed</w>
be dro
ju ly</w>
j an</w>
brac elet</w>
disc ar
un seen</w>
sau ce</w>
fle e</w>
i ans</w>
sty x</w>
sh i</w>
cri tical</w>
doub led</w>
maj ority</w>
contro ll
disgu ise</w>
under world</w>
pi ll</w>
frequ ently</w>
re ins</w>
ch i</w>
tow ering</w>
pi er</w>
preci se</w>
me ssing</w>
n at</w>
dar ting</w>
hel ena</w>
re infor
a mos</w>
pro to
butt oned</w>
dono van</w>
stal king</w>
st les</w>
her o
kno ts</w>
lif eless</w>
en gul
tow ns</w>
g inger</w>
glea med</w>
wel coming</w>
mo ans</w>
so bbed</w>
ath le
temp tation</w>
st ac
x ter</w>
pun ching</w>
dan cer</w>
st ating</w>
wa x</w>
ru s</w>
si tes</w>
wal k
yaw ned</w>
ri a</w>
ador able</w>
clar ity</w>
trans fer</w>
sympa thetic</w>
hau l</w>
gar a</w>
del a
v enti
ha ting</w>
rea per</w>
t z
fascin ating</w>
ken dall</w>
don na</w>
broo ks</w>
develop ment</w>
di tch</w>
war dro
cour tney</w>
back up</w>
we ll
vamp s</w>
shu d
congratu lations</w>
pp ery</w>
li la</w>
stea ming</w>
p lot</w>
pro po
hesi tantly</w>
sl ur
pri ck</w>
recei ver</w>
puni sh</w>
contro lling</w>
lab or</w>
ti ckets</w>
pro tru
mi ll</w>
mar rying</w>
tu cking</w>
tu ck</w>
in quired</w>
gro aning</w>
tu mbling</w>
e tched</w>
exqui site</w>
2 2</w>
van essa</w>
zi pper</w>
lu s</w>
surve yed</w>
si pping</w>
be cca</w>
ki lls</w>
pri vile
sp li
cur ly</w>
se attle</w>
op enly</w>
trait or</w>
be e</w>
confe ssion</w>
soa king</w>
ri ver
mes mer
plan es</w>
we eping</w>
ver ge</w>
depu ty</w>
scal p</w>
entertain ment</w>
alli ance</w>
ver ity</w>
stra w
thor n</w>
mikha il</w>
ze us</w>
clin ic</w>
dru ms</w>
main ly</w>
am i</w>
w ool</w>
we e
lex ie</w>
e llen</w>
cigar ettes</w>
re gain</w>
lab or
resi dence</w>
ag oni
lay ne</w>
air craft</w>
sp an
witne sses</w>
lyn n</w>
flo at</w>
n ard</w>
fre shly</w>
occa sions</w>
cre ep</w>
la i</w>
sy mp
go bl
six th</w>
che e
extra ordinary</w>
u ps</w>
ge e</w>
li mo</w>
sta lled</w>
de me
su z
sp as
end ure</w>
diamon ds</w>
re stri
her es</w>
puni shed</w>
sti l</w>
en for
el f</w>
obe yed</w>
temp ting</w>
mi llie</w>
gol f</w>
coun sel
ch ron
mon a</w>
virg in
sha ttering</w>
hide ous</w>
bu rea
li ke
h end</w>
con qu
jew el</w>
but ler</w>
bur g</w>
law yers</w>
mu tter</w>
play ful</w>
k ra
li an</w>
some place</w>
snar l</w>
emb raced</w>
color ful</w>
o le</w>
' m</w>
2 4</w>
nephe w</w>
ca sca
pu b</w>
i zing</w>
sugge sti
ele ment</w>
ex otic</w>
po ker</w>
disci pl
rem n
han dy</w>
ne dra</w>
per spective</w>
ex tent</w>
v ant</w>
jac kie</w>
glea m</w>
john son</w>
char ging</w>
youn gest</w>
en chan
mit che
fr owns</w>
peri meter</w>
snu ck</w>
hu sh</w>
ex cep
da ph
be have</w>
ja pan
di ary</w>
ra pe</w>
fa irs</w>
to s</w>
bu sted</w>
c tedly</w>
show ered</w>
cra ved</w>
d well</w>
jew els</w>
ga y</w>
un controll
e man
pick up</w>
do s</w>
excu ses</w>
le gen
bar ry</w>
vor y</w>
mor al</w>
susan nah</w>
pe ak</w>
lau rel</w>
ac on</w>
tow n
con tr
contain er</w>
inter national</w>
liqu or</w>
di zz
fu zzy</w>
hand ling</w>
increa sing</w>
cap tive</w>
care ssing</w>
he ir</w>
sl ack</w>
co ated</w>
a do</w>
compla ining</w>
yan king</w>
situ ations</w>
heavi er</w>
ben ny</w>
author ities</w>
re ference</w>
sho cking</w>
dan i</w>
scar red</w>
tri ps</w>
whi stled</w>
my r
japan ese</w>
shri ek</w>
ble ed</w>
sp oo
increa se</w>
tra ge
n in
un ner
sa tell
sor s</w>
musc led</w>
fa stened</w>
ker chief</w>
qu en
ble ssing</w>
per pe
sne ered</w>
zi ly</w>
lea ping</w>
suff icient</w>
ma tically</w>
main tained</w>
ra g</w>
gl int</w>
fi led</w>
ev ing</w>
pu mp</w>
amu sing</w>
u mb
our ing</w>
shud dering</w>
im pulse</w>
clau dia</w>
ser ves</w>
para dise</w>
costu me</w>
mb ered</w>
rever se</w>
fig uring</w>
t fully</w>
bru ce</w>
fle xed</w>
an e
part ments</w>
brief case</w>
fran kie</w>
electr onic</w>
ch unk</w>
hesit ant</w>
princip al</w>
b out</w>
sen ds</w>
ru led</w>
z oo
st ering</w>
lo gue</w>
ac counts</w>
grim ace</w>
n as
snor t</w>
ra mp</w>
du sk</w>
n in</w>
mech ani
neu tral</w>
outw ard</w>
d ine</w>
descen ding</w>
alex andra</w>
2 5</w>
whi l
success fully</w>
ander son</w>
cri mes</w>
daph ne</w>
sl ower</w>
i re
busin ess
deli c
gro ve</w>
reu ben</w>
con j
divi ded</w>
man or</w>
no ve
li mb</w>
angui sh</w>
squ at
g listening</w>
sta tions</w>
mack enzie</w>
employe e</w>
cla ir</w>
mas sa
whil st</w>
bur sting</w>
di p</w>
gran ny</w>
guar dians</w>
pr ow
gr ows</w>
betra y</w>
rela tive</w>
v als</w>
fl ynn</w>
americ ans</w>
ang ling</w>
u no
pa thi
box ers</w>
ri sen</w>
intere sts</w>
colu m
wardro be</w>
par aly
sele cted</w>
gigg les</w>
spr ings</w>
predi ctable</w>
na sh</w>
bu gs</w>
loo med</w>
pre viously</w>
ni ko
va in</w>
che ating</w>
ri son
proce ed</w>
o ven</w>
pol gara</w>
hurri edly</w>
regi on</w>
st asy</w>
o gra
tom s</w>
ac ious</w>
fri ed</w>
ne stled</w>
car ly</w>
mb ly</w>
vom it</w>
tt ery</w>
pat ting</w>
alter native</w>
imp eri
ken ny</w>
mo tor</w>
rob bie</w>
kenne dy</w>
juli et</w>
g ha
so lation</w>
disp at
el ves</w>
ro tten</w>
com posure</w>
de mo
phi li
sig nature</w>
com posed</w>
ten nis</w>
c un
eri k</w>
che ck
confu sing</w>
campa ign</w>
bas ket
nau sea</w>
spee ch
lanter n</w>
twi tching</w>
mom ma</w>
un certainty</w>
we ed</w>
su b</w>
z ards</w>
ado pted</w>
clu bs</w>
do x</w>
surve ill
ter ry</w>
pre fer
spr inted</w>
re c
shad owed</w>
ly dia</w>
flu ttering</w>
cor p
al armed</w>
ev ans</w>
man ny</w>
assi st</w>
cal ming</w>
bl ings</w>
le gged</w>
da vis</w>
mon t
py ra
p and
succe ed</w>
pi les</w>
ge ment</w>
blank ly</w>
suppo sedly</w>
band age</w>
carol ina</w>
ou ch</w>
po tat
ec stasy</w>
indi a</w>
tin ess</w>
li li
mar ina</w>
l da</w>
de af
depar ture</w>
surveill ance</w>
blin d
te sti
sugge sting</w>
compan ies</w>
alex is</w>
re pri
coo p</w>
repe ating</w>
bri tt
ka de</w>
compar ison</w>
triump h</w>
pupi ls</w>
mu ted</w>
app ly</w>
revel ation</w>
a e
go at</w>
con vul
glu ed</w>
demean or</w>
a mp
col by</w>
smo l
par lor</w>
be half</w>
di gn
re fre
scienti st</w>
a men
ash a</w>
pow ered</w>
u ti
ce lia</w>
out come</w>
ja mmed</w>
tre men
sarca stically</w>
nor man</w>
f en</w>
potat oes</w>
gr ated</w>
pur suit</w>
whi te
vi per</w>
ap ers</w>
a iming</w>
on al</w>
qui vering</w>
swa mp</w>
whe eled</w>
ran ks</w>
charac teri
ti lt</w>
wink ler</w>
har dy</w>
o ath</w>
astoni shment</w>
imp rison
mitche ll</w>
suc cu
conne ctions</w>
ey ela
sle e
exasper ated</w>
am a</w>
interrup ting</w>
an ony
eyela shes</w>
beau </w>
stri des</w>
ni co
flat ly</w>
v ital</w>
daw son</w>
di ssi
trac y</w>
po tent</w>
don ald</w>
d ele
d as</w>
perman ently</w>
ac comp
be ars</w>
helple ssly</w>
apologi zed</w>
re ese</w>
ni ece</w>
cont acts</w>
th ia</w>
mat ing</w>
j unk</w>
col our</w>
abu se</w>
a di
fin est</w>
clen ch</w>
scra w
house hold</w>
inst ance</w>
mi l</w>
suspici ons</w>
tt in</w>
cli p</w>
no lan</w>
can di
iri sh</w>
wi ggled</w>
aggre ssive</w>
cou ples</w>
enti ally</w>
lu gg
col dly</w>
ti cked</w>
ne cessi
vik tor</w>
b ony</w>
gran ite</w>
butter flies</w>
blu shing</w>
c attle</w>
stu pi
g ard</w>
so ever</w>
archi te
inten si
chap el</w>
custom er</w>
war den</w>
in volun
spla sh</w>
lin en</w>
sha ved</w>
prophe cy</w>
flu tter</w>
tra dition</w>
bar king</w>
franci sco</w>
parti cip
sa gged</w>
na pe</w>
w ars</w>
geor gia</w>
how led</w>
coo kie</w>
ber ries</w>
snu ggled</w>
dist ing
supp orted</w>
sw ings</w>
foun dation</w>
o my</w>
moi sture</w>
h n</w>
tri gg
adver ti
co her
squ e</w>
door bell</w>
gul p</w>
el u
hu mmed</w>
awak ened</w>
sta ir</w>
lugg age</w>
fr action</w>
confe ss</w>
prie sts</w>
di mly</w>
cri sis</w>
produ ction</w>
ra sped</w>
gabri elle</w>
fea ther</w>
re ferred</w>
b af
we ars</w>
bor row</w>
p or</w>
octo ber</w>
how l</w>
ribb on</w>
sc at
di pl
str an
su bur
pay ment</w>
accep tance</w>
chi r
mani fe
si blings</w>
de fini
thu mb
ali son</w>
pe yton</w>
arte mis</w>
ver i
tor ment</w>
bal th
ju mps</w>
flo pped</w>
har ris</w>
it ch</w>
deca de</w>
ulti mately</w>
magaz ines</w>
cru ise</w>
pan ted</w>
r ina</w>
dar t</w>
invol ve</w>
stro m</w>
accomp lish</w>
ell is</w>
i um</w>
tan ned</w>
gregor y</w>
mor tality</w>
re volu
cele bration</w>
str ate</w>
kei th</w>
ging erly</w>
frank lin</w>
sp in
au to
bru ise</w>
r ons</w>
basket ball</w>
c tures</w>
carol yn</w>
be ans</w>
au th
questi on
ja y
f are
appe tite</w>
re y</w>
den ny</w>
sc run
own ers</w>
boul der</w>
no ting</w>
rescu ed</w>
cr on
wor ker</w>
bur sts</w>
concentr ating</w>
vi sh</w>
body guard</w>
apr on</w>
wom ans</w>
pir ate</w>
scra ping</w>
re signed</w>
shu ffling</w>
ti lting</w>
do se</w>
cha tter</w>
micro phone</w>
ger ald</w>
kno x</w>
ro tting</w>
ty ped</w>
lur king</w>
c is</w>
col ton</w>
bra m</w>
bo iling</w>
val erie</w>
discar ded</w>
com pul
courte sy</w>
se a
bron ze</w>
m me
ven ture</w>
depen ding</w>
confli ct</w>
appreci ation</w>
batt les</w>
ru mor</w>
fle tcher</w>
esc al
gro in</w>
tow els</w>
great ly</w>
mon key</w>
sta mmered</w>
cli cking</w>
ac id</w>
shadow y</w>
wi g</w>
ri ppled</w>
nan ny</w>
f icial</w>
ele ments</w>
speech less</w>
co cky</w>
e able</w>
bla ze</w>
arra y</w>
strea med</w>
purpo ses</w>
un willing</w>
at tic</w>
jai me</w>
la be
scenari o</w>
con ci
bran dy</w>
salv at
comman ds</w>
sen sations</w>
har med</w>
re ar
re mor
suit able</w>
den ying</w>
i van</w>
wri thing</w>
acqua in
we lled</w>
anch or</w>
vac ant</w>
tu i
your selves</w>
gli ded</w>
virgin ia</w>
re sts</w>
eu ro
what soever</w>
expl oring</w>
fi ghters</w>
noti ce
threat en</w>
li l</w>
re mark</w>
wren ched</w>
strang led</w>
swe lling</w>
blu e
lei gh</w>
how ling</w>
ou ting</w>
eag le</w>
can op
ra il
produ ct</w>
lu </w>
desi res</w>
wi res</w>
custo dy</w>
paran oid</w>
sol ar</w>
sil as</w>
spea kers</w>
si rens</w>
ho tter</w>
contro ls</w>
ni shed</w>
flat tened</w>
ma ti
rese mbled</w>
emp tied</w>
fer gus</w>
thro bbed</w>
ro sie</w>
compre hend</w>
gi o</w>
di ct
win ston</w>
defin ed</w>
g on
e en</w>
isol ated</w>
ma the
man dy</w>
twi light</w>
indi cate</w>
per sons</w>
harm less</w>
ste ad
cheek bones</w>
disc er
repor ters</w>
salvat ore</w>
surpri ses</w>
ag itated</w>
dread ful</w>
nath ani
en tal</w>
w ry</w>
pre ce
be ver
ski es</w>
commerci al</w>
we lling</w>
re yes</w>
far m
z ar</w>
re hear
fli cking</w>
af fairs</w>
increa singly</w>
mari ssa</w>
consu ming</w>
pe pper</w>
summ on</w>
emer son</w>
o v</w>
comm it</w>
ti ble</w>
ting le</w>
par all
m ace</w>
v ingly</w>
c tor
whi pping</w>
in form</w>
obse ssed</w>
je tt</w>
v able</w>
ade qu
per ver
cra mped</w>
lu ce</w>
ta vern</w>
se aring</w>
pla stered</w>
tenta tively</w>
mirr ors</w>
tom b</w>
mar guer
appro ve</w>
hand kerchief</w>
casin o</w>
spo iled</w>
electri cal</w>
ac tor</w>
2 1</w>
rea ssure</w>
unmista kable</w>
de pressed</w>
spect ac
ab rupt</w>
i ris</w>
su pre
hop eless</w>
di sma
co t</w>
y ar
la ss</w>
r acks</w>
b ates</w>
inspe ctor</w>
gre t
how ard</w>
i ser</w>
al ar
cand ace</w>
bewil dered</w>
: 00</w>
unexpe ctedly</w>
y in</w>
quick er</w>
chi med</w>
disor i
re solved</w>
gloo m</w>
britt any</w>
ba thed</w>
ar ena</w>
gro ans</w>
sel ena</w>
marguer ite</w>
min d
sn oo
commi tment</w>
che cks</w>
pul ated</w>
che ster</w>
guar ding</w>
chi lled</w>
ta stes</w>
s ary</w>
crea ked</w>
land on</w>
s killed</w>
ser en
redu ced</w>
spr ink
g ings</w>
f fi
c any
di ct</w>
wil son</w>
sand ra</w>
ca th
ton gues</w>
fi xing</w>
forgi veness</w>
m ound</w>
cau ses</w>
scen es</w>
trage dy</w>
pe e</w>
bad ge</w>
thou </w>
corp ses</w>
un doub
dis da
grand parents</w>
dete cted</w>
ja vier</w>
be ef</w>
make shift</w>
bar t</w>
ra e</w>
mar ty</w>
joy ah</w>
hyp noti
wi den</w>
too th</w>
ur s</w>
lip stick</w>
har dest</w>
astoni shed</w>
j ury</w>
undoub tedly</w>
bu ckle</w>
inqui si
do in</w>
too th
ac ul
wa l</w>
bat tery</w>
cap acity</w>
rea der</w>
a val
s cho
vi mes</w>
clar k</w>
mu tual</w>
identi fied</w>
gg les</w>
ti vity</w>
ju di
impre ss</w>
sme ared</w>
tun ic</w>
mo b</w>
i vory</w>
clu es</w>
sla shed</w>
z i</w>
conne cting</w>
st ful</w>
p inning</w>
ha ley</w>
har shly</w>
ob servation</w>
gl as</w>
ste al
stu bble</w>
ce '
bi ted</w>
ev elyn</w>
do dge</w>
t ley</w>
sof ter</w>
balth azar</w>
unbeliev able</w>
jo gged</w>
isl ands</w>
bi ll
va li
hu gs</w>
od or</w>
po p
pu ssy</w>
in fli
man aging</w>
stiff ly</w>
con dem
bri anna</w>
po ps</w>
tex ts</w>
sh ort
st inging</w>
mat ches</w>
ca pe</w>
19 </w>
bi kin
terr or
oper ations</w>
pre n
strea k</w>
stab les</w>
into xic
c tives</w>
ste ak</w>
experien ces</w>
sh ards</w>
vo ted</w>
hoo ded</w>
su lli
stron gest</w>
ce' nedra</w>
ja sper</w>
super vi
la in</w>
cro sses</w>
sub stan
back side</w>
tion ist</w>
war ded</w>
stor ms</w>
admir ing</w>
dd ened</w>
ru mbling</w>
desig ner</w>
ball room</w>
ber y</w>
com motion</w>
con front</w>
w er
gree dy</w>
tu ous</w>
announ cement</w>
bur ger</w>
ten derly</w>
classi c</w>
gener ations</w>
expl or
pou ch</w>
scar cely</w>
ra dar</w>
spark led</w>
recor ded</w>
g ator</w>
sedu ctive</w>
ri der</w>
p aces</w>
shu ttle</w>
par ting</w>
pre dat
ris ked</w>
trans ferred</w>
bru shes</w>
sub jects</w>
ti ts</w>
chi lly</w>
meas ured</w>
schoo ls</w>
sma llest</w>
holl ywood</w>
prin ci
a ster
qu il
corri dors</w>
st ache</w>
vibr ated</w>
omin ous</w>
bla zed</w>
import antly</w>
poi sed</w>
appe aling</w>
lo la</w>
sou th
li ttered</w>
clu tch</w>
shoo ts</w>
h h
nar rowing</w>
fi dge
mb o</w>
p ent</w>
ne gle
cel a
co l</w>
ba thing</w>
ten ts</w>
sy n</w>
di e
i dly</w>
mu ster</w>
sep te
coun try
bren nan</w>
eas ing</w>
thu mping</w>
achi eve</w>
bin ding</w>
conveni ence</w>
sa ge
we pt</w>
la sh</w>
le ton</w>
i ster</w>
hi ssing</w>
e o
waist band</w>
ra ine</w>
exter ior</w>
dren ched</w>
re view</w>
recor ding</w>
gene tic</w>
kic ks</w>
ende lle</w>
ste w</w>
cr ink
abbe y</w>
ge stures</w>
cela ena</w>
triump han
con taining</w>
re ne
ja i</w>
my th</w>
d get</w>
it lyn</w>
survi vors</w>
poli cy</w>
ing y</w>
di vision</w>
septe mber</w>
ro ad
hall u
cur ran</w>
vau gh
sub stance</w>
sim one</w>
dag gers</w>
pri ority</w>
v owed</w>
blin dly</w>
ster ling</w>
luci a</w>
comman ding</w>
gw en
co py
over sized</w>
butter fly</w>
lon gest</w>
scienti fic</w>
ti les</w>
nau ghty</w>
ri ce</w>
l ant</w>
pan g</w>
whimp er</w>
bry an</w>
un natural</w>
trac es</w>
bor rowed</w>
th at
bri ghtened</w>
p m</w>
bur ying</w>
gra yson</w>
whe e
unbear able</w>
rele vant</w>
pa ige</w>
mead ow</w>
dra ws</w>
scree ched</w>
re gained</w>
ro e</w>
interf ere</w>
mar s</w>
bl end</w>
sol o</w>
gr an</w>
ar c</w>
scre ens</w>
dal inar</w>
den ial</w>
encoura ging</w>
al tered</w>
ser ver</w>
da h
tempor arily</w>
pe eking</w>
mer ri
shel by</w>
danger ously</w>
chri sti
colle cting</w>
indepen dent</w>
philo so
t arily</w>
scre wing</w>
vege tables</w>
hur rying</w>
schoo l
marsha l</w>
sche me</w>
gre na
si ghts</w>
symbo ls</w>
ne ys</w>
provi ding</w>
fla ming</w>
bl unt</w>
tu </w>
visi ts</w>
spiri tual</w>
re ll</w>
ba sha</w>
com partment</w>
ab ack</w>
cl ine</w>
da vi
hallu cin
archi e</w>
angel a</w>
sa pp
po sted</w>
sandwi ches</w>
pleas antly</w>
squir med</w>
si ren</w>
pand ora</w>
rela tives</w>
suppor ting</w>
p ac
o clock</w>
gla dly</w>
mischi ev
fo li
loo ming</w>
blin ded</w>
sp ared</w>
thru sts</w>
bitter ness</w>
bu bbles</w>
gal ax
crea tive</w>
ma bly</w>
lat ch</w>
mur ders</w>
daw ned</w>
mo de
or b</w>
da ds</w>
al a
ri vers</w>
p li
re y
sun rise</w>
4 0</w>
v ow</w>
he ars</w>
ta tive</w>
pat ches</w>
bul ous</w>
ici an</w>
uni forms</w>
concer t</w>
cre di
ple a</w>
mechan ical</w>
ratt ling</w>
g ang
ga g</w>
teen agers</w>
le to</w>
deb ate</w>
an ti</w>
chor us</w>
ma ster
ill ness</w>
tar gets</w>
f el
ali ze</w>
ex trac
exp li
adju sting</w>
pa ws</w>
her d</w>
immen se</w>
a vi
won ders</w>
deli lah</w>
ve in</w>
gal en</w>
ni x</w>
ide al</w>
ss on</w>
absur d</w>
is m</w>
inve st
ar ching</w>
anti que</w>
op en
swee tness</w>
beauti fully</w>
r ing
her e
atten ding</w>
c ling</w>
men acing</w>
mar ching</w>
ce des</w>
4 5</w>
sc rubbed</w>
2 3</w>
ra ined</w>
v on</w>
fer al</w>
l ure</w>
ow ered</w>
mo di
c ale</w>
po ster</w>
end ured</w>
grow ls</w>
convic tion</w>
cat a
y up</w>
jo lted</w>
stan dar
el ope</w>
s .
sing er</w>
presu mably</w>
spectac ular</w>
scal es</w>
momen tum</w>
disma y</w>
han gs</w>
j ag
har rison</w>
a waiting</w>
f ty</w>
sel s</w>
shi tty</w>
thu mped</w>
war mly</w>
re vi
bedro oms</w>
sarca stic</w>
ky rie</w>
less er</w>
she ath</w>
zi p</w>
bea ds</w>
z ev</w>
cry p
regu larly</w>
hol der</w>
emp tiness</w>
ysi s</w>
ri cky</w>
a w</w>
peop les</w>
le tt</w>
tre ach
mer cedes</w>
dee pest</w>
consider able</w>
r r
jan u
sl acks</w>
wr yly</w>
expan se</w>
t tie</w>
mo le
to pped</w>
k ar</w>
ur ging</w>
re bel</w>
bul k</w>
hon ored</w>
hear ted</w>
sa iling</w>
wy l</w>
str a</w>
cha ined</w>
kel sey</w>
bi as</w>
gun fire</w>
do t</w>
ev o
op ed</w>
t ler</w>
poin tless</w>
un spoken</w>
gor don</w>
la ser</w>
squ inting</w>
fe ig
p ins</w>
sh h</w>
br o</w>
fi a</w>
ez ra</w>
metho d</w>
k an</w>
fu cker</w>
c as</w>
gret chen</w>
sand als</w>
vel op</w>
reco very</w>
immun e</w>
li ghted</w>
admir al</w>
bro ck</w>
forear ms</w>
car ries</w>
draw led</w>
anna belle</w>
cat cher</w>
pa ll
afri ca</w>
hur led</w>
sch ol
under stand
spe c
e ma
rear view</w>
propo sal</w>
sp len
bea ming</w>
tal ents</w>
win ce</w>
ta mmy</w>
se ph
re commen
f ers</w>
ic o</w>
car pe
distri bu
sque aked</w>
sco tch</w>
pro ving</w>
mou thful</w>
twenti es</w>
da im
cont acted</w>
grac ie</w>
pp er
sole m
applau se</w>
ta sha</w>
ben ja
cour t
chur ning</w>
a in
dipl om
th fully</w>
in furi
si re</w>
plac ement</w>
br yn</w>
feder al</w>
vo d
disappear ance</w>
sl in</w>
sa mple</w>
stab bing</w>
man n</w>
me e</w>
episo de</w>
al ysis</w>
plain ly</w>
ten ing</w>
pe an
de parted</w>
person nel</w>
ha y</w>
da mp
do dged</w>
pu ddle</w>
ele phan
fi sted</w>
bo iled</w>
an gus</w>
cand i</w>
scra mbling</w>
sti fled</w>
pre d
satis fy</w>
id ance</w>
angel es</w>
dou glas</w>
fascin ation</w>
remn ants</w>
wa vering</w>
tor ches</w>
du chess</w>
sha llan</w>
pon dered</w>
sof tness</w>
tal ented</w>
good night</w>
up wards</w>
per si
ari ana</w>
sh ness</w>
rea pers</w>
g ments</w>
stri kes</w>
kno tted</w>
tre s</w>
canop y</w>
ag i
sacri fic
dign ity</w>
fai ries</w>
cou l
au stra
gra m</w>
alli es</w>
rif les</w>
bra dley</w>
mo dest</w>
g gi
u d</w>
janu ary</w>
pri mary</w>
mo ss</w>
we eds</w>
chuck ling</w>
in ching</w>
docu ment</w>
mall ory</w>
wa its</w>
blo ss
su res</w>
la shed</w>
plo pped</w>
con test</w>
sha m
asse mbled</w>
se vered</w>
w yn</w>
shar k</w>
satell ite</w>
di mini
mil ton</w>
fal tered</w>
do tted</w>
sweat shirt</w>
e dition</w>
ac company</w>
pre mi
sc and
re jected</w>
wor m</w>
sensi ble</w>
cup board</w>
stri ct</w>
effe ctively</w>
apologi es</w>
appro ved</w>
sl an
sofi e</w>
radi ated</w>
ran dy</w>
bu tch</w>
s no
z o</w>
plu mp</w>
per ple
pur sue</w>
hosti le</w>
posse ssive</w>
pi ti
occur </w>
fear ful</w>
eng age</w>
fren zy</w>
it aly</w>
str ating</w>
thank s
cur ses</w>
ma b</w>
cr an
fun d</w>
li bby</w>
p aci
a mid</w>
na y</w>
wid ening</w>
bor ne</w>
satis fying</w>
pred ator</w>
ss ness</w>
boun ce</w>
publi shed</w>
no thin</w>
ru e
sa iled</w>
black ened</w>
che ered</w>
den ise</w>
cheer fully</w>
bo lts</w>
scra p</w>
lou ise</w>
de posi
spo t
thir st</w>
ab sent</w>
far mer</w>
standar ds</w>
reas sured</w>
vod ka</w>
lat ched</w>
la ir</w>
wen dy</w>
belon gings</w>
la bel</w>
in sanity</w>
re strained</w>
wh ined</w>
un necessary</w>
ange lica</w>
de vices</w>
emer ge</w>
tt s</w>
ev al</w>
sha wn</w>
sk inned</w>
l acked</w>
paja mas</w>
distur b</w>
scul p
deaf ening</w>
she pher
stre et
she lls</w>
wi lled</w>
eva por
co co
st acks</w>
sni ff</w>
p raise</w>
ling er</w>
dan ts</w>
rever ber
euro pe
strai ghtening</w>
plan ets</w>
b ree</w>
admir ation</w>
eli te</w>
presen ts</w>
bo bbed</w>
tur key</w>
ben nett</w>
pre t
ba ked</w>
ther a
colle agues</w>
poli tici
sc ents</w>
fe llows</w>
vac u
spi tting</w>
k ingly</w>
coun tries</w>
cand le
com ra
fai thful</w>
challen ging</w>
ven tured</w>
ir ony</w>
we st
je m</w>
se er</w>
sni ffing</w>
er ra
ca the
itu tion</w>
mom s</w>
wor thless</w>
bar on</w>
scow ling</w>
pron ounced</w>
im pul
mar is</w>
stre wn</w>
jour na
volunte ered</w>
h mmm</w>
foo ls</w>
ph en
br un
medi um</w>
suff oc
tremen dous</w>
inva sion</w>
floo ding</w>
re son
cany on</w>
assass ins</w>
di ving</w>
ob serve</w>
an ita</w>
impati ence</w>
thanks giving</w>
di stor
ac quired</w>
war mer</w>
pi st</w>
all en</w>
tro tted</w>
compe lled</w>
cer ti
contr ary</w>
i sing</w>
op timi
pa ired</w>
door knob</w>
re sur
corpor ate</w>
ra ining</w>
e some</w>
vibr ating</w>
1 00</w>
fr ac
gui ding</w>
k ad
wea ving</w>
t ow</w>
exagger ated</w>
gla zed</w>
wor ship</w>
nu clear</w>
spir al</w>
survi ving</w>
b owing</w>
win cing</w>
un fair</w>
re nia</w>
vol can
ush ered</w>
me ets</w>
ir onic</w>
humili ation</w>
hy per
an ton</w>
pro pe
sli ppery</w>
o g
20 0
w .
sp ace
se lle</w>
ru ler</w>
stub bor
fe y</w>
gradu ate</w>
in i</w>
nove mber</w>
wid ow</w>
ga tions</w>
bun k</w>
i ona</w>
ski mmed</w>
trou bles</w>
near er</w>
co ven</w>
st om</w>
bikin i</w>
depre ssion</w>
ash ton</w>
pho e
enter taining</w>
li za</w>
seven th</w>
dece mber</w>
tab le
syl via</w>
son ia</w>
chemi stry</w>
a waited</w>
benja min</w>
b ane</w>
en vy</w>
cul ars</w>
instru ment</w>
vi gor</w>
ki sh</w>
sab ine</w>
par ade</w>
su </w>
ance stors</w>
g ely</w>
soo the</w>
un folded</w>
w rai
poli sh</w>
pro m</w>
ru bs</w>
bra kes</w>
ca id</w>
di et</w>
mor ris</w>
bar e
d re</w>
differ ences</w>
p al</w>
ple ss</w>
ka i</w>
shar on</w>
dor o
oun d
wa de</w>
coll ins</w>
gradu ated</w>
f ab
nick name</w>
refle cting</w>
and ers</w>
str y
po or
lo ft</w>
ra ped</w>
ren ted</w>
shru gging</w>
er ase</w>
glo ssy</w>
ru bble</w>
tran spar
sli cing</w>
ph ar
exten ding</w>
walk way</w>
smo ked</w>
pir ates</w>
ob st
de u
b ounded</w>
ton ed</w>
dun geon</w>
sign aled</w>
ch ers</w>
sse ll</w>
gar go
distr acting</w>
s men</w>
ci gar</w>
issu ed</w>
glor ia</w>
ow l</w>
bla h</w>
sal es</w>
committ ee</w>
ch eri
ra ven
cele bri
reck less</w>
bl un
contemp t</w>
su tton</w>
ris ks</w>
j ana</w>
de mi
ki ara</w>
v ane</w>
or able</w>
che ated</w>
se as</w>
ho ar
sp an</w>
trans formation</w>
ada ms</w>
lo th
el iness</w>
tt led</w>
bul ging</w>
confron tation</w>
weak ened</w>
i ah</w>
fac ial</w>
sque ak</w>
en li
ou tta</w>
v s</w>
hus bands</w>
mar tin
mm ers</w>
man agement</w>
co iled</w>
ti er
th un
me ster</w>
cei ve</w>
ri dden</w>
ma ps</w>
tri ckle</w>
con do</w>
b is</w>
ming led</w>
interro gation</w>
ratt le</w>
pas sage
hear th</w>
fra ser</w>
sky lar</w>
disp le
at tract</w>
portra it</w>
practi cing</w>
dra matically</w>
gr acefully</w>
z ie</w>
inter jected</w>
kin caid</w>
se t
a qu
ad es</w>
see ped</w>
pi pes</w>
constru cted</w>
ro sa</w>
une ase</w>
fle eting</w>
bud dies</w>
be tty</w>
s laughter</w>
re sig
expec tations</w>
cel yn</w>
confir mation</w>
lux uri
wor shi
bi dding</w>
law rence</w>
con cu
mar tha</w>
a spect</w>
d ure</w>
clu ster</w>
fa bulous</w>
cushi on</w>
over looking</w>
gli ttered</w>
p ry</w>
tri ckled</w>
stic ated</w>
sp aces</w>
cra ving</w>
dev yn</w>
bu dge</w>
deliber ate</w>
gru ff</w>
o scar</w>
c or</w>
sole mn</w>
stri cken</w>
fl own</w>
spar ked</w>
fo am</w>
mor nings</w>
co sts</w>
bu n</w>
hu l
consider ation</w>
le m</w>
ha des</w>
ha zy</w>
as ses</w>
ru thless</w>
niko lai</w>
stri ding</w>
shri ll</w>
intimid ating</w>
s to</w>
fanta sies</w>
explo ding</w>
bri sk
j .
ba lled</w>
ab outs</w>
z el
poin tedly</w>
dur nik</w>
encou rage</w>
g ate
cushi ons</w>
colum ns</w>
qui vered</w>
scra pe</w>
er ror</w>
persu ade</w>
sil very</w>
experien cing</w>
rever end</w>
tr o</w>
ann wyl</w>
reck on</w>
bren da</w>
app ren
/ /</w>
disapp ears</w>
gradu ation</w>
inti macy</w>
snat ch</w>
vibr ant</w>
we sley</w>
cere mon
vau lt</w>
exasper ation</w>
ren tal</w>
recep tionist</w>
sentin el</w>
individu als</w>
musi cal</w>
v ings</w>
shi re</w>
le tte</w>
pro found</w>
che ers</w>
ru stling</w>
coll ar
no l
ex pose</w>
hyster ical</w>
ven om</w>
t el
we lls</w>
ser ial</w>
be an</w>
bac hel
nai ve</w>
be ers</w>
i ze</w>
colon y</w>
li v</w>
mer ged</w>
key board</w>
instru ments</w>
inter ven
gu m</w>
boar ding</w>
mc ke
dedi cated</w>
pha se</w>
t as
ah s</w>
bri cks</w>
sel dom</w>
inse cts</w>
gui ld</w>
car d
mu te</w>
ster nly</w>
red head</w>
dissi p
exi sts</w>
dru gged</w>
ti ckled</w>
le x</w>
restaur ants</w>
ben ji</w>
bru nette</w>
hall ow
ten dri
ni all</w>
con rad</w>
h inges</w>
lea sh</w>
dar ren</w>
comp are</w>
ad mission</w>
kar l</w>
er son</w>
scur ried</w>
po sts</w>
cru mbling</w>
under esti
pe tite</w>
econ om
vi gor
jer sey</w>
admi tting</w>
defen ses</w>
li ze</w>
lie st</w>
z u
rese mblance</w>
ri gh
ag enda</w>
confron ted</w>
phoe be</w>
deci des</w>
pyra mid</w>
poo ls</w>
devo ted</w>
di pping</w>
ri b</w>
all e</w>
spe eding</w>
pa w</w>
sa die</w>
shi vers</w>
har ness</w>
co zy</w>
nicol as</w>
di ous</w>
j am</w>
ll y
represen ted</w>
ac ha
ni pples</w>
intru der</w>
hu ll</w>
proce dure</w>
ett i</w>
es y</w>
conce al</w>
dete ct</w>
coll in</w>
crea sed</w>
grea sy</w>
dark ening</w>
at y</w>
gu ing</w>
expec tantly</w>
pu ffed</w>
pen dant</w>
shi mmered</w>
inspe ction</w>
apologe tic</w>
war rant</w>
manu fac
lon eliness</w>
ri ders</w>
gregor i</w>
fe wer</w>
f le</w>
mexic an</w>
bom bs</w>
tr unks</w>
ha mmering</w>
br ace</w>
ca ps</w>
bic eps</w>
in car
p he</w>
solem nly</w>
ri o</w>
st ink</w>
bl at
hom eless</w>
ten derness</w>
un ic
y an</w>
comple x
c ac
inspir ed</w>
ph y
rain bow</w>
vir tually</w>
can non</w>
ig n
bu ck
sco tland</w>
toler ate</w>
sil ver
tur al</w>
re treating</w>
fac tor</w>
cal y
unti e</w>
re new
sw er
de tailed</w>
mar sh</w>
w el</w>
el vis</w>
s have</w>
accu sation</w>
glo be</w>
snar ling</w>
ho i
remor se</w>
twi sts</w>
umb re
na tions</w>
er ies</w>
ear nest</w>
h tt
serva tions</w>
ici ently</w>
cu stom</w>
ti cking</w>
ru ffled</w>
soo thed</w>
atten dant</w>
sin ister</w>
19 8
tion ary</w>
argu ments</w>
jac ob
gun sl
col der</w>
champ ion</w>
ma inten
le e
pro je
den cy</w>
doo med</w>
sur ing</w>
po o</w>
fle eing</w>
inst itute</w>
j inn</w>
police man</w>
scri p
statu es</w>
spli tting</w>
hor mon
wr ought</w>
mu tters</w>
fla p</w>
ho lo
chi e</w>
tab let</w>
or dering</w>
el son</w>
pe eling</w>
de ar
inha le</w>
de velop</w>
cu ff</w>
lli es</w>
ste ele</w>
ele mental</w>
ro cket</w>
gli ding</w>
high ness</w>
mer chan
pal ed</w>
car eless</w>
eff icient</w>
ff el</w>
un lock</w>
under stands</w>
cal f</w>
mel an
hen ri</w>
infe ction</w>
pe e
w l</w>
cor rup
b less</w>
cra dling</w>
com pen
ai mee</w>
d n</w>
co pies</w>
strai ghten</w>
loo sely</w>
mad dox</w>
jer i
clu msy</w>
cru de</w>
assa ul
crack led</w>
ba ss</w>
clou ded</w>
fati gue</w>
un ra
pack et</w>
har old</w>
com b</w>
po ke</w>
envelop ed</w>
ven ly</w>
affe ction
smo ky</w>
in o</w>
si d
hi tched</w>
suppre ssed</w>
nur sing</w>
fu ss</w>
pe tty</w>
arro gance</w>
inten sely</w>
wo ven</w>
ru m</w>
cock tail</w>
cin dy</w>
sulli van</w>
e an</w>
scar lett</w>
w i</w>
beck oned</w>
cele ste</w>
lo dged</w>
den ver</w>
ne on</w>
cur ving</w>
str ung</w>
country side</w>
mel ess</w>
for given</w>
to bias</w>
ste e
vaugh n</w>
smar ter</w>
lun a</w>
b leak</w>
sion al</w>
mp h</w>
gi gan
ha ste</w>
v ard</w>
or nate</w>
out right</w>
out si
re ha
cathe dr
new sp
sal em</w>
qui ver</w>
lou isa</w>
delic ately</w>
tenta tive</w>
her oes</w>
de sc
mun d</w>
amu let</w>
im possibly</w>
cli p
vo y
force fully</w>
in ward</w>
ru ssell</w>
newsp apers</w>
vi le</w>
imperi al</w>
war t</w>
b ind</w>
men tary</w>
cla pping</w>
per sist
la ken</w>
val ent</w>
mo th</w>
un touched</w>
vi sual</w>
vo ic
har vey</w>
viol a</w>
hol ster</w>
sub du
ra mp
cla sp</w>
s laugh
ju dged</w>
dra ining</w>
fla w
pra yers</w>
un its</w>
en tran
bra id</w>
bro ther
pen elope</w>
om ed</w>
snick ered</w>
cli max</w>
def ending</w>
ex ting
ar oma</w>
brisk ly</w>
be atri
oper ating</w>
scrat ches</w>
ev alle</w>
shar pened</w>
bi an
man ic
st ale</w>
li sts</w>
chemi cal</w>
ga lly</w>
we arily</w>
ren na</w>
coher ent</w>
strea ks</w>
di s</w>
defin ite</w>
ca dence</w>
fu ckin</w>
attack er</w>
igni tion</w>
water fall</w>
reco vering</w>
gr ate</w>
wind ow
kay la</w>
crack ling</w>
for ma
dri ll</w>
cabin ets</w>
cla ve</w>
tu bes</w>
c enti
amb assa
doo m</w>
dang led</w>
ll ow
ba sti
u ous</w>
ka itlyn</w>
lo be</w>
ev enly</w>
or phan
sque al</w>
sal i</w>
que ens</w>
ran n</w>
pen is</w>
p inch</w>
band ages</w>
car pathi
foll owers</w>
co y</w>
cro tch</w>
che w</w>
in wardly</w>
mi ss
su cker</w>
dis gui
nathani el</w>
obse ssion</w>
fin s</w>
wa g
ali st</w>
flu ffy</w>
fat al</w>
spe ars</w>
d enti
ha tt
richar ds</w>
pu ff</w>
civili zation</w>
poison ed</w>
ch unks</w>
reason ing</w>
hallow een</w>
coun ters</w>
de ath
wea ker</w>
shi p
rhe a</w>
associ ated</w>
con or</w>
st ages</w>
relen tless</w>
stri ped</w>
smash words</w>
mer cen
cla wing</w>
hi lar
pri mi
kir an</w>
gra zed</w>
cli ffs</w>
tra gic</w>
ph ed</w>
po ts</w>
saun tered</w>
gi ants</w>
dr ying</w>
ur gently</w>
ber nard</w>
pro xi
s wan
u ght</w>
cath oli
less ness</w>
c tic</w>
guaran te
scen ted</w>
inf ant</w>
spi ked</w>
sta ins</w>
wi zards</w>
d j</w>
ter rain</w>
hol t</w>
sh an</w>
respon ds</w>
pat rons</w>
ven der</w>
card board</w>
lor e</w>
mo tioning</w>
strea ms</w>
ha mmered</w>
ja xon</w>
tar yn</w>
smoo thing</w>
copy right</w>
le mon</w>
g loved</w>
bra den</w>
1 7
gigan tic</w>
resi dents</w>
la zily</w>
ha unting</w>
dar lin</w>
salu te</w>
st acy</w>
por k</w>
ma ss
initi ally</w>
ab b
19 9
re acting</w>
log ne</w>
re eling</w>
jer ks</w>
touri st</w>
expre ssed</w>
thor ough</w>
flu stered</w>
pr o</w>
ww w.
mac con</w>
crou ch</w>
se ctions</w>
sincer ely</w>
wheel chair</w>
seph renia</w>
intri cate</w>
dest ined</w>
echo es</w>
inno cently</w>
some thin</w>
smol dering</w>
lo ser</w>
execu ted</w>
yaw n</w>
crimin als</w>
sail ors</w>
clar a</w>
mainten ance</w>
as ser
pre occupied</w>
still ness</w>
bo do</w>
pro mo
honey moon</w>
proxi mity</w>
preven ted</w>
gho stly</w>
a er
ski dded</w>
sla sh</w>
a ded</w>
pu rely</w>
radi ating</w>
lu min
brai th</w>
emb ro
app a
pe tals</w>
tri m</w>
pur red</w>
lu ca</w>
br ina</w>
respect ful</w>
foo led</w>
ev alu
o o</w>
idi ots</w>
0 0
fire works</w>
stur dy</w>
fri es</w>
mar king</w>
in tui
poe try</w>
sick ening</w>
te ens</w>
b list
fa ye</w>
mp ered</w>
chil dish</w>
transpar ent</w>
reali se</w>
dar ies</w>
s by</w>
se mester</w>
kn it</w>
lo cals</w>
he ating</w>
spi ders</w>
g i</w>
p om
br acing</w>
bul b</w>
door step</w>
ter ies</w>
nu zzled</w>
ci ously</w>
to x
gr y
colle ctive</w>
mi ri
z able</w>
mi xing</w>
da is</w>
ui shed</w>
gi ddy</w>
ph ine</w>
ro ver</w>
ar ity</w>
det ached</w>
do ts</w>
sal on</w>
fil tered</w>
yl en</w>
pan cakes</w>
horri bly</w>
stri ctly</w>
sc roll</w>
run ner</w>
l ars</w>
and re</w>
pro jects</w>
pun ches</w>
t ments</w>
la vender</w>
bo b
stagg ering</w>
foo ting</w>
er ra</w>
ri sky</w>
m ant</w>
materi als</w>
shea thed</w>
europe an</w>
cl int</w>
min t</w>
by ron</w>
ter esa</w>
j in</w>
ll is</w>
cr ates</w>
d owned</w>
le veled</w>
breath lessly</w>
eri ly</w>
pro fit</w>
con stan
medi cation</w>
obli ged</w>
for mu
straw berry</w>
robo ts</w>
dig ital</w>
hei ghts</w>
che f</w>
do cks</w>
ri k</w>
ma ia</w>
stal ker</w>
thick er</w>
ame lie</w>
per forming</w>
web site</w>
encoura gement</w>
ha bits</w>
ar mies</w>
sal ty</w>
baf fled</w>
re ece</w>
gunsl inger</w>
t our
ge ons</w>
steph an</w>
inher ited</w>
di sta
no isy</w>
maneu ver</w>
cock pit</w>
we tness</w>
g om
ken ds</w>
ari sto
prepar ation</w>
re jection</w>
thi eves</w>
contemp lated</w>
o y</w>
sincer ity</w>
ma am</w>
squ ared</w>
bre w</w>
e h
bri a</w>
boun daries</w>
expen se</w>
flo or
gan sey</w>
spi ed</w>
embe dded</w>
horri fic</w>
swi pe</w>
fun ds</w>
mer it</w>
sky ler</w>
liber ty</w>
op ini
swir l</w>
sign als</w>
incredul ous</w>
every day</w>
bene fits</w>
wh ine</w>
depen ded</w>
engul fed</w>
hoo ves</w>
shi elded</w>
ba thro
lor i</w>
mu zzle</w>
de v</w>
cor in
communi cations</w>
tun ed</w>
van tage</w>
ss ful</w>
dra ft</w>
br an</w>
spi kes</w>
ex u
re actions</w>
wid ely</w>
cen tered</w>
ci ans</w>
sn ack</w>
volunte er</w>
ab y
of frey</w>
parall el</w>
magne tic</w>
cru el
dis solved</w>
ha ts</w>
indu stry</w>
mer lin</w>
b ic</w>
hor ace</w>
l acy</w>
festi val</w>
hair y</w>
lou ie</w>
un done</w>
pill ar</w>
lo gs</w>
sho vel</w>
mi llen
pi l
gu idance</w>
mada m</w>
hu go</w>
sne er</w>
mas sage</w>
co logne</w>
mini ature</w>
in der</w>
ting led</w>
necessi ty</w>
a partments</w>
out skirts</w>
wit ch
de ed</w>
imagin ary</w>
in n
une ven</w>
k la
to a
sla ms</w>
s ings</w>
galax y</w>
cap es</w>
mir acul
pen thouse</w>
re t</w>
reli able</w>
boo med</w>
atlan ta</w>
c 'm</w>
bi scu
mini mum</w>
ri ta</w>
che ering</w>
ex cruci
l acking</w>
defini tion</w>
il yn</w>
h en</w>
pre serve</w>
whir ling</w>
phen om
ch et</w>
collar bone</w>
gl en
experim ents</w>
libr arian</w>
v ating</w>
fa erie</w>
ru b
frequ ent</w>
battle field</w>
monit ors</w>
stro ll</w>
gri ll</w>
val ry</w>
absor b</w>
conce ded</w>
jo celyn</w>
low ers</w>
righ te
indi gn
cre st</w>
contemp lating</w>
she en</w>
f rail</w>
pa ins</w>
ty rion</w>
ess entially</w>
barbar a</w>
loo sen</w>
tru thfully</w>
cal end
dis like</w>
tt i</w>
pe ter
co s</w>
tri o</w>
ab a
sp ade</w>
hall ways</w>
quick ened</w>
ta ke
inten tionally</w>
willi ams</w>
cro aked</w>
no ses</w>
compul sion</w>
stupi dity</w>
i v</w>
snea kers</w>
ner ship</w>
ignor ant</w>
tin ted</w>
incredul ously</w>
po ta
sta mped</w>
fi shed</w>
du bi
mon strous</w>
pro posed</w>
chi ck
p ant</w>
so b
en closed</w>
pro secu
ne west</w>
mon roe</w>
anony mous</w>
c ani
renew ed</w>
dimen sion</w>
ki tty</w>
aly ssa</w>
pu l</w>
un wanted</w>
di so
wei ghing</w>
clo thed</w>
ac coun
legi ti
fing ered</w>
tan ks</w>
hatt an</w>
see ping</w>
har low</w>
cro ok</w>
un do</w>
announ ce</w>
19 7
glimp sed</w>
po ppy</w>
clari ssa</w>
ex cused</w>
t asks</w>
arri ves</w>
consi sted</w>
lo an</w>
pop corn</w>
wi ts</w>
ron nie</w>
bu bbling</w>
pri mal</w>
cr ate</w>
enthusia stic</w>
cat e
shr ink</w>
l on</w>
sn agged</w>
ca pi
spark le</w>
st ical</w>
dani els</w>
emer ging</w>
cathedr al</w>
wa vered</w>
de fle
outra ge</w>
ul ate</w>
ho stage</w>
disappro val</w>
aw fully</w>
or che
bow ls</w>
der i
boar ded</w>
qua ke</w>
im mortality</w>
x ton</w>
sna ked</w>
substan tial</w>
re stored</w>
gri ps</w>
sher idan</w>
blur ry</w>
sp ying</w>
fi es</w>
cryst als</w>
ur i</w>
ja w
ga sh</w>
mi sh</w>
agre eing</w>
restra int</w>
ela ine</w>
rand all</w>
tren ton</w>
sa di</w>
ff les</w>
hu mor
sophi sticated</w>
pr one</w>
af fir
gre y
wa tery</w>
ta x</w>
la ylen</w>
re ared</w>
hu ff</w>
th reads</w>
dol ph
jeri cho</w>
inva ded</w>
burea u</w>
savor ing</w>
arti ficial</w>
lin ks</w>
t ingly</w>
whi stling</w>
nar r
concer ning</w>
invol vement</w>
ver bal</w>
life style</w>
tri c</w>
un noticed</w>
primi tive</w>
di a
sil enced</w>
wre stling</w>
ho g
subdu ed</w>
fare well</w>
zach ary</w>
mu sh
mi mi
arti cles</w>
imp r
histor ical</w>
numb ered</w>
ny kyrian</w>
wee kends</w>
d ger</w>
ra el</w>
sp ies</w>
cron us</w>
ri cs</w>
ma il
lat in</w>
reali zes</w>
co yo
i si
sp uttered</w>
r ors</w>
slu t</w>
cra zed</w>
murmur ing</w>
p ening</w>
er rand</w>
ti me
ti ally</w>
ju dy</w>
har ri
my ra</w>
reassur ance</w>
om ing</w>
ca ver
ignor ance</w>
tattoo ed</w>
ver a</w>
ss al</w>
o int</w>
ear rings</w>
offen sive</w>
investig ating</w>
no el</w>
lo de
dark ly</w>
citi zen</w>
v as
execu tion</w>
pla ins</w>
crou ching</w>
mas ked</w>
gar den
p ines</w>
signific ance</w>
se ating</w>
sma shing</w>
ad ele</w>
exha le</w>
man kind</w>
apprehen sion</w>
insu lted</w>
men tor</w>
rober ts</w>
sy ll
ag gra
spla shing</w>
sp rung</w>
ba x</w>
ad ored</w>
read able</w>
sk et</w>
d els</w>
manipu late</w>
adequ ate</w>
: 30</w>
ain sley</w>
hou sed</w>
ort uni
lin e
li s
boo ze</w>
ka th
spla yed</w>
the st</w>
ben ches</w>
scol ded</w>
in con
pu ri
de xter</w>
ci de</w>
so l</w>
h or</w>
dan cers</w>
ri des</w>
d ome
o cks</w>
diso be
1 2
sha tter</w>
tri mmed</w>
explo sive</w>
bar bie</w>
b ats</w>
tw inge</w>
inf o</w>
kal ten</w>
st us</w>
l ys</w>
cra dle</w>
opp ortuni
d die</w>
sin clair</w>
ste ered</w>
stair way</w>
di te</w>
separ ating</w>
po em</w>
t attered</w>
sma sh</w>
bian ca</w>
fe aring</w>
ta m</w>
impro ve</w>
remo tely</w>
dis covering</w>
stre tches</w>
mo tive</w>
bu mping</w>
rele ases</w>
man hattan</w>
ther esa</w>
head board</w>
sub sided</w>
g at
mirr ored</w>
air plane</w>
ri mmed</w>
pa ds</w>
clear er</w>
co pe</w>
chi lls</w>
prote ctor</w>
exhi lar
qu in</w>
r ys</w>
ri ppling</w>
dar kest</w>
boun ty</w>
ser i
no tch</w>
fi ance</w>
ja el</w>
di mmed</w>
enz o</w>
deva stated</w>
nerv ousness</w>
ri pple</w>
her bs</w>
dir k</w>
mas ks</w>
par ch
or ia</w>
swi g</w>
pill ars</w>
fla kes</w>
mor e
cur t</w>
lili th</w>
at tire</w>
cy lin
per se
som ber</w>
angel o</w>
situ ated</w>
c l</w>
pro st
insist ent</w>
rememb ers</w>
paraly zed</w>
deal er</w>
cr ows</w>
f ever
or es</w>
mer cer</w>
bro ok</w>
twir led</w>
philoso phy</w>
am bush</w>
che at</w>
tane ous</w>
ou ted</w>
wrink les</w>
house keeper</w>
stu ffing</w>
snor ing</w>
man e</w>
ag nes</w>
fl an
v ate</w>
beth el</w>
spraw ling</w>
zz i</w>
travel s</w>
fran cis</w>
bry ce</w>
bro dy</w>
ball oon</w>
com mission</w>
brand t</w>
resu me</w>
sta kes</w>
kat y</w>
c ack
bon ds</w>
ob serving</w>
bren na</w>
cu ffed</w>
no ld</w>
lou </w>
agre es</w>
clo sure</w>
w it</w>
fro g</w>
ab les</w>
du mp
night gown</w>
fi ling</w>
confid ently</w>
spra yed</w>
hu mble</w>
c one</w>
mass ac
fla pping</w>
ki an</w>
intensi fied</w>
blin ds</w>
mar ker</w>
bo one</w>
we bs</w>
v ale</w>
bi llion</w>
squee zes</w>
ru shes</w>
perple xed</w>
over looked</w>
gi fted</w>
al ties</w>
tre mor</w>
se at
man ly</w>
har a</w>
in spected</w>
u ms</w>
oper a</w>
si ll</w>
grand son</w>
so c
foot age</w>
al ina</w>
sp ic
in quir
up coming</w>
cha tted</w>
du </w>
rema inder</w>
a mara</w>
inter section</w>
tr ack
com a</w>
tain ted</w>
consider ably</w>
where abouts</w>
char red</w>
ka thy</w>
ni bbled</w>
ba ker</w>
lat es</w>
remark ably</w>
sedu ce</w>
sha pe
wa kes</w>
vani sh</w>
bu </w>
d. c</w>
la den</w>
vi bration</w>
bri ghtness</w>
bre tt</w>
scrun ched</w>
po lly</w>
bio logical</w>
offici als</w>
scru b</w>
equi pped</w>
bar ak</w>
enhan ced</w>
he lli
mat eo</w>
fi cations</w>
va se</w>
si del
i mi
a to</w>
bo il</w>
wi ck</w>
disda in</w>
mai den</w>
oppo sed</w>
bloo m</w>
wi cke
ta unting</w>
doub tful</w>
inser ted</w>
silhou ette</w>
op ing</w>
hau ling</w>
tor ak</w>
holi days</w>
a sily</w>
go th</w>
the me</w>
emplo yed</w>
con stri
impro ved</w>
a bun
vi lla</w>
men ting</w>
discipl ine</w>
ter race</w>
ple ts</w>
oo oo
bet a</w>
hand cuffs</w>
in appropriate</w>
app les</w>
hor de</w>
lea der
fer ry</w>
tch y</w>
ta min
kil ome
skele ton</w>
un steady</w>
ho se</w>
car ni
to ed</w>
vir tu
plun ging</w>
soc cer</w>
shi elding</w>
boo bs</w>
re warded</w>
uncontroll ably</w>
nat asha</w>
bin o
inten ding</w>
sc aring</w>
at er
de signs</w>
thro b</w>
chur ned</w>
kidna pping</w>
lu m</w>
ke ira</w>
hu mi
industri al</w>
ste er</w>
in stalled</w>
gra ves</w>
ris king</w>
ess ential</w>
t ack</w>
pa stor</w>
h m</w>
cha ttering</w>
consi st
squir m</w>
exclu sive</w>
no vels</w>
sha ck</w>
o ck</w>
we ep</w>
we ar
deni m</w>
imp ending</w>
stry ker</w>
consu me</w>
je ez</w>
strai ghter</w>
mar ian</w>
l ens</w>
cap tains</w>
gl en</w>
even ings</w>
chan deli
grocer ies</w>
a y
ador ned</w>
contin ent</w>
ca ller</w>
z ona</w>
wa tering</w>
ll u
no va</w>
disagre e</w>
crun ch</w>
scoo p</w>
se ctor</w>
k as</w>
skep tical</w>
cab ly</w>
dri p</w>
revolu tion</w>
drag on
gli de</w>
f ry</w>
imprison ed</w>
morti mer</w>
ribb ons</w>
sur geon</w>
to ll</w>
sapp hire</w>
ne cks</w>
cla yton</w>
enter pri
se dan</w>
di c</w>
in cen
plu sh</w>
un fa
te ar
sti ble</w>
une asily</w>
appoin ted</w>
gr it</w>
ari el</w>
sli ver</w>
ri pe</w>
requi res</w>
gun shot</w>
exten d</w>
embro i
w right</w>
no tor
legi on</w>
k re
kne el</w>
a spir
comfor ted</w>
predi cted</w>
ter en</w>
chel sea</w>
s warm</w>
penetr ated</w>
fu se</w>
star ved</w>
cru iser</w>
dr on</w>
a ha</w>
vic inity</w>
y the</w>
gr unts</w>
asp halt</w>
sur f</w>
fl ouri
le c
domin ant</w>
j abbed</w>
mar ines</w>
su f
twink ling</w>
hau k</w>
hoo ks</w>
resen tment</w>
stit ches</w>
boul ders</w>
k el</w>
ko wal
la ine</w>
sin ks</w>
gra in</w>
de ton
infin ite</w>
mischiev ous</w>
momen tary</w>
ti dy</w>
ni pped</w>
comfor ter</w>
me ti
investig ator</w>
ten t
opini ons</w>
resig nation</w>
stri ps</w>
op h</w>
rebe llion</w>
w and</w>
loth aire</w>
te gan</w>
v ans</w>
dish ev
execu tive</w>
expan ded</w>
f right</w>
we dged</w>
be es</w>
mo ck
p led</w>
empha sis</w>
bri e
re di
tab </w>
bar be
purpo sely</w>
ha ss
o logy</w>
down right</w>
effor tlessly</w>
van a</w>
tu mble</w>
trigg ered</w>
bar ren</w>
labor atory</w>
per mitted</w>
tra ded</w>
reason ably</w>
bre nt</w>
bor e
du cking</w>
no x
fu mbling</w>
a ph
cu t
inha ling</w>
wil derness</w>
condu ct</w>
gl inted</w>
po pe</w>
na lly</w>
cla p</w>
me da
bo bbing</w>
non cha
on aire</w>
susp en
ul f</w>
deb bie</w>
fal con</w>
soli tary</w>
tar ge
li sm</w>
y ach
posi tively</w>
stea died</w>
introdu ction</w>
ridicul ously</w>
si zes</w>
gli mmer</w>
amaz ingly</w>
19 6
abra ham</w>
dep end</w>
an t
pean ut</w>
vin a</w>
ti pping</w>
bino culars</w>
ra mi
invol ving</w>
ma dly</w>
sub conscious</w>
mechani sm</w>
na iled</w>
co ve</w>
wai led</w>
e book</w>
calend ar</w>
ho pping</w>
sever ely</w>
desc end</w>
au burn</w>
se ssions</w>
stu ttered</w>
tion er</w>
s lot</w>
crea k</w>
chan ting</w>
hel m</w>
bryn na</w>
ba il</w>
ari zona</w>
syl vie</w>
sen ess</w>
cha u
chi lling</w>
grea se</w>
ex am</w>
da ze</w>
par ag
con ve
photogra pher</w>
spor ting</w>
plan ting</w>
fla vor</w>
sid he</w>
metho ds</w>
sa mples</w>
bri sk</w>
vill ages</w>
mb ur
mer chant</w>
bon us</w>
war ner</w>
hu e</w>
di mples</w>
bare foot</w>
the ories</w>
tra ding</w>
scho lar
scri ption</w>
peri ph
refu ge</w>
mar y
pota to</w>
sle eved</w>
di ane</w>
accu sing</w>
hi ke</w>
ron ia</w>
fri gid</w>
2 7</w>
mai ds</w>
passage way</w>
blu ff</w>
bas in</w>
quen tin</w>
o ch</w>
pro dded</w>
li ons</w>
sl ab</w>
z ac</w>
fli ghts</w>
ri ot</w>
batt ling</w>
da tions</w>
shri eking</w>
di re</w>
win ks</w>
da ss</w>
g ina</w>
w rea
luci us</w>
an alysis</w>
suz anne</w>
shoul dered</w>
ty ping</w>
ta ps</w>
terror ist</w>
ir on
soph ronia</w>
compla int</w>
g ps</w>
ger many</w>
bab y
wa il</w>
c ows</w>
ath on</w>
f es</w>
pun ctu
ph oned</w>
pi geon</w>
llo yd</w>
elev ators</w>
in come</w>
en raged</w>
f i</w>
j acks</w>
leon ard</w>
for giving</w>
1 1
al ter</w>
b yes</w>
in spect</w>
han gar</w>
asse ssment</w>
cate gor
umbre lla</w>
un readable</w>
the at
achi eved</w>
we ston</w>
ol a</w>
color ado</w>
some ones</w>
car to
ambassa dor</w>
vacu um</w>
quin lan</w>
ja zz</w>
un moving</w>
ho stess</w>
cere al</w>
cami lle</w>
psy cho</w>
lar ity</w>
at a</w>
men s</w>
new t</w>
drea ded</w>
tru dged</w>
ro me
fav ouri
blin ks</w>
inha bit
i b
gur g
roy ce</w>
addi ction</w>
d .</w>
gau ge</w>
ing redi
wri thed</w>
trau ma</w>
enfor cement</w>
disin te
fli rt</w>
o e</w>
ja me
fl ur
cat alo
er nie</w>
mu stache</w>
conspir acy</w>
cau l
ha il</w>
si mi</w>
tri cky</w>
gr ind</w>
pp i</w>
divor ced</w>
enjo yment</w>
langu ages</w>
mag ing</w>
h on</w>
j ed</w>
p ens</w>
di ck
se i</w>
scree ching</w>
pat ro
breath taking</w>
tacti cs</w>
o sa
an i</w>
gen evi
where as</w>
reapp eared</w>
chann els</w>
flaw less</w>
afri can</w>
per cep
tici sm</w>
ro ck
ce ase</w>
boo ked</w>
ru ining</w>
ja yne</w>
ma thias</w>
hea venly</w>
sh yly</w>
rest room</w>
der ick</w>
prin ces</w>
ke ttle</w>
un buttoned</w>
collap sing</w>
fa thom</w>
e sses</w>
lo cations</w>
arm chair</w>
proto col</w>
ha unt</w>
lef to
nic er</w>
dea f</w>
defi ance</w>
terr ori
den tal</w>
wei gh</w>
ta ped</w>
ce ments</w>
engine ering</w>
tra ps</w>
ha le</w>
k ent</w>
qui zz
cun ning</w>
i li
soo kie</w>
ar k</w>
leader ship</w>
plu g</w>
w y</w>
supre me</w>
phan tom</w>
rene e</w>
quo te</w>
brea thes</w>
jo g</w>
rea h</w>
appro xi
s ling</w>
girl friends</w>
colli ded</w>
wren ching</w>
obli vi
ar ose</w>
sol ving</w>
jo gging</w>
a eron</w>
wa ger</w>
face book</w>
to bac
c ents</w>
hea th</w>
cra mmed</w>
d ingly</w>
transl ated</w>
god damned</w>
bri ggs</w>
val kyrie</w>
sa ted</w>
irri tating</w>
re serve</w>
bloo died</w>
ron in</w>
responsi bilities</w>
ske tch</w>
tor i</w>
cle ars</w>
bu dd
supp lied</w>
mo cked</w>
wa vy</w>
grave yard</w>
du ffel</w>
re placing</w>
mon u
wall ace</w>
ba iley</w>
relie ve</w>
quie ted</w>
o h
pe as
fl anked</w>
htt p</w>
enter tain</w>
yel ped</w>
regre ts</w>
stri pping</w>
over all</w>
mon ty</w>
do dging</w>
produ cts</w>
fore finger</w>
ta pe
acti vated</w>
ma e
th o</w>
kee pers</w>
p out</w>
court room</w>
genevi eve</w>
si zing</w>
ach ment</w>
mck ay</w>
cir cus</w>
cro p</w>
sta dium</w>
nu de</w>
el dest</w>
fin ch</w>
tendri ls</w>
oo m</w>
any how</w>
ke ely</w>
mor g
enthusia stically</w>
flo ck</w>
er u
comm end</w>
hoar sely</w>
vi g
ro ast</w>
finger tip</w>
ti mo
poor ly</w>
adven tures</w>
sk ins</w>
examin ation</w>
in capable</w>
ma ine</w>
igni ted</w>
rebe ls</w>
re fra
k le
sham poo</w>
out burst</w>
ski pping</w>
sli ppers</w>
oly mp
psychi atri
the ast</w>
lo ck
da x</w>
quie ter</w>
her it
m ele
en ters</w>
ra h</w>
to ppled</w>
angel ine</w>
mesmer ized</w>
cal culated</w>
dom en
ca mou
associ ate</w>
ten s</w>
wh ining</w>
fi li
w inged</w>
e i</w>
st ings</w>
scar es</w>
ki mber</w>
he dge</w>
ko ta</w>
know ingly</w>
hormon es</w>
reluc tance</w>
mach in
vani lla</w>
tru m</w>
p ony</w>
supp ress</w>
camou fla
2 6</w>
fl ated</w>
reg in
pi a</w>
sol ely</w>
ca f</w>
domin ated</w>
do o</w>
sor ting</w>
shre dded</w>
ck age</w>
russi a</w>
pla ster</w>
er ica</w>
chi ef
hy bri
sp ins</w>
expl ored</w>
po les</w>
cl an
c tory</w>
si er</w>
smir king</w>
all ows</w>
un zipped</w>
kowal ski</w>
meas ures</w>
v ows</w>
su spects</w>
tex ting</w>
jan ice</w>
arch way</w>
g ale</w>
trave lling</w>
andre ws</w>
re public</w>
jeff erson</w>
plun ge</w>
ir rational</w>
pro pose</w>
swi veled</w>
win ner</w>
ba u
pit cher</w>
sig ning</w>
acquain tance</w>
li me</w>
ev acu
pro minent</w>
tier ney</w>
en ca
fe at
ba k
wre tched</w>
noti ces</w>
de clined</w>
ch arms</w>
ir resi
assu mption</w>
grea ves</w>
herit age</w>
a dam
re placement</w>
b angs</w>
beatri ce</w>
ful fill</w>
scree ch</w>
thera pist</w>
imp lied</w>
sele ction</w>
disp er
pu ffy</w>
box er</w>
arr anging</w>
sp lattered</w>
tobac co</w>
kur t</w>
dra pes</w>
recogni zing</w>
gra des</w>
gra phic</w>
confin ed</w>
civili an</w>
re union</w>
crea my</w>
mo il</w>
prepar ations</w>
asse mbly</w>
ana sta
cross bow</w>
catholi c</w>
gl ares</w>
bloo ded</w>
fra gments</w>
t ari
le ver</w>
ss ors</w>
tri pping</w>
fe bru
stu pidly</w>
edi tor</w>
dis connected</w>
id le</w>
ver se</w>
ma uri
da sh
la tive</w>
unlea shed</w>
chi m
power less</w>
sa mmy</w>
y '</w>
resi sting</w>
under water</w>
domen ico</w>
char t</w>
wat ered</w>
cy cles</w>
fu tile</w>
thun dered</w>
scra mble</w>
ru th
mun dane</w>
re tire
h ounds</w>
vir gil</w>
in sight</w>
inven ted</w>
gru ff
ra spy</w>
opp re
pa d
sa ils</w>
soun d
inter com</w>
ca d
gi g</w>
le ver
de pic
br ink</w>
grate fully</w>
ta ker</w>
vill agers</w>
ki er
blu es</w>
explo sions</w>
slo ppy</w>
dy na
la sting</w>
febru ary</w>
di llon</w>
bi l</w>
g listened</w>
sick ly</w>
tor ies</w>
cin na
tur moil</w>
amoun ts</w>
com bed</w>
orig in</w>
pa thy</w>
ti l</w>
glo bal</w>
fav ors</w>
no i
invest ment</w>
to l</w>
ki ll
indi ans</w>
protru ding</w>
a ki
car rot</w>
gra y
r ough
athle tic</w>
la ys</w>
parch ment</w>
st el</w>
fe ature</w>
cour ts</w>
corin ne</w>
no va
e gyp
rea dily</w>
fu ls</w>
desp ised</w>
p p</w>
re vo
than king</w>
priv ately</w>
mour ning</w>
the tically</w>
sali va</w>
g in
involun tarily</w>
murder ous</w>
hi king</w>
se mi
con vent</w>
sla de</w>
coo lly</w>
grand daughter</w>
com promise</w>
meaning less</w>
ea ves
contra di
le ys</w>
be st
ter ra</w>
de stru
per mit</w>
mo tives</w>
whi t
por cel
bu ster</w>
re tali
org ans</w>
l ent</w>
wa s
se clu
hoo king</w>
sail or</w>
ank a</w>
n elson</w>
cinna mon</w>
sta tioned</w>
ste ll
sor y</w>
tre ats</w>
sheepi shly</w>
techni que</w>
mi ckey</w>
za yne</w>
o tt</w>
bo a
fri ghten</w>
dete ctives</w>
bob bie</w>
thre n</w>
pe el</w>
sen su
exten sive</w>
com pass</w>
gri mac
pan try</w>
roa ming</w>
sof ten</w>
ca mping</w>
bra tions</w>
shepher d</w>
disapp oint</w>
pp ings</w>
un covered</w>
compani on
slan ted</w>
ru st</w>
a king</w>
e erily</w>
dd ler</w>
hou sing</w>
equi valent</w>
pan els</w>
ne cro
v u
scri bbled</w>
o val</w>
ere ct</w>
l .a</w>
vulner ability</w>
bear ded</w>
far mers</w>
li se</w>
assaul ted</w>
squat ted</w>
intoxic ating</w>
thra shing</w>
tro lls</w>
every ones</w>
wi red</w>
mo ore</w>
g abby</w>
en try
sett les</w>
porcel ain</w>
le tt
car din
de ke</w>
v ous</w>
aval on</w>
ch ev
oblivi on</w>
inev it
arti sts</w>
bra in
develop ing</w>
deli vering</w>
she ila</w>
fra mes</w>
kan sas</w>
physi cs</w>
gr ounded</w>
l aces</w>
ting ed</w>
so ak</w>
so ck</w>
bud get</w>
lli ver</w>
preci sion</w>
y enne</w>
compe tent</w>
ta unted</w>
mo ses</w>
amp li
im mortals</w>
ro ssed</w>
cur ing</w>
complex ion</w>
can al</w>
un deni
ten ess</w>
i m</w>
gargo yle</w>
hon orable</w>
ram sey</w>
cyn thia</w>
pe t
y uri</w>
re present</w>
smir ks</w>
har dness</w>
foo li
g lee</w>
aver ted</w>
ro am</w>
tre k</w>
go sh</w>
run e</w>
intimid ated</w>
s so</w>
b ick
e tt</w>
ti ago</w>
op ar
wa d</w>
sever ance</w>
por tions</w>
el end</w>
at tribu
d' ar
un a</w>
val en
pe aks</w>
da zzling</w>
favouri te</w>
un settling</w>
qu ila</w>
u re
bla sting</w>
fru strating</w>
ro bbed</w>
ar mored</w>
k .</w>
ba dass</w>
har as
ha mp
cke ted</w>
dg ingly</w>
gar lic</w>
fig ur
te quila</w>
flu te</w>
sp l
cr inge</w>
wi pes</w>
crun ching</w>
deli a</w>
2 8</w>
ken zie</w>
fre ckles</w>
t len
swa llows</w>
po tion</w>
sub mi
bou quet</w>
re calling</w>
quali fied</w>
o tto</w>
hon our</w>
to sses</w>
car a
bul ge</w>
roa med</w>
un usually</w>
micha els</w>
hea dy</w>
mor t
mo dels</w>
ra gs</w>
re my</w>
van ity</w>
dee med</w>
wan da</w>
lli ed</w>
2 9</w>
by l</w>
spe lled</w>
engine er</w>
ha vi
in expli
see ds</w>
circu it</w>
defen sively</w>
m ness</w>
th rea
go ver</w>
fac ade</w>
year ning</w>
ex posure</w>
min es</w>
luxuri ous</w>
bon ded</w>
bb s</w>
fi tz
gr ating</w>
sk in
cooper ate</w>
ve ter
ji llian</w>
chor es</w>
manu el</w>
zo o</w>
du sted</w>
gra vely</w>
tri ple</w>
excruci ating</w>
can ada</w>
sh rou
bre ach</w>
threa ded</w>
broo ding</w>
mor on</w>
sei chan</w>
so ared</w>
sexu ally</w>
pre car
legen ds</w>
pra x</w>
er ased</w>
je opar
lat or</w>
v la
qu ic
lar k</w>
deva stating</w>
ca ster</w>
quir ked</w>
quil t</w>
ali cia</w>
len ses</w>
all an</w>
materi alized</w>
illumin ating</w>
poten tially</w>
cruel ty</w>
blun tly</w>
lind sey</w>
refle ct</w>
diag no
sm acking</w>
ani a</w>
vi su
al bum</w>
f lips</w>
spr int</w>
oc ta
dire cting</w>
fore sts</w>
en dea
mag es</w>
dr y
ly ssa</w>
dela yed</w>
an nu
fe st</w>
j e</w>
an ic</w>
fla iling</w>
sol om
au ction</w>
dri ck</w>
roo ted</w>
swoo ped</w>
tat um</w>
for ged</w>
ne s
whi tes</w>
scen ery</w>
ac res</w>
fo il</w>
be acon</w>
o i</w>
phenom en
da ir</w>
pow ering</w>
sc outs</w>
stu mp</w>
jo anna</w>
twink le</w>
quar ter
thir ties</w>
wal kers</w>
crea king</w>
che sts</w>
ste m</w>
attack ers</w>
br at</w>
anim ated</w>
ll es</w>
ep ic</w>
busin esses</w>
gla ssy</w>
sie ur</w>
entry way</w>
r ack
bry son</w>
mu mble</w>
retire ment</w>
sp ri
de vin</w>
corn ered</w>
prote sts</w>
strugg les</w>
hand writing</w>
sil ken</w>
farm house</w>
li mped</w>
di cally</w>
ti ckling</w>
tri angle</w>
melan cho
reason ed</w>
sa vi
penetr ating</w>
re store</w>
body guards</w>
ra u
pa ys</w>
u ts</w>
vigor ously</w>
in fil
maneu vered</w>
fl ow
min dless</w>
piti ful</w>
deme tri</w>
vin ci
swe aring</w>
salv ation</w>
de als</w>
gr un
plu gged</w>
gl inting</w>
thr on
lun atic</w>
ro sy</w>
dang ers</w>
r ane</w>
din a</w>
de pressing</w>
disori ented</w>
tor turing</w>
tran sition</w>
ha un
wer es</w>
for ti
je lly</w>
pre acher</w>
pren tice</w>
over grown</w>
obsc ured</w>
alter n
mischi ef</w>
meaning ful</w>
h ence</w>
labe led</w>
aw ed</w>
sacrific ed</w>
sha ggy</w>
mo ons</w>
devo tion</w>
loa ds</w>
vivi enne</w>
ra mmed</w>
sha ven</w>
estab lish</w>
sequ ence</w>
chri ssy</w>
rhe tt</w>
sp ire</w>
br ed</w>
free zer</w>
jo se</w>
new com
schol ar</w>
elephan t</w>
plu mme
d ely</w>
ad jac
all ey
tom as</w>
m ous
ar ca
s con
har mony</w>
k on
hor ny</w>
se fully</w>
conclu sions</w>
squ at</w>
gar ment</w>
lan tly</w>
sha ke
a midst</w>
ge ars</w>
3 2</w>
ar cha
d at</w>
ado lin</w>
hard wood</w>
mont gom
king doms</w>
dis rup
sco t
ve ted</w>
go als</w>
ma scar
na ment</w>
paran or
sp ar</w>
flar ing</w>
hy de</w>
discre et</w>
ki l</w>
bu bbled</w>
si erra</w>
al be
s th
or deal</w>
adjac ent</w>
tu gs</w>
ne aring</w>
miri am</w>
me ow</w>
cur t
st ony</w>
evo lu
por ter</w>
san tiago</w>
re marks</w>
li tter</w>
g room</w>
alco ve</w>
stan g</w>
mar ke
miser ably</w>
corpor ation</w>
amb rose</w>
can oe</w>
emplo yer</w>
gyp sy</w>
jac ques</w>
em mie</w>
hoi sted</w>
r ated</w>
for th
ru stle</w>
counsel or</w>
ru mpled</w>
do lls</w>
scat tering</w>
menti oning</w>
dev oured</w>
def ended</w>
sp u
da k</w>
hot els</w>
fu </w>
ro ke</w>
mon sieur</w>
r anger</w>
un did</w>
be in</w>
civili zed</w>
ka ss</w>
tin k
resur re
char coal</w>
squir ming</w>
so s</w>
je wish</w>
lun ch
tur n
la ds</w>
trave lled</w>
lea king</w>
sett lement</w>
c eless</w>
st ick
ac tors</w>
li cks</w>
sla yer</w>
ri val</w>
nu m</w>
g ab
wa sher</w>
boo ming</w>
dishev eled</w>
spo il</w>
under statement</w>
c et</w>
bul ky</w>
opportuni ties</w>
un e</w>
ste ely</w>
pon der</w>
ari anna</w>
or bit</w>
advi se</w>
en ting</w>
tack le</w>
wre ckage</w>
alex a</w>
dr one</w>
nee dy</w>
su llen</w>
al ds</w>
ri l</w>
disp u
foot prints</w>
bur ke</w>
medi cs</w>
tor na
fur ry</w>
po dium</w>
o le
3 5</w>
pe ach</w>
penetr ate</w>
se ared</w>
j ur
bi kes</w>
paci fic</w>
bor ders</w>
rever sed</w>
radi ant</w>
fan ned</w>
ly rics</w>
bi li
car men</w>
pi cally</w>
mor y</w>
cont orted</w>
pursu ing</w>
bott oms</w>
loo ped</w>
sha un</w>
en su
notice able</w>
ser y</w>
per ch</w>
privile ge</w>
har vest</w>
gruff ly</w>
gg in</w>
celebr ating</w>
chal k</w>
gra zing</w>
e de</w>
sp a</w>
pla id</w>
a e</w>
hu inn</w>
persi sted</w>
sh ma
ab bot</w>
sugge sts</w>
reco iled</w>
1 6
wag ons</w>
sku lls</w>
o ons</w>
cour sing</w>
mi ssions</w>
moun ting</w>
sel ed</w>
ti lts</w>
gla mour</w>
custom s</w>
pat s</w>
dun no</w>
ce y</w>
y on</w>
ar nold</w>
gra ssy</w>
missi le</w>
clean er</w>
celebri ty</w>
di ll</w>
bre t</w>
re solu
lei surely</w>
esc or
whir l
wai ling</w>
cru mbled</w>
deb ated</w>
but cher</w>
t anya</w>
an as</w>
dro plets</w>
cor ra
scru tin
shir ley</w>
famili arity</w>
win s</w>
r ang
t down</w>
ga unt</w>
isa iah</w>
syr inge</w>
mascar a</w>
un predictable</w>
radi ation</w>
bu ds</w>
q huinn</w>
coo ling</w>
lea ked</w>
accommo date</w>
pro bing</w>
cri cket</w>
it als</w>
sh in</w>
tur ous</w>
san der</w>
a sian</w>
bag gage</w>
po sters</w>
albe it</w>
p able</w>
amm uni
ka i
un certainly</w>
agoni zing</w>
er ia</w>
pe ters</w>
anasta sia</w>
kar ou</w>
swee test</w>
christ ine</w>
suggesti ons</w>
pro claimed</w>
who lly</w>
sa p</w>
go b
ben ds</w>
bun ched</w>
leg acy</w>
dar n</w>
pursu ed</w>
ten th</w>
distin ctly</w>
che yenne</w>
brother hood</w>
unner ving</w>
pri ed</w>
up date</w>
nox ious</w>
pu mps</w>
edu cated</w>
li ghten</w>
sub sequ
ga ius</w>
swi tching</w>
oper ate</w>
gar ments</w>
e w</w>
stra ddling</w>
cha ll
str al</w>
z ander</w>
i en</w>
yo ga</w>
wren ch</w>
alco holi
bu lly</w>
presen tation</w>
nur sery</w>
amu s</w>
wor ms</w>
dom ain</w>
senten ces</w>
cre ed</w>
cour sed</w>
ammuni tion</w>
stan ts</w>
work out</w>
watch ful</w>
mi ll
ma hog
gre ens</w>
bla ine</w>
easi est</w>
ser ene</w>
to lliver</w>
la va</w>
mahog any</w>
enti tled</w>
cal ves</w>
appear ances</w>
loo k
mu mbling</w>
ch s</w>
ck ered</w>
mali k</w>
o d</w>
gen es</w>
ne phili
slu mber</w>
ton i</w>
ha sty</w>
gobl in</w>
ha ck</w>
establi shment</w>
cor bin</w>
cu m</w>
pi gs</w>
ob jected</w>
c lattered</w>
stac ey</w>
ra sh</w>
cor r
be ep</w>
stan ley</w>
sp hin
ci e</w>
tren ch</w>
ema ils</w>
advan cing</w>
ga mbling</w>
h el</w>
arti facts</w>
bachel or</w>
ed win</w>
mag ni
sa tch
shi mmer</w>
di sli
demon ic</w>
main taining</w>
intri guing</w>
in er
er ous</w>
coun ci
irresi stible</w>
sei ze</w>
n ys</w>
im posing</w>
hurri cane</w>
revol ver</w>
lay ton</w>
stom ping</w>
spect acle</w>
legiti mate</w>
myster ies</w>
d ential</w>
re pl
din osa
pu mp
solom on</w>
cre ws</w>
cha sti
recogni sed</w>
d th</w>
be tting</w>
proper ties</w>
mur ky</w>
ta mara</w>
devo id</w>
car n
d v
gg ers</w>
max well</w>
cu be</w>
hei ghtened</w>
hu m
ju lie
surve y</w>
e mbo
tor mented</w>
pa sta</w>
mol ten</w>
righte ous</w>
p o</w>
ma sses</w>
cin der</w>
c latter</w>
stru ctures</w>
s sa
sta lling</w>
mother fucker</w>
e mber</w>
u mm</w>
f fins</w>
al ta
fresh man</w>
org as
run way</w>
apologi zing</w>
kno cks</w>
sta in
th ad</w>
deli ghtful</w>
abu sed</w>
gre ed</w>
ear ning</w>
bra y</w>
ber tie</w>
nephili m</w>
poo led</w>
twir ling</w>
shr ank</w>
n om
sha man</w>
e ats</w>
c unt</w>
havi ly</w>
lab ored</w>
surr ound</w>
col o</w>
sheepi sh</w>
embarra ss</w>
hun gri
at ro
hill side</w>
un s</w>
i 'l</w>
secre cy</w>
dismi ss</w>
magi cally</w>
x ander</w>
func tioning</w>
virg inity</w>
for mid
bic y
si ssy</w>
elec tro
pe ers</w>
vin nie</w>
distor ted</w>
aler ted</w>
belie fs</w>
i ssa</w>
g ating</w>
confin es</w>
foli age</w>
al as
succe ssion</w>
merri ll</w>
d c</w>
manic ured</w>
shu ffle</w>
sp reads</w>
mi ami</w>
regin ald</w>
ad moni
imp as
a ding</w>
associ ation</w>
1 5
i i
ben son</w>
gli tter</w>
ri co</w>
rab id</w>
bri ttle</w>
si byl</w>
pic turing</w>
bow ling</w>
wea thered</w>
nol ds</w>
flur ry</w>
scholar ship</w>
n agging</w>
dani ka</w>
accor d</w>
condi tioning</w>
dizz iness</w>
broad cast</w>
tan a</w>
logi cally</w>
cow ar
zo ey</w>
re commend</w>
austra lia</w>
free ing</w>
ra f
le vet</w>
insu lting</w>
can cel</w>
gri d</w>
mil o</w>
ray mond</w>
pr ying</w>
or an</w>
hi r</w>
s nee
jacob s</w>
in dy</w>
ser pent</w>
ag an</w>
sur ging</w>
re conci
al cide</w>
super sti
te ful</w>
ty pically</w>
men ace</w>
ka h
wea ve</w>
sha m</w>
ba king</w>
min im
stubbor nly</w>
maxi mum</w>
appli cation</w>
ni p</w>
c lea
lever age</w>
off spring</w>
ha dley</w>
dev our</w>
sc rab
purpo sefully</w>
restra in</w>
flo ps</w>
ma eve</w>
eigh th</w>
re fin
pla za</w>
re ti
guarante ed</w>
th ane</w>
re tire</w>
con sent</w>
the ft</w>
c d</w>
clo ck
id al</w>
a mat
prote ctively</w>
kit ch
tit les</w>
ici ency</w>
re na</w>
j agu
ele ction</w>
jer emi
cr aned</w>
appro aches</w>
bro adly</w>
pi voted</w>
profe ssion</w>
dar la</w>
la pping</w>
sli ces</w>
mu lation</w>
im p</w>
pre s
rec tan
un stable</w>
persist ent</w>
angel ina</w>
acqua inted</w>
sen seless</w>
inspir ation</w>
hoo ds</w>
d ow
deu ce</w>
ra fa
perse phone</w>
tis m</w>
calcu lating</w>
ha mbur
j ab</w>
per t</w>
a o</w>
spot light</w>
barre ls</w>
ti se</w>
fl ann
predi ca
con serva
cl y
bore dom</w>
nu dge</w>
approxi mately</w>
wre cked</w>
sli ts</w>
disc ou
dis concer
ke e</w>
o la
rectan gular</w>
o t
whi ff</w>
tran slu
ful filled</w>
stu </w>
ju ven
g agged</w>
wom b</w>
wi sely</w>
a is
aby ss</w>
d wind
you t</w>
inti mi
meda llion</w>
const able</w>
cho p</w>
ma doc</w>
dispo sal</w>
candi date</w>
transpor ted</w>
ver tical</w>
ru sted</w>
deb ating</w>
formid able</w>
rela tions</w>
fri ction</w>
addi cted</w>
pa ste</w>
bu cked</w>
clo aked</w>
sa vor</w>
le sli
holl ered</w>
op ted</w>
cli cks</w>
sh rin
ni sh</w>
beha ved</w>
d ently</w>
ren dered</w>
in different</w>
we dge</w>
stra tions</w>
prin ce
bo o</w>
scor ched</w>
de ception</w>
corpor al</w>
tur tle</w>
ri chie</w>
ti ghtens</w>
clip board</w>
gl owered</w>
flu </w>
shu ts</w>
s ar</w>
recogni zable</w>
er ness</w>
vin e
ad dressing</w>
fe e</w>
pe ts</w>
ef ree</w>
posse ssions</w>
sa bo
gol d
con doms</w>
transpor tation</w>
inhabit ants</w>
oper ator</w>
expre ssion
in fan
chall eng
carpathi an</w>
to me</w>
car efree</w>
frequ ency</w>
de plo
tan gible</w>
o s
j ing
sedu ction</w>
expan ding</w>
pan e</w>
obje ctive</w>
sta mp</w>
o me</w>
ss en</w>
on o</w>
understand able</w>
spe cting</w>
pas sport</w>
sa brina</w>
go ggles</w>
o y
re en</w>
ce o</w>
an gular</w>
arti fact</w>
si ght
bri dges</w>
sta ll
timo thy</w>
ad dy</w>
du al</w>
han di
yl on</w>
ter ran
dear est</w>
bru te</w>
gener als</w>
pear ls</w>
gu tt
lor a</w>
physi cian</w>
splin tered</w>
dista ste</w>
gra dy</w>
week ly</w>
negle cted</w>
sla tion</w>
mo ld</w>
cor al</w>
vo iced</w>
exist ent</w>
mid day</w>
fi sher
sl ate</w>
af gh
sher ry</w>
tal ons</w>
out door</w>
conten tment</w>
boy friends</w>
appa lled</w>
sta lls</w>
try stan</w>
jac kets</w>
melancho ly</w>
vi sc
scru tiny</w>
mou th
medi c</w>
cra ppy</w>
iri ses</w>
requi re
crun ched</w>
ju an</w>
con co
cu bic
pe acefully</w>
d ab
cor y</w>
ear shot</w>
step father</w>
qu anti
betra ying</w>
garden er</w>
e sp
mc bride</w>
t read</w>
am el</w>
exp and</w>
de z
cu tter</w>
rum maged</w>
specu lation</w>
bri dget</w>
run es</w>
translu cent</w>
plat ter</w>
sho ves</w>
ken ton</w>
coo led</w>
chi seled</w>
k as
z il</w>
en visi
satch el</w>
al ma</w>
g ou
cr acy</w>
sur faced</w>
be linda</w>
candle light</w>
cu lar</w>
monit oring</w>
soli tude</w>
wa fted</w>
lar gely</w>
sla ps</w>
se amus</w>
bl ended</w>
sta llion</w>
pou ted</w>
erra tic</w>
sa ti
hon y</w>
sli thered</w>
like wise</w>
ore scent</w>
presu me</w>
a tively</w>
declar ation</w>
dome stic</w>
gloo my</w>
tt est</w>
out lined</w>
ran som</w>
clou dy</w>
expe dition</w>
techn ical</w>
r yn</w>
ru gged</w>
ti led</w>
tw are</w>
thin ned</w>
distur b
addi son</w>
leng ths</w>
mu stang</w>
acceler ated</w>
predica ment</w>
progra mmed</w>
rey nolds</w>
elimin ate</w>
ko dy</w>
s worth</w>
micro wave</w>
dar ts</w>
colle ague</w>
dash board</w>
massa ging</w>
red dish</w>
sub way</w>
hesit ating</w>
da un
hilar ious</w>
snow y</w>
oni cally</w>
i .
u u
drea my</w>
barri ers</w>
sni per</w>
di stru
enti ty</w>
cle men
appren tice</w>
hand les</w>
sub mit</w>
instru ction</w>
h inted</w>
sac rif
low est</w>
fa me</w>
ing o</w>
gro o
dev lin</w>
bre thren</w>
no thing
ba y
col oured</w>
out fits</w>
sh ments</w>
re servation</w>
brief s</w>
sta sh</w>
in coming</w>
feig ned</w>
eag erness</w>
enter tained</w>
mu gs</w>
whi sky</w>
k h
re vul
mul ated</w>
pri stine</w>
gr unting</w>
sa ber</w>
respe ctable</w>
ti ti
sa vag
ce il
sh an
gro te
vo y</w>
pi ke</w>
pal pable</w>
e ti
my ri
path ic</w>
flat tered</w>
mp h
scul pted</w>
sc ored</w>
ho spi
commi ssi
stra ddled</w>
l end</w>
harri et</w>
mul ti</w>
ten ding</w>
ca mps</w>
prie stess</w>
stri der</w>
pri cked</w>
por t
ll ec
triumphan t</w>
fini shes</w>
b room</w>
el in</w>
d able</w>
inter views</w>
symp toms</w>
gobl ins</w>
repor ting</w>
thick ly</w>
hi pp
del an
fe tched</w>
uni formed</w>
le op
itu de</w>
har lin</w>
im mo
sti fling</w>
lesli e</w>
en gra
alex ei</w>
revul sion</w>
pi lots</w>
bi a</w>
acade mic</w>
squir rel</w>
st one
apo caly
all er
ja yden</w>
glo ss</w>
deli ri
ta h</w>
lo vingly</w>
wi lly</w>
shake spe
ro ller</w>
s ms</w>
in ability</w>
unic orn</w>
bra ke</w>
i .</w>
cou ches</w>
fero cious</w>
b ank
disp laying</w>
f ours</w>
bar racks</w>
he ed</w>
thro ats</w>
ha wai
du cks</w>
meta ph
cor ds</w>
medi eval</w>
ic idal</w>
car ri
im mer
mi gra
apologe tically</w>
sl ou
fle xing</w>
h ints</w>
tro op
loo kin</w>
fu eled</w>
associ ates</w>
on i</w>
dom ini
mor ton</w>
separ ation</w>
p att
aggre ssion</w>
shar per</w>
continu ally</w>
stro lling</w>
tail ored</w>
car rier</w>
bl and</w>
demi se</w>
cara van</w>
of t</w>
cu le</w>
see thing</w>
yaw ning</w>
tri cked</w>
ca ges</w>
mi ssy</w>
yach t</w>
i ko</w>
sof tware</w>
sho ck
thom p
zi er</w>
with draw</w>
inte llec
al fred</w>
bu ri
hun ch</w>
cata stro
fo e</w>
k ol
deposi ted</w>
presen tly</w>
dis k</w>
instru ctor</w>
shoo ter</w>
hoo die</w>
cap ti
da shing</w>
re v
t ous
ves sels</w>
lo ki</w>
business man</w>
coun ten
treach erous</w>
char ley</w>
t as</w>
cho pper</w>
delan ey</w>
grena de</w>
ple ad</w>
fla sk</w>
joh ns</w>
she a</w>
emp a
per ceived</w>
bani shed</w>
zar ek</w>
ten dency</w>
slaugh tered</w>
bar n
jen kins</w>
s ariana</w>
disgui sed</w>
ac tress</w>
rafa el</w>
do gan</w>
refre shing</w>
mb ed</w>
flor al</w>
sele ct</w>
proce ssing</w>
fa des</w>
g ars</w>
bri elle</w>
sp acious</w>
ingredi ents</w>
bun ny</w>
ra tion
wob bled</w>
secu rely</w>
flann el</w>
gl y
ai slin</w>
so x</w>
f ates</w>
ele cted</w>
certi fic
vo cal</w>
mo p</w>
deci pher</w>
3 1</w>
pri celess</w>
class mates</w>
de du
dri k</w>
shel tered</w>
ear lobe</w>
hal o</w>
au x</w>
it lin</w>
ar t
un consciously</w>
ve he
ei gh</w>
un t
ss i</w>
tri bes</w>
state ments</w>
eye balls</w>
cam den</w>
ge ttin</w>
sub mission</w>
so aring</w>
judi th</w>
camp bell</w>
compli ments</w>
feli cia</w>
atten dance</w>
arch y</w>
a stron
be ige</w>
inva ding</w>
w d</w>
in o
bever ly</w>
fee ble</w>
disp en
cra ve</w>
re fer</w>
bul ged</w>
the on</w>
machin ery</w>
sci ssors</w>
se c</w>
mani pulated</w>
can a
be hold</w>
asp en</w>
mar tial</w>
faci lities</w>
at ers</w>
compe lling</w>
rome o</w>
bl aring</w>
ar ches</w>
li s</w>
sun ken</w>
fil ter</w>
ca thy</w>
life mate</w>
na tives</w>
stoo p</w>
thu gs</w>
memor ial</w>
my th
de pri
squ arely</w>
crack ers</w>
hor rors</w>
3 3</w>
bak ery</w>
spa gh
splen did</w>
th ong</w>
home coming</w>
a mar
tip toes</w>
ju tting</w>
oun t</w>
ju mp
ne ts</w>
con nie</w>
ra vine</w>
tex t
de fine</w>
bar red</w>
war nings</w>
k u</w>
en a
inter ference</w>
inspe cting</w>
pi ts</w>
ban ana</w>
mini ons</w>
de w</w>
a stri
gutt ural</w>
ro yalty</w>
tro pical</w>
cu lt</w>
plo tting</w>
travel ers</w>
min us</w>
ed gar</w>
auth enti
nu dging</w>
co ast
dumb founded</w>
cor ps</w>
gu shed</w>
wi ser</w>
under side</w>
des ks</w>
produ cing</w>
clari fied</w>
chan cell
co des</w>
bel ts</w>
justi fy</w>
v at</w>
consu l
stran gest</w>
kal i</w>
fi ance
evapor ated</w>
sti fle</w>
man tle</w>
snu g</w>
luc inda</w>
tow ered</w>
gi ll</w>
exten sion</w>
persua ded</w>
col dness</w>
massa ged</w>
fain test</w>
admi tt
fla pped</w>
ah an</w>
bel din</w>
ke en
coun tess</w>
mauri ce</w>
humili ated</w>
su specting</w>
asse ts</w>
cr ane</w>
scri bed</w>
it ching</w>
ordin arily</w>
g owns</w>
hi des</w>
sp ice</w>
win king</w>
play ground</w>
sh hh</w>
ali zing</w>
dee ds</w>
or ns</w>
je ws</w>
for bid</w>
er o</w>
ha bit
desi r
christ ina</w>
indepen dence</w>
amm o</w>
dis mounted</w>
plu ck</w>
tin o</w>
wal t</w>
p up</w>
ai de</w>
for mally</w>
cha sm</w>
contemp late</w>
e ments</w>
tran qui
bu mper</w>
so ckets</w>
surren dered</w>
anticip ating</w>
impli cations</w>
insu lts</w>
dr ow
senti ment</w>
car di
seri ousness</w>
compla ints</w>
reque sts</w>
e ste
alta ir</w>
unbeliev ably</w>
dro o
tan tali
reg in</w>
bi sh</w>
bri m</w>
heart ache</w>
shu tters</w>
belon ging</w>
cat es</w>
shre ds</w>
pat ty</w>
je an
identi fication</w>
t ane</w>
tra ys</w>
ch and
cruci al</w>
ski mming</w>
ro k</w>
scand al</w>
t na
savor ed</w>
di stressed</w>
ro sal
mi key</w>
chi cks</w>
en vi
a lls</w>
el vi</w>
rou sed</w>
tal kin</w>
ex tin
fu s</w>
ff i</w>
me tres</w>
ou x</w>
a mple</w>
mili tia</w>
ci dra</w>
fire light</w>
n as</w>
der rick</w>
exi sting</w>
a g</w>
theat re</w>
loo sen
be li
daun tless</w>
ca pped</w>
or acle</w>
re ka</w>
spagh etti</w>
univer sal</w>
cur tly</w>
restra ints</w>
de stri
inti mately</w>
curren ts</w>
pu ke</w>
vani on</w>
mar red</w>
w ny</w>
suffoc ating</w>
tur ner</w>
pi ssing</w>
me t
meti cul
on ics</w>
loun ging</w>
expec tation</w>
x e
ascen ded</w>
ge m</w>
ban ner</w>
eman ating</w>
bla ming</w>
coun sel</w>
di er</w>
fiance e</w>
scot tish</w>
remin i
vig go</w>
che st
di sen
agi tation</w>
infil tr
sp aw
anni ver
ire ne</w>
dol ph</w>
reali stic</w>
night fall</w>
pic s</w>
sal es
la mb</w>
long bow</w>
whi sk
neigh boring</w>
obsc ure</w>
pisto ls</w>
slur red</w>
n yn</w>
resi dent</w>
accu sations</w>
quali ties</w>
brea ker</w>
consequ ence</w>
mat ted</w>
summ ers</w>
blo g</w>
vi be</w>
ho ver</w>
pan ther</w>
juli ana</w>
as sign
arm our</w>
ss ance</w>
bear ings</w>
wi llie</w>
eu reka</w>
cla sping</w>
' n</w>
bur ly</w>
worl dly</w>
ha st</w>
flor ence</w>
horiz on
un settled</w>
draw ings</w>
sa tan</w>
par isa</w>
pupp et</w>
de po
morti fied</w>
sto cked</w>
introdu ctions</w>
un finished</w>
d'ar tag
di stra
l ousy</w>
eu gene</w>
appe ti
enca sed</w>
ra ft</w>
a im
ob si
alar ming</w>
al o</w>
ve e</w>
r ha
mar veled</w>
grac ious</w>
minim al</w>
tre sses</w>
anch ored</w>
ha cked</w>
pre ter
b able</w>
counten ance</w>
reg gie</w>
du ti
de sign
manu al</w>
lat tering</w>
whimp ering</w>
bre wing</w>
spra ying</w>
expression less</w>
champ i
in take</w>
fun ctions</w>
bre eding</w>
tri ckling</w>
th y
sen sors</w>
b m
ar do</w>
goo fy</w>
chick ens</w>
ta me</w>
ro sa
or derly</w>
ing ham</w>
o z</w>
sun s</w>
oo h</w>
pen n
crink led</w>
i sts</w>
gg ins</w>
g no
savan na</w>
ca ffe
refu sal</w>
di on</w>
bun ker</w>
com m</w>
bo dice</w>
repe ats</w>
mi mi</w>
bal d
climb s</w>
batt led</w>
o ia</w>
any ways</w>
m '
econ omy</w>
trac tor</w>
victor ian</w>
fa x</w>
fif ties</w>
in adver
org anic</w>
cl own</w>
nai ssance</w>
t .
ex or
den ted</w>
sub tly</w>
exper tise</w>
ale a</w>
lin a</w>
1 4
thin ner</w>
m mie</w>
ke ller</w>
p el</w>
p int</w>
stoo ped</w>
montgom ery</w>
no s</w>
re z</w>
i mo
shrou ded</w>
di ts</w>
eu ph
ju icy</w>
3 8</w>
assign ments</w>
mad man</w>
d ank</w>
ir i</w>
d'artag nyn</w>
sh owers</w>
g it</w>
nic o</w>
j ina</w>
mb ering</w>
stal k</w>
vic iously</w>
ther an</w>
bur gh</w>
mathe ma
conver ted</w>
hi tler</w>
bea ded</w>
sta shed</w>
de arly</w>
he ven</w>
gi lla</w>
home made</w>
cre eps</w>
indu ced</w>
u ish</w>
compe te</w>
wri ggled</w>
ank y</w>
loa thing</w>
distra ught</w>
li zard</w>
missi ssi
ri d
ca sket</w>
cha otic</w>
j ars</w>
gover n
sc he</w>
hi c
mi sses</w>
u t
th on</w>
explan ations</w>
de o</w>
wob bly</w>
jo ints</w>
app lying</w>
tru st
co ating</w>
parti al</w>
interrup tion</w>
por tland</w>
s .com</w>
bloo med</w>
al arms</w>
fan ci
en cies</w>
inevit ably</w>
squ aw
ch ard</w>
pin ching</w>
inse ct</w>
ka th</w>
thro p</w>
a spects</w>
gi cally</w>
indul ge</w>
cre ator</w>
roof top</w>
re servations</w>
ka ia</w>
off end</w>
sub st
mi ce</w>
du ct</w>
sign aling</w>
stead ying</w>
kin e
g ned</w>
buri al</w>
be ak</w>
or gan</w>
mb ler</w>
bour bon</w>
d welling</w>
si ves</w>
mai sie</w>
rest lessly</w>
mat thias</w>
un cles</w>
fla g
fli tted</w>
clo seness</w>
quar ry</w>
inter state</w>
ru ling</w>
com mon
tin iest</w>
ty r</w>
reci pe</w>
defi ant</w>
coyo te</w>
si ed</w>
produ ctive</w>
dra gs</w>
th ened</w>
lo go</w>
terran ean</w>
v ick
in ky</w>
wicke dly</w>
char le
pi xie</w>
qu en</w>
pl ank</w>
car ving</w>
mista king</w>
man fred</w>
bo dys</w>
tri s</w>
ri pples</w>
di gi
per ception</w>
un du
val et</w>
word lessly</w>
fl inging</w>
hol stered</w>
pe dal</w>
atlan tic</w>
ca s
am bu
salu ted</w>
buff et</w>
ball et</w>
mag ician</w>
particip ate</w>
path way</w>
contain ers</w>
war lock</w>
at ingly</w>
ca i
s warmed</w>
de ll</w>
ve ered</w>
tee g</w>
depo sit</w>
thomp son</w>
auth ors</w>
bri stled</w>
summon ing</w>
phi a</w>
min ing</w>
tt ens</w>
cher es</w>
wi lls</w>
g antly</w>
im minent</w>
cru sted</w>
men cheres</w>
con vey</w>
earth quake</w>
in son</w>
tele por
ka h</w>
ni gel</w>
ge offrey</w>
gui des</w>
asse ssing</w>
brea st
carni val</w>
je ts</w>
du el</w>
gu el</w>
fac tly</w>
du mping</w>
rhyth mic</w>
tro t</w>
mar c</w>
ang ar
hy dr
cho pped</w>
e gy
mi lling</w>
ali stair</w>
bla ire</w>
me sh</w>
dou gal</w>
break down</w>
es capes</w>
bra x</w>
sof tening</w>
tra i
mississi ppi</w>
hand bag</w>
stock ings</w>
ga ze
thumb ed</w>
mi ko</w>
on s
obsi dian</w>
un dressed</w>
do g
cha ir
seclu ded</w>
sh man</w>
frea ks</w>
sand ers</w>
con tri
challeng es</w>
vin tage</w>
parti cles</w>
bon fire</w>
ol ine</w>
princi ple</w>
pp e</w>
dru m
pr an
ta xes</w>
on coming</w>
dece ased</w>
to ff</w>
bu stling</w>
emplo yment</w>
progra ms</w>
mi sts</w>
bat teries</w>
au gu
sorcer er</w>
corra do</w>
er ated</w>
tru mp
po lo</w>
torna do</w>
balan cing</w>
ang rier</w>
gh ou
sie ge</w>
prophe t</w>
comra des</w>
insi sting</w>
ru ck
gi b
swe ats</w>
n ouri
dan ces</w>
me d
passion ately</w>
mous ine</w>
lo b
u near
dd le
musi cians</w>
el bowed</w>
li mousine</w>
pre va
pi ped</w>
lo ses</w>
ha milton</w>
jagu ar</w>
fer ti
ex its</w>
ed mund</w>
s word
pe ck</w>
bar ing</w>
foo ling</w>
yi elding</w>
unti ed</w>
le mon
resu lted</w>
slu ggi
r hon
wi ggle</w>
egy pt</w>
so les</w>
a ina</w>
za kath</w>
alter nate</w>
per me
wrai th</w>
the sis</w>
thra shed</w>
blood shot</w>
for en
maxi mus</w>
refu ses</w>
rea ders</w>
mi la</w>
co arse</w>
gru esome</w>
dat ab
ir d</w>
mu ck</w>
mar yan
u la
concu ssion</w>
p ying</w>
p unk</w>
pla gued</w>
prope lled</w>
. i</w>
cra tic</w>
dani elle</w>
li ve
w ou
obli gation</w>
grand children</w>
pas sword</w>
cal mer</w>
ali a</w>
se curing</w>
scra ps</w>
as ure</w>
phi la
band aged</w>
bit ches</w>
awak ening</w>
au to</w>
defi antly</w>
n ous</w>
anniver sary</w>
evol ent</w>
gr ance</w>
y man</w>
fra grance</w>
scor ching</w>
recor der</w>
ar ya</w>
ja pan</w>
bab bling</w>
frea ky</w>
re ign</w>
insi sts</w>
con tamin
ser a</w>
sil en
pro sper
kri sten</w>
an at
stri es</w>
restra ining</w>
fir sth
door frame</w>
fle xi
ali x</w>
be v</w>
bra d
sli cked</w>
as surance</w>
del ta</w>
in hi
sa fia</w>
firsth and</w>
j ab
volcan o</w>
gob let</w>
absor bing</w>
emb as
cre scent</w>
preven ting</w>
at on</w>
brai ded</w>
k is</w>
mo squi
g ans</w>
tor ium</w>
ski ll
sha i</w>
puni shing</w>
re ddened</w>
infli cted</w>
mac on</w>
fero city</w>
bo dily</w>
tati ana</w>
snat ching</w>
cul tural</w>
phila del
ha g</w>
lanter ns</w>
fo ggy</w>
mu sty</w>
dri c</w>
ry ker</w>
fa inted</w>
pe destri
st out</w>
extra vag
elev ated</w>
in difference</w>
spa in</w>
tex ture</w>
design ated</w>
jeremi ah</w>
gra ti
announ cing</w>
gru mpy</w>
on ward</w>
vani shing</w>
clu eless</w>
war dness</w>
sau l</w>
temp ered</w>
sc rubbing</w>
new found</w>
e ties</w>
kidna p</w>
jose phe</w>
ban ter</w>
contrac ts</w>
exhau sting</w>
adam ant</w>
p as</w>
oo ps</w>
fu sion</w>
s burg</w>
ko v</w>
stri pes</w>
at ti
cour ses</w>
merchan ts</w>
che z</w>
tt les</w>
chancell or</w>
se da
terrori sts</w>
clar ence</w>
ct ant</w>
sul try</w>
ster eo</w>
loa f</w>
ce ci
alley way</w>
jer ky</w>
aband oning</w>
oper ated</w>
rand om
k us</w>
cru mbs</w>
cul ti
su sie</w>
re lish</w>
o hi
a untie</w>
inclu des</w>
russi ans</w>
ur able</w>
predat ory</w>
di ved</w>
ex cess</w>
legen dary</w>
pa ved</w>
bath tub</w>
pu ckered</w>
per ked</w>
bree ches</w>
u m
boo ted</w>
ac cen
ha gg
black mail</w>
cro ps</w>
twink led</w>
embas sy</w>
li llian</w>
stain less</w>
ming ling</w>
ca ged</w>
mark ings</w>
ry ke</w>
ling erie</w>
pat ron
dump ster</w>
li on
paranor mal</w>
ga li
je anne</w>
ic e
gar rison</w>
floor boards</w>
mil ky</w>
sto ic</w>
flu orescent</w>
ce zar</w>
s ss</w>
ting les</w>
re eled</w>
re pay</w>
finger prints</w>
jose f</w>
who le
in ty</w>
cl one</w>
cour thouse</w>
hi tch</w>
im mac
politici ans</w>
conj ured</w>
i z</w>
ren dez
ha vo
colon ies</w>
yel p</w>
shir tless</w>
poison ous</w>
after math</w>
ra d
pa ddle</w>
virtu e</w>
glen n</w>
re ne</w>
sar e
to ddler</w>
l ton</w>
du h</w>
ma kers</w>
du val</w>
pi ling</w>
sal ary</w>
hou ston</w>
ten tly</w>
seat belt</w>
ti mmy</w>
boy ish</w>
paran oia</w>
su es</w>
car ts</w>
negoti ate</w>
an te</w>
ci ta
hear tedly</w>
congr at
gir ly</w>
philadel phia</w>
explo sives</w>
fav our</w>
tru ths</w>
w a</w>
vo ss</w>
ba the</w>
r it</w>
acknowle dging</w>
fl ora</w>
under cover</w>
a mic</w>
vi k</w>
cheri shed</w>
favor ed</w>
ther y</w>
: 0
cob ble
amat e
g nation</w>
twi gs</w>
li mp
mor t</w>
sa ffi</w>
ba p
sp icy</w>
humili ating</w>
fur nished</w>
un welcome</w>
illumin ation</w>
thr ong</w>
luci fer</w>
grimac ing</w>
descri bing</w>
lu lu</w>
en tation</w>
stor ming</w>
shri eks</w>
en thra
civili ans</w>
note pad</w>
sau sage</w>
exper tly</w>
nothing ness</w>
spee ds</w>
ca sts</w>
shadow hunters</w>
jo ck</w>
cat ac
al on
col oring</w>
k or</w>
per spir
li mping</w>
cly de</w>
havo c</w>
occu pation</w>
k uri
for ge</w>
ob tain</w>
scree tly</w>
end lessly</w>
ul ties</w>
fr inge</w>
win ter
gu hl</w>
horri d</w>
emb ers</w>
zi ed</w>
na vel</w>
disple asure</w>
billi onaire</w>
sel f
sphin x</w>
gri eving</w>
wei ghts</w>
fa ll
ta pes</w>
clu stered</w>
leng thy</w>
rose wood</w>
no bles</w>
w en</w>
mi dair</w>
lan es</w>
tac tic</w>
fe at</w>
cardin al</w>
thro ttle</w>
ve iled</w>
glimp ses</w>
love making</w>
ger mans</w>
gi guhl</w>
inven tory</w>
obedi ently</w>
broo k
comprehen sion</w>
un characteri
crack le</w>
par ks</w>
comp lied</w>
s som</w>
alle gi
shakespe are</w>
author i
af for
fun da
bla y</w>
en twined</w>
surve ying</w>
pro motion</w>
epi logue</w>
h hh</w>
mo le</w>
acci dents</w>
zoo med</w>
ohi o</w>
guar d
dr yer</w>
mor gue</w>
za tions</w>
ar ab
jac kass</w>
mon ks</w>
sar ge</w>
ei b
gra ph</w>
bl ow
ligh thouse</w>
lea ps</w>
noncha lantly</w>
en ig
you s</w>
gall ey</w>
bo thers</w>
eib hear</w>
du sting</w>
thunder ing</w>
re ject</w>
hi ring</w>
le gally</w>
whi ps</w>
impas sive</w>
c it</w>
bee ped</w>
secre tive</w>
di le
wor th
pas sages</w>
free way</w>
sa gging</w>
v ened</w>
as ar
di mple</w>
be dding</w>
reha b</w>
in cl
squ a
ir relevant</w>
r hi
tu lly</w>
g nar
re late</w>
lle ys</w>
swer ved</w>
wi elding</w>
for ties</w>
lo p
embroi dered</w>
ho b
perio ds</w>
conver sa
ai th</w>
be mused</w>
tri als</w>
indi gnation</w>
nova k</w>
tack led</w>
di screetly</w>
d yed</w>
amer y</w>
ni ol</w>
jun ction</w>
twi g</w>
qu an
respe ctive</w>
poli s</w>
gi s
dd ening</w>
beg in
voy age</w>
her b</w>
gener ated</w>
outra geous</w>
co lo
dimen sions</w>
intui tion</w>
testi mony</w>
tom ato</w>
da kota</w>
ple dge</w>
adju st
pl ate
hungri ly</w>
conserva tive</w>
o llie</w>
vie w
sta ti
tox ic</w>
19 5
as a</w>
ali ah</w>
in significant</w>
i solation</w>
sla shing</w>
over powering</w>
a a</w>
ear ne
ri ghted</w>
ti mer</w>
no ir</w>
func tional</w>
inter action</w>
go ats</w>
ur ges</w>
t ages</w>
retor t</w>
moti vation</w>
unner ved</w>
z en
ti ghtness</w>
in human</w>
mau reen</w>
strang le</w>
bio logy</w>
pl owed</w>
~~ ~</w>
boun cer</w>
mor rison</w>
dag mar</w>
way ward</w>
war ped</w>
tr inity</w>
lau ght</w>
gro li
obli ter
crea se</w>
cro pped</w>
devi ls</w>
lou isi
war dens</w>
cor rupt</w>
li ver</w>
ire land</w>
don ned</w>
desir able</w>
ici ans</w>
ch lor
lux en</w>
i pod</w>
t ang
work shop</w>
mag en</w>
bo xing</w>
ca di
tru ce</w>
ly sander</w>
tous led</w>
wi ggling</w>
z ers</w>
sha ded</w>
admini stration</w>
adverti sing</w>
fi ber</w>
tran slation</w>
sha kily</w>
pri ces</w>
son ya</w>
oo zing</w>
alex and
gru dgingly</w>
sc um</w>
egyp tian</w>
for sa
expen ses</w>
deci dedly</w>
no ff</w>
hair cut</w>
len ny</w>
ca dogan</w>
mali ce</w>
ca valry</w>
soo t</w>
acu te</w>
ge ez</w>
dri fts</w>
de clare</w>
clu m
n ana</w>
n als</w>
win ters</w>
ange lic</w>
dru mmed</w>
hosti lity</w>
gru mbling</w>
a sia</w>
alcoholi c</w>
hom eland</w>
leop ard</w>
fla med</w>
wr on
com in</w>
elli ott</w>
ze al
char i
sa mson</w>
re pro
mar ley</w>
hybri d</w>
submi ssive</w>
mis understanding</w>
fl ank</w>
liter ature</w>
m angled</w>
aur ora</w>
sli my</w>
philo sophi
mi ch
pro position</w>
clo aks</w>
m alone</w>
rin ce
rendez vous</w>
trans form</w>
regar ds</w>
d strom</w>
har mon
scor pi
trea sures</w>
with stand</w>
ste st</w>
ar sen
worl d
stor my</w>
sc rolled</w>
sle eps</w>
expe lled</w>
rince wind</w>
per cy</w>
exer tion</w>
vau lted</w>
whe at</w>
ta i</w>
lo cket</w>
stiff en</w>
alas ka</w>
holl and</w>
optimi stic</w>
tal en</w>
fla gs</w>
ster ile</w>
d ough</w>
sla in</w>
moni que</w>
ab lo</w>
m stone</w>
pe a</w>
ho ttest</w>
un harmed</w>
inha bited</w>
pon dering</w>
respon ses</w>
chi ded</w>
discer n</w>
suff iciently</w>
d ons</w>
pleas ing</w>
steal th</w>
dream t</w>
ons laught</w>
bi g
hard ware</w>
mat ch
de cline</w>
mon tana</w>
ni bbling</w>
shi pping</w>
be at
stom p</w>
wo ve</w>
ac compan
pa vi
gi selle</w>
savi or</w>
al as</w>
mar t</w>
fi ddled</w>
reg ina</w>
se am</w>
4 7</w>
va lid</w>
un to</w>
han gover</w>
hair line</w>
a ward</w>
pack ages</w>
dissip ated</w>
tur quo
me ds</w>
gas oline</w>
ar mp
outra ged</w>
bru tally</w>
lun ge</w>
fli cks</w>
you thful</w>
safe st</w>
inher it
cont ag
k ore
u ss</w>
inci dents</w>
ki mb
cita del</w>
cheek bone</w>
20 14</w>
tra ins</w>
simp ler</w>
occu pants</w>
justi fied</w>
su stained</w>
numb ness</w>
psycho tic</w>
reverber ated</w>
progre ssed</w>
vi brations</w>
ho ckey</w>
ea st
con ceived</w>
spir aling</w>
ra mbling</w>
ste wart</w>
lar y</w>
sc ow</w>
jeff rey</w>
s .</w>
ul a</w>
vege tation</w>
loo ps</w>
atlan te
ven ue</w>
tre pi
vie tna
archite cture</w>
gle e
la z
or i</w>
mur dering</w>
t at</w>
cylin der</w>
turquo ise</w>
thu dded</w>
night ing
com ic</w>
carn age</w>
annu al</w>
clu tches</w>
voic email</w>
bm w</w>
nic colo</w>
assa il
syr up</w>
cooper ation</w>
blo ssom</w>
ele ts</w>
costu mes</w>
ta way</w>
at i</w>
it ched</w>
in famous</w>
tra pping</w>
wea kne
destru ctive</w>
w him</w>
affection ate</w>
bri dge
predat ors</w>
no x</w>
volu mes</w>
bryn ne</w>
ev angeline</w>
fil th</w>
dro ol</w>
cryp tic</w>
ing ness</w>
patri cia</w>
infer no</w>
ch in
tra it</w>
gul f</w>
far thest</w>
audi torium</w>
sa i</w>
over flowing</w>
u pro
sto pp
li zzy</w>
accompan ying</w>
addi ct</w>
brief ing</w>
su zy</w>
in na</w>
occu py</w>
memor ized</w>
gar d
su mi</w>
scor es</w>
sou l
louisi ana</w>
ham mond</w>
dismi ssively</w>
swee ps</w>
see lie</w>
sin u
inadver tently</w>
pa ir
li min
a za
eli as</w>
ble achers</w>
ju tted</w>
chee se
secon dary</w>
fidge ted</w>
dimini shed</w>
ri tu
wid th</w>
1 3
cha iko</w>
cke ty</w>
rue fully</w>
bor dered</w>
re sear
edi ly</w>
cru mble</w>
din ess</w>
de cep
ti gers</w>
scoo t</w>
obst acle</w>
mo t</w>
er i</w>
reinfor ced</w>
av asar
avasar ala</w>
ad ul
smu gly</w>
6 0</w>
book store</w>
com promised</w>
refle x</w>
stin king</w>
a ya</w>
con venti
b ers</w>
du pli
panic king</w>
f fe</w>
fli msy</w>
wi stful</w>
ac ia</w>
decor ations</w>
caffe ine</w>
suit cases</w>
vi et</w>
brea thy</w>
ad die</w>
ga ps</w>
exi le</w>
i da
he eled</w>
chim ney</w>
de part</w>
thor ns</w>
cla mation</w>
trou bling</w>
seas ons</w>
coa xed</w>
go on</w>
esti mated</w>
volunte ers</w>
lo is</w>
pp a</w>
weakne sses</w>
tha yer</w>
ra ke</w>
lin ess</w>
ed ging</w>
survi vor</w>
strai ght
custom ary</w>
foo ds</w>
bat ch</w>
bewil der
por sche</w>
k ow
lu cah</w>
fashi on
gar eth</w>
mar vel
bun dled</w>
a jar</w>
vi l</w>
neck line</w>
squ int</w>
ti est</w>
mel inda</w>
gate way</w>
gre etings</w>
wri ters</w>
bi llie</w>
awa ken</w>
spo tting</w>
profess ors</w>
thro aty</w>
ma st</w>
oper ative</w>
swi ss</w>
ola f</w>
trou ble
aph ro
rab bits</w>
re e
astri d</w>
ma shed</w>
abdu cted</w>
ju g</w>
sh ings</w>
respe cting</w>
cli mate</w>
feli city</w>
fren zied</w>
biscu its</w>
clu ttered</w>
behavi our</w>
accu se</w>
ab str
wre stled</w>
trans fixed</w>
ob noxious</w>
r acked</w>
transmi ssion</w>
eu gen
valu ed</w>
deca y</w>
bol dly</w>
x an
sa belle</w>
confir ming</w>
ra king</w>
man ages</w>
dev ouring</w>
enchan ted</w>
camoufla ge</w>
war ran
seren ity</w>
recommen ded</w>
te am
look out</w>
ti ckle</w>
simp li
bra yden</w>
is rael</w>
assass ination</w>
predi ct</w>
cla mbered</w>
ll ys</w>
be x</w>
cu ddled</w>
ado le
kni tting</w>
awk wardness</w>
astoni shing</w>
y as
tour nament</w>
f o</w>
gau ze</w>
tu xe
envisi oned</w>
chandeli er</w>
pro jected</w>
oppon ents</w>
evolu tion</w>
t les</w>
thor n
o ed</w>
vani a</w>
fu ll
chemi cals</w>
re stor
gor ge</w>
serge i</w>
histor ic</w>
der y</w>
al es</w>
daim ons</w>
tab by</w>
ca mar
ann ers</w>
la shing</w>
posi tioning</w>
tis sues</w>
disagre ed</w>
pre servation</w>
jac qu
li t
force ful</w>
comp act</w>
flat tering</w>
ed gy</w>
be ad</w>
in vinci
wol fe</w>
kuri k</w>
bi ker</w>
swa tted</w>
tent acles</w>
ali ties</w>
horri fying</w>
smo thered</w>
tre spas
bla sts</w>
ed ings</w>
tor ial</w>
nin th</w>
hi ve</w>
ra gn
de flated</w>
exper ts</w>
mu lus</w>
can ny</w>
arch ers</w>
la yout</w>
t reason</w>
set up</w>
ri g</w>
lu ton</w>
sare hl</w>
feat ured</w>
co pied</w>
bra very</w>
pro be</w>
bag gy</w>
techni ques</w>
dile mma</w>
or na
w lode
wlode k</w>
sho cks</w>
ta mp
k ari
rose mary</w>
kat rina</w>
blat ant</w>
sque aling</w>
ony x</w>
imper son
jewel ed</w>
blind fold</w>
ce dar</w>
re clin
vo s</w>
nighting ale</w>
conqu er</w>
dee pening</w>
se mblance</w>
camp fire</w>
ach i</w>
cra z
p r</w>
reassur ingly</w>
ed wards</w>
poin ty</w>
tele pathic</w>
vi st</w>
ac quire</w>
conver se</w>
bi llowing</w>
brun o</w>
hand shake</w>
un doing</w>
sc ious</w>
a light</w>
mar ion</w>
lo v</w>
nee d
pu ffing</w>
gra ze</w>
coa ster</w>
in tel</w>
din ners</w>
car la</w>
rub bish</w>
roof s</w>
po llu
fl our</w>
f arms</w>
hypnoti c</w>
p d</w>
c lon
s sc
real ms</w>
mu mmy</w>
meas uring</w>
ec static</w>
ti mid</w>
al mighty</w>
peter son</w>
cl ans</w>
fore bo
gna wing</w>
he id
la dy
lemon ade</w>
may fair</w>
com pose</w>
fur ni
chest nut</w>
dubi ous</w>
ang ered</w>
cur tis</w>
cla mmy</w>
wear iness</w>
chi pped</w>
cur </w>
on da</w>
trepi dation</w>
buff alo</w>
wa st
finger nail</w>
r ance</w>
quir ing</w>
bo bo</w>
n icky</w>
di gger</w>
car nal</w>
inve sted</w>
mari o</w>
do zed</w>
bul bs</w>
ni an</w>
me li
kha ki</w>
moo dy</w>
sol ate</w>
s ma</w>
notor ious</w>
por table</w>
preter natural</w>
re solution</w>
er nest</w>
gnar led</w>
fru it
cha ses</w>
vibr ate</w>
contrac ted</w>
d gment</w>
ula th</w>
la pped</w>
ra p</w>
gi llian</w>
enti cing</w>
mp ling</w>
distin ctive</w>
sta ining</w>
gener ator</w>
trust worthy</w>
su stain</w>
pu mm
ane w</w>
dan g</w>
je cting</w>
gg ly</w>
proce ssion</w>
gri tting</w>
zi pping</w>
dru mming</w>
mu le</w>
ro xie</w>
sob ered</w>
be gg
lab y
fil ms</w>
in cess
sh ined</w>
ai ds</w>
m ir</w>
si ps</w>
condem ned</w>
d gy</w>
oa ka</w>
thor pe</w>
acknowle dgment</w>
ca itlin</w>
hea ve</w>
p ours</w>
hosp itals</w>
pe d
classi fied</w>
be having</w>
bewilder ment</w>
s mal</w>
conten ted</w>
organi ze</w>
te sta
s ven</w>
tan u</w>
butt oning</w>
missi les</w>
good byes</w>
cry pt</w>
om an</w>
pro p</w>
new born</w>
oo zed</w>
po ly
daim on</w>
bon ding</w>
immen sely</w>
me ts</w>
mb a</w>
sp ook</w>
hu n</w>
paja ma</w>
fi sh
che ery</w>
ir a
tal aith</w>
expe cts</w>
fro sty</w>
me te
blood line</w>
ri el</w>
ceil ings</w>
pe ti
de z</w>
low e</w>
ro xy</w>
sur mi
ev ens</w>
pi x
thin kin</w>
sha bby</w>
subur ban</w>
mar ilyn</w>
ta ur</w>
un fur
plan ks</w>
tr in
visi bility</w>
psycho logical</w>
ca ia</w>
ha pha
spr inting</w>
hear ty</w>
pump kin</w>
i so
mel aina</w>
ke ita</w>
recru it</w>
gener ate</w>
ambi tion</w>
jud ges</w>
bi o</w>
di ge
9 11</w>
impro vement</w>
di me</w>
mi guel</w>
ed gard</w>
un affected</w>
demon strate</w>
demon stration</w>
f ences</w>
introdu cing</w>
mm mm</w>
stan ton</w>
accur ately</w>
ste ward</w>
ma bel</w>
har den</w>
cau tioned</w>
ma ple</w>
con sort</w>
ele ssness</w>
cap turing</w>
er ran
and ro</w>
cel ine</w>
vi an
un dress</w>
hu stled</w>
decor ating</w>
bo ssy</w>
ic les</w>
die sel</w>
stor m
beck oning</w>
asse ss</w>
extrac ted</w>
is ana</w>
wi st
por ts</w>
d ship</w>
star ve</w>
horse back</w>
je b</w>
si zzling</w>
f end</w>
ga mble</w>
star bucks</w>
go o</w>
sp ends</w>
equ ation</w>
imp en
vege table</w>
re bu
pla u
laby rin
gry ph</w>
cho pping</w>
un fold</w>
pro logue</w>
plate au</w>
spect ators</w>
def tly</w>
represen tative</w>
whoo sh</w>
temp t</w>
5 00</w>
comp on
r ington</w>
chan ted</w>
lur ch</w>
hyster ically</w>
clemen tine</w>
bren dan</w>
ke ir
shar es</w>
disc </w>
elli son</w>
flu shing</w>
ri co
wa ge</w>
na po
wi sps</w>
gro ped</w>
accen ted</w>
lo sses</w>
pe tri
forsa ken</w>
li vely</w>
d ans</w>
be tt
o ids</w>
bat ted</w>
scur rying</w>
mar ily</w>
confi ded</w>
lab s</w>
en com
rela tion</w>
mur ray</w>
r as</w>
ank h</w>
p ans</w>
flouri sh</w>
vide os</w>
gi les</w>
re i</w>
bur gers</w>
r ounding</w>
glu e</w>
hu mid</w>
pro ves</w>
fra ud</w>
a men</w>
be fore
bott led</w>
ri ft</w>
const itu
en circled</w>
devi lish</w>
tati jana</w>
t .a</w>
c .
cra fted</w>
imp ec
re ig
bic ep</w>
tri sha</w>
ava il</w>
om aha</w>
navi gate</w>
ll in</w>
impen etr
lu scious</w>
do e</w>
lop sided</w>
con tains</w>
la hn</w>
as set</w>
bru ising</w>
deli ciously</w>
devi ous</w>
shor eline</w>
sol ace</w>
a stu
li hood</w>
p ic</w>
l ach
un ci
cont ing
sl yn</w>
ver sus</w>
pleas an
sh red</w>
invol ves</w>
e a</w>
mir acles</w>
gi an</w>
disli ked</w>
sculp ture</w>
random ly</w>
k al</w>
const ance</w>
thu dding</w>
fear less</w>
y able</w>
outsi der</w>
ter ri</w>
stor y
sha dy</w>
ligh the
imp lor
om i
relen tlessly</w>
di gni
lunch time</w>
a ve</w>
smi c</w>
ob jection</w>
resu lting</w>
mor ous</w>
fra yed</w>
epi ly</w>
su mmit</w>
ha cking</w>
ash lyn</w>
eri us</w>
dismi ssing</w>
o ily</w>
up setting</w>
ger ard</w>
sca ven
ci mil</w>
to yed</w>
domini que</w>
fru its</w>
jo ins</w>
n d</w>
wonder fully</w>
for lor
mon aster
se ous</w>
signific antly</w>
my tho
e ck</w>
lo ckers</w>
youn g
forebo ding</w>
va ti
v on
ac cess
stoo ls</w>
drea mer</w>
wel fare</w>
st unt</w>
mechan ic</w>
car cass</w>
t ys</w>
mall ore
x us</w>
tra kian</w>
formu la</w>
scenari os</w>
head phones</w>
thunder ous</w>
sa bin</w>
proce ssed</w>
bo som</w>
mati lda</w>
a wait</w>
pro fi
tele pathy</w>
th ic</w>
ex iting</w>
fu mes</w>
emb racing</w>
cru z</w>
mi k</w>
ri dges</w>
eff iciency</w>
gro ggy</w>
stre tcher</w>
imo gen</w>
sel ess
a. m</w>
dismi ssive</w>
hi er
th am</w>
den ces</w>
p ate</w>
mat er
dou gh
ha dge</w>
ge ogra
c ly</w>
col ours</w>
allegi ance</w>
nar ci
infin itely</w>
rack et</w>
in fir
heid i</w>
re trac
pal er</w>
oo t</w>
sa te</w>
chal ant</w>
shar ks</w>
kath leen</w>
scraw led</w>
re gal</w>
mi ly</w>
er ate</w>
in can
dor is</w>
ha zard</w>
illu sions</w>
thr yn</w>
ro gers</w>
question ingly</w>
we as
ba sh</w>
non chalant</w>
pr ank</w>
knu ckle</w>
tag s</w>
al oft</w>
rob bery</w>
sw an</w>
fl inching</w>
k ick
ran on</w>
ida ho</w>
tho y</w>
pri vy</w>
ra pped</w>
intru sion</w>
out doors</w>
car elessly</w>
pro pping</w>
staf fan</w>
to ken</w>
cri ssc
al ana</w>
w ling</w>
admitt edly</w>
gi or
wri tes</w>
can teen</w>
scan ner</w>
ar nie</w>
ac qui
snea ky</w>
atlan tis</w>
qui ll</w>
wor ri
domin ance</w>
periph eral</w>
soo th
fre derick</w>
impenetr able</w>
de cks</w>
pen tag
cou pled</w>
ambi tious</w>
rum maging</w>
shi t
o aks</w>
3 4</w>
communic ating</w>
calli ope</w>
lur ked</w>
ex tract</w>
list ic</w>
k ry
ad joining</w>
ra w
pi g
list ens</w>
gru dge</w>
rece ded</w>
ra mon</w>
d abbed</w>
cover t</w>
no ble
ga unt
pe ggy</w>
hon ed</w>
erran ds</w>
land lord</w>
will ingness</w>
ash en</w>
ki el</w>
me yer</w>
tro phy</w>
tooth brush</w>
sha p
ra z</w>
te ller</w>
mour n
def ence</w>
ten sing</w>
pa wn</w>
resen ted</w>
dimen sional</w>
20 13</w>
sc ans</w>
ed an</w>
in sinu
bathro oms</w>
econom ic</w>
amaz on</w>
yi eld</w>
mar ius</w>
n ar</w>
re in</w>
ge es</w>
k enly</w>
dwar ves</w>
boar d
pre p</w>
charle ston</w>
cr anked</w>
supervi sor</w>
sav ings</w>
con text</w>
he in
jen n</w>
whir l</w>
transl ate</w>
testa ment</w>
ma iled</w>
s ans</w>
ser um</w>
stu por</w>
do te</w>
acti vely</w>
ly can</w>
a unts</w>
occur s</w>
police men</w>
len dill</w>
as sor
o x</w>
car amel</w>
pin point</w>
lo c
har ve
or ous</w>
ri ps</w>
hospi tality</w>
mur gos</w>
re ds</w>
p ters</w>
jack y</w>
irri tably</w>
ry land</w>
slu g</w>
san ds</w>
ra ils</w>
ba xter</w>
nor ian</w>
gur ney</w>
circum stance</w>
respect fully</w>
heart beats</w>
dish on
pe tro
s den</w>
spic uous</w>
suppor tive</w>
th ol
ra oul</w>
certific ate</w>
lun g</w>
e ph</w>
boun dary</w>
ho bby</w>
retri bu
brac ken</w>
logi sts</w>
ha mish</w>
gu tter</w>
e there
ta med</w>
fever ish</w>
grote sque</w>
tri sh</w>
j in
ch man</w>
plan tation</w>
v ents</w>
bli ssful</w>
tu tor</w>
et c</w>
fea thered</w>
syl vania</w>
ex changing</w>
analy ze</w>
sc ep
shadow hunter</w>
appreci ative</w>
ag s</w>
ur ban</w>
di ps</w>
electr onics</w>
ru bi</w>
ir onically</w>
al anna</w>
b ounds</w>
miracul ously</w>
happ iest</w>
in um</w>
mu mbles</w>
da i
bicy cle</w>
t ink</w>
displa ys</w>
conventi onal</w>
z an</w>
mat ri
go ons</w>
eng aging</w>
sel don</w>
un folding</w>
boo st</w>
side walks</w>
coul ter</w>
mo scow</w>
back stage</w>
flat s</w>
brilli ance</w>
g lock</w>
mel a</w>
web b</w>
sacrif ices</w>
se iz
te a
involun tary</w>
apocaly pse</w>
ro les</w>
squ ire</w>
dispat ched</w>
for wards</w>
apprehen sive</w>
infuri ated</w>
co als</w>
shi pped</w>
sme ar</w>
interven tion</w>
bene dict</w>
ic ing</w>
rin sed</w>
track er</w>
un concerned</w>
cor on
gun shots</w>
cal der</w>
k ro
que tte</w>
p ounce</w>
i do
whi ch
ah h</w>
o .
sh ere
pi ent</w>
st as</w>
re lin
whisk ers</w>
north west</w>
scraw ny</w>
im mobile</w>
evol ved</w>
b ang
ri yan</w>
pur r</w>
bet sy</w>
fa stest</w>
san chez</w>
er os</w>
author ized</w>
sa y
ru e</w>
admini str
de solate</w>
fr at</w>
swir ls</w>
droo ling</w>
he fted</w>
ke ll</w>
kah li</w>
gen der</w>
elimin ated</w>
assor tment</w>
uncontroll able</w>
vill ain</w>
condu cted</w>
jo han
fi e</w>
me mp
va do</w>
inherit ance</w>
ty ran
char med</w>
bar ks</w>
un real</w>
salv age</w>
ho bbled</w>
cher yl</w>
bar rett</w>
blood lust</w>
swi tches</w>
myri ad</w>
in vo
cyn ical</w>
in cu
st ina</w>
marke ting</w>
pri ckled</w>
drea ding</w>
chu bby</w>
favor ites</w>
ta sty</w>
de a</w>
no c
sha ya</w>
soun dly</w>
i ss
gi st</w>
jose phine</w>
marvel ous</w>
oppo sition</w>
poison ing</w>
th ar
un armed</w>
ne v
ragn ar</w>
cubic le</w>
pro ver
flat tery</w>
bet ro
vor tex</w>
e gw
crow ding</w>
run ners</w>
spoo ked</w>
will power</w>
exhau st</w>
day time</w>
cra f
ax el</w>
ga v
ry dstrom</w>
n ye
top sy</w>
lan ky</w>
begin nings</w>
cru st</w>
egw ene</w>
atten tive</w>
empha tically</w>
po ver
sh run
cri b</w>
heart less</w>
jar ring</w>
achi ev
re collection</w>
cr anky</w>
pho le</w>
s warming</w>
as y
de cker</w>
hor ati
memp his</w>
triumphan tly</w>
qua int</w>
out numbered</w>
bur gun
gri lled</w>
car ton</w>
gha stly</w>
a ka</w>
insist ence</w>
exha ling</w>
be ts</w>
tor in</w>
sor gan</w>
wil der</w>
ro ts</w>
sp aced</w>
neu tra
ra sp</w>
bow els</w>
plat inum</w>
redu ce</w>
earne stly</w>
i ii</w>
basti lle</w>
bri de
rav aged</w>
fle x</w>
presu med</w>
re de
hi ked</w>
nin ja</w>
chan ning</w>
invinci ble</w>
aa aa
speci men</w>
pay ton</w>
un prepared</w>
retribu tion</w>
celebr ated</w>
alexand ria</w>
zz ard</w>
mar cia</w>
ku '
confu se</w>
gil bert</w>
ini er</w>
julie tte</w>
mar qu
as an</w>
d owns</w>
fur n
jack al</w>
de ir
assi stants</w>
th ood</w>
subsequ ent</w>
hi sses</w>
ki er</w>
hyster ia</w>
cti ous</w>
row dy</w>
tar p</w>
her r</w>
sla y</w>
tur f</w>
goo gle</w>
[...]
