{
  "!": 0,
  "#": 1,
  "$": 2,
  "%": 3,
  "&": 4,
  "'": 5,
  "(": 6,
  ")": 7,
  "*": 8,
  "+": 9,
  ",": 10,
  "-": 11,
  ".": 12,
  "/": 13,
  "0": 14,
  "1": 15,
  "2": 16,
  "3": 17,
  "4": 18,
  "5": 19,
  "6": 20,
  "7": 21,
  "8": 22,
  "9": 23,
  ":": 24,
  ";": 25,
  "<": 26,
  "</w>": 27,
  "=": 28,
  ">": 29,
  "?": 30,
  "@": 31,
  "[": 32,
  "\\": 33,
  "]": 34,
  "^": 35,
  "_": 36,
  "`": 37,
  "a": 38,
  "b": 39,
  "c": 40,
  "d": 41,
  "e": 42,
  "f": 43,
  "g": 44,
  "h": 45,
  "i": 46,
  "j": 47,
  "k": 48,
  "l": 49,
  "m": 50,
  "n": 51,
  "o": 52,
  "p": 53,
  "q": 54,
  "r": 55,
  "s": 56,
  "t": 57,
  "u": 58,
  "v": 59,
  "w": 60,
  "x": 61,
  "y": 62,
  "z": 63,
  "{": 64,
  "|": 65,
  "}": 66,
  "~": 67,
  "t h": 68,
  "i n": 69,
  "e r": 70,
  "a n": 71,
  "e d</w>": 72,
  "o u": 73,
  "th e</w>": 74,
  "er </w>": 75,
  "in g</w>": 76,
  "a r": 77,
  "t o</w>": 78,
  "o r": 79,
  "h e</w>": 80,
  "an d</w>": 81,
  "l l": 82,
  "h i": 83,
  "a t</w>": 84,
  "w a": 85,
  "r e": 86,
  "o n": 87,
  "s t": 88,
  "e n": 89,
  "h a": 90,
  "' '</w>": 91,
  "o f</w>": 92,
  "o w": 93,
  "in </w>": 94,
  "y ou": 95,
  "e n</w>": 96,
  "l i": 97,
  "o n</w>": 98,
  "m e</w>": 99,
  "a c": 100,
  "i t</w>": 101,
  "wa s</w>": 102,
  "you </w>": 103,
  "ll </w>": 104,
  "h er</w>": 105,
  "e s</w>": 106,
  "r o": 107,
  "g h": 108,
  "t i": 109,
  "b e": 110,
  "w h": 111,
  "s he</w>": 112,
  "or </w>": 113,
  "hi s</w>": 114,
  "s t</w>": 115,
  "e l": 116,
  "w i": 117,
  "th at</w>": 118,
  "th </w>": 119,
  "a l": 120,
  "an </w>": 121,
  "c h": 122,
  "r i": 123,
  "v e</w>": 124,
  "l d</w>": 125,
  "o o": 126,
  "s i": 127,
  "l e": 128,
  "er e</w>": 129,
  "s a": 130,
  "l y</w>": 131,
  "d i": 132,
  "s h": 133,
  "th e": 134,
  "m y</w>": 135,
  "u r": 136,
  "ow </w>": 137,
  "l e</w>": 138,
  "a t": 139,
  "i s</w>": 140,
  "b u": 141,
  "s e</w>": 142,
  "i r": 143,
  "n e": 144,
  "ou ld</w>": 145,
  "ou t</w>": 146,
  "n '": 147,
  "n' t</w>": 148,
  "o m": 149,
  "n o": 150,
  "a s</w>": 151,
  "s e": 152,
  "' s</w>": 153,
  "wi th</w>": 154,
  "ha d</w>": 155,
  "m a": 156,
  "k e</w>": 157,
  "gh t</w>": 158,
  "a b": 159,
  "f or</w>": 160,
  "u n": 161,
  "on e</w>": 162,
  "bu t</w>": 163,
  "l a": 164,
  "r a": 165,
  "c a": 166,
  "d e": 167,
  "c e</w>": 168,
  "hi m</w>": 169,
  "l o": 170,
  "h e": 171,
  "k ed</w>": 172,
  "e v": 173,
  "p p": 174,
  "m i": 175,
  "b e</w>": 176,
  "i d</w>": 177,
  "re a": 178,
  "t t": 179,
  "s p": 180,
  "d o</w>": 181,
  "th er</w>": 182,
  "ou n": 183,
  "e t</w>": 184,
  "s s</w>": 185,
  "t s</w>": 186,
  "t ed</w>": 187,
  "d e</w>": 188,
  "a g": 189,
  "n ow</w>": 190,
  "no t</w>": 191,
  "en t</w>": 192,
  "wh at</w>": 193,
  "f or": 194,
  "ac k</w>": 195,
  "m o": 196,
  "c o": 197,
  "ha ve</w>": 198,
  "f e": 199,
  "u p</w>": 200,
  "ch </w>": 201,
  "sa id</w>": 202,
  "the y</w>": 203,
  "l oo": 204,
  "th ing</w>": 205,
  "w e</w>": 206,
  "al </w>": 207,
  "f ro": 208,
  "v er</w>": 209,
  "a s": 210,
  "k ing</w>": 211,
  "d s</w>": 212,
  "th is</w>": 213,
  "t o": 214,
  "s o</w>": 215,
  "fro m</w>": 216,
  "di d</w>": 217,
  "g o": 218,
  "w e": 219,
  "ar </w>": 220,
  "t a": 221,
  "i c": 222,
  "r u": 223,
  "s u": 224,
  "c on": 225,
  "t e": 226,
  "a ll</w>": 227,
  "ow n</w>": 228,
  "gh </w>": 229,
  "j u": 230,
  "c ould</w>": 231,
  "m e": 232,
  "a d</w>": 233,
  "s ed</w>": 234,
  "wa y</w>": 235,
  "w ould</w>": 236,
  "w ere</w>": 237,
  "d o": 238,
  "ll y</w>": 239,
  "ar e</w>": 240,
  "t er</w>": 241,
  "b o": 242,
  "ti on</w>": 243,
  "s o": 244,
  "li ke</w>": 245,
  "i f</w>": 246,
  "er s</w>": 247,
  "w or": 248,
  "b ack</w>": 249,
  "ir </w>": 250,
  "oun d</w>": 251,
  "th ere</w>": 252,
  "d ed</w>": 253,
  "e x": 254,
  "ou gh</w>": 255,
  "q u": 256,
  "d a": 257,
  "n o</w>": 258,
  "ar d</w>": 259,
  "m or": 260,
  "f i": 261,
  "h o": 262,
  "in g": 263,
  "in to</w>": 264,
  "ju st</w>": 265,
  "' d</w>": 266,
  "wh en</w>": 267,
  "p u": 268,
  "ab out</w>": 269,
  "i t": 270,
  "p o": 271,
  "w an": 272,
  "th en</w>": 273,
  "y es</w>": 274,
  "ac e</w>": 275,
  "m u": 276,
  "v er": 277,
  "in d</w>": 278,
  "f u": 279,
  "w hi": 280,
  "f a": 281,
  "m p": 282,
  "s c": 283,
  "d y</w>": 284,
  "the m</w>": 285,
  "om e": 286,
  "d ing</w>": 287,
  "t ur": 288,
  "k now</w>": 289,
  "be en</w>": 290,
  "c om": 291,
  "g u": 292,
  "s ome": 293,
  "l ed</w>": 294,
  "g r": 295,
  "p a": 296,
  "you r</w>": 297,
  "v i": 298,
  "st i": 299,
  "o ver</w>": 300,
  "o f": 301,
  "b y</w>": 302,
  "d own</w>": 303,
  "s el": 304,
  "o p": 305,
  "r e</w>": 306,
  "ag a": 307,
  "p ro": 308,
  "er ed</w>": 309,
  "oo d</w>": 310,
  "g e</w>": 311,
  "n i": 312,
  "ti me</w>": 313,
  "t r": 314,
  "el </w>": 315,
  "n t</w>": 316,
  "l u": 317,
  "c k</w>": 318,
  "y s</w>": 319,
  "g et</w>": 320,
  "p e": 321,
  "mor e</w>": 322,
  "t y</w>": 323,
  "m b": 324,
  "n ed</w>": 325,
  "o ther</w>": 326,
  "on g</w>": 327,
  "d er</w>": 328,
  "h ow</w>": 329,
  "s ur": 330,
  "e yes</w>": 331,
  "si de</w>": 332,
  "c i": 333,
  "p ar": 334,
  "p re": 335,
  "k s</w>": 336,
  "t ly</w>": 337,
  "in e</w>": 338,
  "le a": 339,
  "he ad</w>": 340,
  "ll ed</w>": 341,
  "p l": 342,
  "pp ed</w>": 343,
  "g i": 344,
  "sel f</w>": 345,
  "in k</w>": 346,
  "at e</w>": 347,
  "g e": 348,
  "a f": 349,
  "c an</w>": 350,
  "k i": 351,
  "k e": 352,
  "y ing</w>": 353,
  "u s</w>": 354,
  "g a": 355,
  "wh o</w>": 356,
  "ri ght</w>": 357,
  "th r": 358,
  "the ir</w>": 359,
  "for e</w>": 360,
  "p er": 361,
  "h an": 362,
  "ev er": 363,
  "m an</w>": 364,
  "be fore</w>": 365,
  "t er": 366,
  "ev en</w>": 367,
  "ar ound</w>": 368,
  "y e": 369,
  "h ere</w>": 370,
  "ca u": 371,
  "sh </w>": 372,
  "ou ght</w>": 373,
  "an y</w>": 374,
  ". .</w>": 375,
  "st e": 376,
  "ne w</w>": 377,
  "an y": 378,
  "ou r</w>": 379,
  "st ar": 380,
  "go ing</w>": 381,
  "el y</w>": 382,
  "t ing</w>": 383,
  "se e</w>": 384,
  ". ..</w>": 385,
  "oo k</w>": 386,
  "s s": 387,
  "n a": 388,
  "c lo": 389,
  "v ed</w>": 390,
  "p s</w>": 391,
  "c u": 392,
  "g o</w>": 393,
  "t w": 394,
  "c e": 395,
  "f ir": 396,
  "o m</w>": 397,
  "v ing</w>": 398,
  "of f</w>": 399,
  "on ly</w>": 400,
  "so me</w>": 401,
  "wan t</w>": 402,
  "th an</w>": 403,
  "' re</w>": 404,
  "ab le</w>": 405,
  "m ed</w>": 406,
  "h and</w>": 407,
  "wh ere</w>": 408,
  "thr ough</w>": 409,
  "loo ked</w>": 410,
  "t e</w>": 411,
  "th ink</w>": 412,
  "on s</w>": 413,
  "t en": 414,
  "wi ll</w>": 415,
  "f ace</w>": 416,
  "b r": 417,
  "ou s</w>": 418,
  "aga in</w>": 419,
  "s hi": 420,
  "m ar": 421,
  "v o": 422,
  "to o</w>": 423,
  "n ing</w>": 424,
  "b l": 425,
  "a d": 426,
  "a way</w>": 427,
  "h el": 428,
  "a lly</w>": 429,
  "e p</w>": 430,
  "sti ll</w>": 431,
  "some thing</w>": 432,
  "ch e": 433,
  "ro om</w>": 434,
  "f t</w>": 435,
  "ev er</w>": 436,
  "s si": 437,
  "co me</w>": 438,
  "j o": 439,
  "f e</w>": 440,
  "m s</w>": 441,
  "ing s</w>": 442,
  "st a": 443,
  "t u": 444,
  "we ll</w>": 445,
  "r y</w>": 446,
  "ne ver</w>": 447,
  "an t</w>": 448,
  "da y</w>": 449,
  "c ha": 450,
  "tt le</w>": 451,
  "d er": 452,
  "c ar": 453,
  "s mi": 454,
  "af ter</w>": 455,
  "b i": 456,
  "ou r": 457,
  "as ked</w>": 458,
  "' ll</w>": 459,
  "th ought</w>": 460,
  "g re": 461,
  "sh ed</w>": 462,
  "b rea": 463,
  "sp e": 464,
  "le t</w>": 465,
  "cau se</w>": 466,
  "g ood</w>": 467,
  "tw o</w>": 468,
  "an g": 469,
  "en d</w>": 470,
  "s sed</w>": 471,
  "h u": 472,
  "loo k</w>": 473,
  "se e": 474,
  "ma de</w>": 475,
  "an ce</w>": 476,
  "ch ed</w>": 477,
  "s on</w>": 478,
  "wh y</w>": 479,
  "at ed</w>": 480,
  "t ri": 481,
  "mu ch</w>": 482,
  "m in": 483,
  "go t</w>": 484,
  "tt ing</w>": 485,
  "m ent</w>": 486,
  "be cause</w>": 487,
  "g g": 488,
  "s ha": 489,
  "l ing</w>": 490,
  "f in": 491,
  "i ce</w>": 492,
  "k new</w>": 493,
  "tur ned</w>": 494,
  "st o": 495,
  "f r": 496,
  "do or</w>": 497,
  "ac h</w>": 498,
  "ar s</w>": 499,
  "li ttle</w>": 500,
  "mo st</w>": 501,
  "d u": 502,
  "en ed</w>": 503,
  "p i": 504,
  "wa l": 505,
  "f f": 506,
  "c k": 507,
  "sur e</w>": 508,
  "m an": 509,
  "i ts</w>": 510,
  "ta ke</w>": 511,
  "ha pp": 512,
  "l ong</w>": 513,
  "ma ke</w>": 514,
  "ever y": 515,
  "el t</w>": 516,
  "l es</w>": 517,
  "t al": 518,
  "f o": 519,
  "ac h": 520,
  "sa y</w>": 521,
  "fir st</w>": 522,
  "fu l</w>": 523,
  "b ed</w>": 524,
  "b a": 525,
  "d ar": 526,
  "c ed</w>": 527,
  "t ra": 528,
  "m on": 529,
  "f elt</w>": 530,
  "ll ing</w>": 531,
  "ca me</w>": 532,
  "t ru": 533,
  "bo dy</w>": 534,
  "p ri": 535,
  "wan ted</w>": 536,
  "c t</w>": 537,
  "t ook</w>": 538,
  "s en": 539,
  "f ri": 540,
  "re e</w>": 541,
  "ne ed</w>": 542,
  "b le</w>": 543,
  "s er": 544,
  "a pp": 545,
  "p la": 546,
  "d d": 547,
  "te ll</w>": 548,
  "han ds</w>": 549,
  "v es</w>": 550,
  "rea lly</w>": 551,
  "st u": 552,
  "t ow": 553,
  "ver y</w>": 554,
  "c a</w>": 555,
  "s li": 556,
  "o se</w>": 557,
  "sh o": 558,
  "e ar": 559,
  "w ar": 560,
  "r ed</w>": 561,
  "aga in": 562,
  "s in": 563,
  "again st</w>": 564,
  "d re": 565,
  "s k": 566,
  "ha s</w>": 567,
  "sh ould</w>": 568,
  "j e": 569,
  "vo ice</w>": 570,
  "z e</w>": 571,
  "wa t": 572,
  "ni ght</w>": 573,
  "en ce</w>": 574,
  "a m</w>": 575,
  "qu e": 576,
  "th ough</w>": 577,
  "g l": 578,
  "st r": 579,
  "wi th": 580,
  "pe op": 581,
  "le ft</w>": 582,
  "p t</w>": 583,
  "whi le</w>": 584,
  "whi ch</w>": 585,
  "ow ed</w>": 586,
  "rea dy</w>": 587,
  "to ld</w>": 588,
  "peop le</w>": 589,
  "la st</w>": 590,
  "p h": 591,
  "an other</w>": 592,
  "c or": 593,
  "c hi": 594,
  "s ing</w>": 595,
  "m om": 596,
  "ag e</w>": 597,
  "con t": 598,
  "b ro": 599,
  "li fe</w>": 600,
  "w om": 601,
  "la u": 602,
  "ou s": 603,
  "m at": 604,
  "s l": 605,
  "ic </w>": 606,
  "c ked</w>": 607,
  "i l": 608,
  "tt er</w>": 609,
  "k n": 610,
  "m es</w>": 611,
  "fe w</w>": 612,
  "any thing</w>": 613,
  "p e</w>": 614,
  "wa ys</w>": 615,
  "c re": 616,
  "v e": 617,
  "s or": 618,
  "j a": 619,
  "g ra": 620,
  "e ss</w>": 621,
  "st ed</w>": 622,
  "h ind</w>": 623,
  "ma y": 624,
  "no thing</w>": 625,
  "be ing</w>": 626,
  "be hind</w>": 627,
  "ur e</w>": 628,
  "en ough</w>": 629,
  "in ed</w>": 630,
  "s w": 631,
  "k a": 632,
  "w ent</w>": 633,
  "fe el</w>": 634,
  "do es</w>": 635,
  "en ts</w>": 636,
  "sh ou": 637,
  "an d": 638,
  "a h</w>": 639,
  "un ti": 640,
  "ll s</w>": 641,
  "mi ght</w>": 642,
  "c r": 643,
  "sa w</w>": 644,
  "g ir": 645,
  "z ed</w>": 646,
  "th ings</w>": 647,
  "ou se</w>": 648,
  "he ar": 649,
  "b ab": 650,
  "unti l</w>": 651,
  "c le": 652,
  "ic k</w>": 653,
  "p le": 654,
  "li ght</w>": 655,
  "may be</w>": 656,
  "th ose</w>": 657,
  "he a": 658,
  "pu t</w>": 659,
  "d ra": 660,
  "ow ing</w>": 661,
  "x t</w>": 662,
  "ow s</w>": 663,
  "a u": 664,
  "st er</w>": 665,
  "f ind</w>": 666,
  "f ing": 667,
  "c la": 668,
  "loo king</w>": 669,
  "t re": 670,
  "f ac": 671,
  "pl ace</w>": 672,
  "un der": 673,
  "ever y</w>": 674,
  "m ind</w>": 675,
  "m y": 676,
  "it y</w>": 677,
  "h un": 678,
  "on ce</w>": 679,
  "ra i": 680,
  "fr on": 681,
  "ti ons</w>": 682,
  "m ou": 683,
  "ch ing</w>": 684,
  "ha ir</w>": 685,
  "lo ve</w>": 686,
  "w in": 687,
  "m er": 688,
  "i m": 689,
  "mom ent</w>": 690,
  "bo th</w>": 691,
  "be g": 692,
  "mb er</w>": 693,
  "h ouse</w>": 694,
  "al ways</w>": 695,
  "a tion</w>": 696,
  "s ma": 697,
  "c ur": 698,
  "h ar": 699,
  "si l": 700,
  "ne xt</w>": 701,
  "it e</w>": 702,
  "b ri": 703,
  "g en": 704,
  "an s</w>": 705,
  "d ri": 706,
  "fron t</w>": 707,
  "ro ss</w>": 708,
  "in side</w>": 709,
  "l ar": 710,
  "l at": 711,
  "le ss</w>": 712,
  "st re": 713,
  "ne ss</w>": 714,
  "st or": 715,
  "st an": 716,
  "o h</w>": 717,
  "h ard</w>": 718,
  "b loo": 719,
  "n er</w>": 720,
  "h er": 721,
  "k en</w>": 722,
  "hel p</w>": 723,
  "st ood</w>": 724,
  "ne e": 725,
  "f ound</w>": 726,
  "g er</w>": 727,
  "c er": 728,
  "with out</w>": 729,
  "o ld</w>": 730,
  "b ar": 731,
  "wor k</w>": 732,
  "ma g": 733,
  "n or": 734,
  "ll i": 735,
  "po in": 736,
  "gi ve</w>": 737,
  "mou th</w>": 738,
  "t or": 739,
  "ke ep</w>": 740,
  "t able</w>": 741,
  "w ard</w>": 742,
  "hi m": 743,
  "p ing</w>": 744,
  "sa me</w>": 745,
  "in ter": 746,
  "p ed</w>": 747,
  "shou l": 748,
  "every thing</w>": 749,
  "some one</w>": 750,
  "him self</w>": 751,
  "ar ms</w>": 752,
  "he ard</w>": 753,
  "i l</w>": 754,
  "si on</w>": 755,
  "at ing</w>": 756,
  "wom an</w>": 757,
  "tow ard</w>": 758,
  "v a": 759,
  "li e": 760,
  "be t": 761,
  "ho me</w>": 762,
  "op en</w>": 763,
  "fa ther</w>": 764,
  "g s</w>": 765,
  "d r": 766,
  "d ro": 767,
  "f lo": 768,
  "ac k": 769,
  "tr ying</w>": 770,
  "s we": 771,
  "c our": 772,
  "c ted</w>": 773,
  "be tter</w>": 774,
  "pu lled</w>": 775,
  "c tion</w>": 776,
  "m en</w>": 777,
  "o l": 778,
  "ri ed</w>": 779,
  "we en</w>": 780,
  "e ach</w>": 781,
  "bet ween</w>": 782,
  "an k</w>": 783,
  "mo ther</w>": 784,
  "ar m</w>": 785,
  "d ly</w>": 786,
  "b ur": 787,
  "see med</w>": 788,
  "oo l</w>": 789,
  "k es</w>": 790,
  "se con": 791,
  "an sw": 792,
  "s le": 793,
  "c ra": 794,
  "t on": 795,
  "f l": 796,
  "smi le</w>": 797,
  "y ed</w>": 798,
  "ach ed</w>": 799,
  "c oun": 800,
  "fe el": 801,
  "d ded</w>": 802,
  "ac ross</w>": 803,
  "h ur": 804,
  "pp ing</w>": 805,
  "qu i": 806,
  "st and</w>": 807,
  "my self</w>": 808,
  "i mp": 809,
  "th ree</w>": 810,
  "sin ce</w>": 811,
  "a th</w>": 812,
  "p ic": 813,
  "al ready</w>": 814,
  "en ti": 815,
  "at t": 816,
  "t ou": 817,
  "e i": 818,
  "star ted</w>": 819,
  "sma ll</w>": 820,
  "sp o": 821,
  "rea li": 822,
  "wor ds</w>": 823,
  "ga ve</w>": 824,
  "al most</w>": 825,
  "lau gh": 826,
  "v en</w>": 827,
  "un der</w>": 828,
  "ou t": 829,
  "s es</w>": 830,
  "ye ars</w>": 831,
  "d ge</w>": 832,
  "se t</w>": 833,
  "d one</w>": 834,
  "fa mi": 835,
  "par t</w>": 836,
  "m m": 837,
  "er ing</w>": 838,
  "ka y</w>": 839,
  "re me": 840,
  "hear t</w>": 841,
  "en ing</w>": 842,
  "u sed</w>": 843,
  "o b": 844,
  "p r": 845,
  "li ps</w>": 846,
  "do ing</w>": 847,
  "o kay</w>": 848,
  "dar k</w>": 849,
  "to ge": 850,
  "f re": 851,
  "fo ll": 852,
  "ha l": 853,
  "sto p</w>": 854,
  "tri ed</w>": 855,
  "com ing</w>": 856,
  "toge ther</w>": 857,
  "g la": 858,
  "ar ed</w>": 859,
  "el se</w>": 860,
  "wal ked</w>": 861,
  "an ge</w>": 862,
  "l on": 863,
  "min u": 864,
  "ow er</w>": 865,
  "u l": 866,
  "w on": 867,
  "ar y</w>": 868,
  "st s</w>": 869,
  "p an": 870,
  "u p": 871,
  "ous ly</w>": 872,
  "wor ld</w>": 873,
  "se en</w>": 874,
  "mu st</w>": 875,
  "c ou": 876,
  "bl ack</w>": 877,
  "no dded</w>": 878,
  "fe et</w>": 879,
  "in s</w>": 880,
  "tur n</w>": 881,
  "hel d</w>": 882,
  "me an</w>": 883,
  "re s</w>": 884,
  "ic k": 885,
  "bloo d</w>": 886,
  "m any</w>": 887,
  "tr y</w>": 888,
  "e st</w>": 889,
  "c l": 890,
  "gir l</w>": 891,
  "di ff": 892,
  "e k</w>": 893,
  "the se</w>": 894,
  "ti ve</w>": 895,
  "of f": 896,
  "gg ed</w>": 897,
  "gh ts</w>": 898,
  "ti mes</w>": 899,
  "s at</w>": 900,
  "re p": 901,
  "g ar": 902,
  "p as": 903,
  "n u": 904,
  "su pp": 905,
  "a li": 906,
  "f ar</w>": 907,
  "clo se</w>": 908,
  "lo t</w>": 909,
  "ca ll</w>": 910,
  "mo ved</w>": 911,
  "he ar</w>": 912,
  "e y</w>": 913,
  "c ar</w>": 914,
  "l s</w>": 915,
  "ti on": 916,
  "que sti": 917,
  "h or": 918,
  "brea th</w>": 919,
  "n a</w>": 920,
  "an e</w>": 921,
  "y et</w>": 922,
  "d ered</w>": 923,
  "sa ys</w>": 924,
  "th ers</w>": 925,
  "k ind</w>": 926,
  "ss ing</w>": 927,
  "fu lly</w>": 928,
  "ssi on</w>": 929,
  "a ir</w>": 930,
  "lea ve</w>": 931,
  "or t</w>": 932,
  "ch o": 933,
  "ch ar": 934,
  "f la": 935,
  "p er</w>": 936,
  "t es</w>": 937,
  "g ed</w>": 938,
  "smi led</w>": 939,
  "g ri": 940,
  "g one</w>": 941,
  "tal k</w>": 942,
  "d ers</w>": 943,
  "co l": 944,
  "ca lled</w>": 945,
  "c en": 946,
  "be lie": 947,
  "si g": 948,
  "her self</w>": 949,
  "ge tting</w>": 950,
  "fing ers</w>": 951,
  "wa ter</w>": 952,
  "flo or</w>": 953,
  "d es</w>": 954,
  "b it</w>": 955,
  "or s</w>": 956,
  "y e</w>": 957,
  "c lu": 958,
  "na me</w>": 959,
  "nee ded</w>": 960,
  "beg an</w>": 961,
  "th in": 962,
  "whi sp": 963,
  "al so</w>": 964,
  "m ur": 965,
  "ph one</w>": 966,
  "de ci": 967,
  "m ing</w>": 968,
  "sh ing</w>": 969,
  "ta in</w>": 970,
  "wor d</w>": 971,
  "sh ook</w>": 972,
  "d en</w>": 973,
  "a k</w>": 974,
  "tu ally</w>": 975,
  "cour se</w>": 976,
  "ye ah</w>": 977,
  "che st</w>": 978,
  "fri end</w>": 979,
  "he ll</w>": 980,
  "i de": 981,
  "pro bab": 982,
  "tur e</w>": 983,
  "as k</w>": 984,
  "fin ally</w>": 985,
  "m en": 986,
  "probab ly</w>": 987,
  "bi g</w>": 988,
  "secon d</w>": 989,
  "c li": 990,
  "c es</w>": 991,
  "su ch</w>": 992,
  "su dd": 993,
  "st ru": 994,
  "b le": 995,
  "i ous</w>": 996,
  "gr ab": 997,
  "po ssi": 998,
  "w r": 999,
  "de ep</w>": 1000,
  "lea st</w>": 1001,
  "sh u": 1002,
  "win d": 1003,
  "al ong</w>": 1004,
  "happ ened</w>": 1005,
  "v en": 1006,
  "f f</w>": 1007,
  "pa st</w>": 1008,
  "cont in": 1009,
  "re ached</w>": 1010,
  "da m": 1011,
  "st ing</w>": 1012,
  "t en</w>": 1013,
  "gr ound</w>": 1014,
  "ho l": 1015,
  "be st</w>": 1016,
  "go d</w>": 1017,
  "m ine</w>": 1018,
  "an ed</w>": 1019,
  "belie ve</w>": 1020,
  "sor ry</w>": 1021,
  "el e": 1022,
  "it ing</w>": 1023,
  "b ra": 1024,
  "di s": 1025,
  "ma king</w>": 1026,
  "mo ve</w>": 1027,
  "f le": 1028,
  "lea se</w>": 1029,
  "b lu": 1030,
  "contin u": 1031,
  "lat er</w>": 1032,
  "sto pped</w>": 1033,
  "hal f</w>": 1034,
  "de ad</w>": 1035,
  "s ound</w>": 1036,
  "feel ing</w>": 1037,
  "i ght</w>": 1038,
  "sur pri": 1039,
  "n y</w>": 1040,
  "gre at</w>": 1041,
  "ar ds</w>": 1042,
  "te mp": 1043,
  "so on</w>": 1044,
  "s y": 1045,
  "op ened</w>": 1046,
  "whi te</w>": 1047,
  "b en": 1048,
  "w o</w>": 1049,
  "any one</w>": 1050,
  "rea d</w>": 1051,
  "fri en": 1052,
  "ta king</w>": 1053,
  "da ys</w>": 1054,
  "n s</w>": 1055,
  "diff er": 1056,
  "ar ing</w>": 1057,
  "ir e</w>": 1058,
  "qu ick": 1059,
  "wh o": 1060,
  "f ted</w>": 1061,
  "b ad</w>": 1062,
  "al e</w>": 1063,
  "in ing</w>": 1064,
  "every one</w>": 1065,
  "fami ly</w>": 1066,
  "re st</w>": 1067,
  "a ll": 1068,
  "to p</w>": 1069,
  "ac t</w>": 1070,
  "i es</w>": 1071,
  "ide a</w>": 1072,
  "ver ed</w>": 1073,
  "di re": 1074,
  "s oun": 1075,
  "r un": 1076,
  "wa i": 1077,
  "shoul der</w>": 1078,
  "stan ding</w>": 1079,
  "c king</w>": 1080,
  "tt y</w>": 1081,
  "f oo": 1082,
  "sk in</w>": 1083,
  "for ward</w>": 1084,
  "gl an": 1085,
  "at ely</w>": 1086,
  "ke pt</w>": 1087,
  "t al</w>": 1088,
  "o ver": 1089,
  "com ple": 1090,
  "an i": 1091,
  "mor ning</w>": 1092,
  "ir s</w>": 1093,
  "c are</w>": 1094,
  "ac ed</w>": 1095,
  "b or": 1096,
  "you n": 1097,
  "m p</w>": 1098,
  "th ro": 1099,
  "t or</w>": 1100,
  "no ti": 1101,
  "ow ly</w>": 1102,
  "quick ly</w>": 1103,
  "b la": 1104,
  "c al": 1105,
  "i g": 1106,
  "u se</w>": 1107,
  "sta y</w>": 1108,
  "wa ll</w>": 1109,
  "en ly</w>": 1110,
  "r an</w>": 1111,
  "b oo": 1112,
  "l an": 1113,
  "al one</w>": 1114,
  "e a": 1115,
  "st ri": 1116,
  "gu y</w>": 1117,
  "sl owly</w>": 1118,
  "clo sed</w>": 1119,
  "on es</w>": 1120,
  "d ou": 1121,
  "w ri": 1122,
  "on to</w>": 1123,
  "s la": 1124,
  "l ow</w>": 1125,
  "ex pe": 1126,
  "s k</w>": 1127,
  "ha ving</w>": 1128,
  "un i": 1129,
  "r t</w>": 1130,
  "ho ld</w>": 1131,
  "be au": 1132,
  "reme mber</w>": 1133,
  "thin king</w>": 1134,
  "ar ly</w>": 1135,
  "ch es</w>": 1136,
  "t wi": 1137,
  "b er": 1138,
  "z z": 1139,
  "spe ci": 1140,
  "me di": 1141,
  "bo y</w>": 1142,
  "s on": 1143,
  "on d</w>": 1144,
  "s er</w>": 1145,
  "f li": 1146,
  "c al</w>": 1147,
  "p lease</w>": 1148,
  "li st": 1149,
  "th s</w>": 1150,
  "li ed</w>": 1151,
  "e mp": 1152,
  "star ed</w>": 1153,
  "r ow</w>": 1154,
  "wr ong</w>": 1155,
  "ca lly</w>": 1156,
  "m ir": 1157,
  "tal king</w>": 1158,
  "ne ck</w>": 1159,
  "fir e</w>": 1160,
  "re al</w>": 1161,
  "bu il": 1162,
  "e f": 1163,
  "wat ched</w>": 1164,
  "ei ther</w>": 1165,
  "c ro": 1166,
  "ki ll</w>": 1167,
  "s ch": 1168,
  "en tly</w>": 1169,
  "pro te": 1170,
  "fu ll</w>": 1171,
  "ti c</w>": 1172,
  "hur t</w>": 1173,
  "poin t</w>": 1174,
  "f ine</w>": 1175,
  "ti es</w>": 1176,
  "minu tes</w>": 1177,
  "t ely</w>": 1178,
  "ha t": 1179,
  "at ten": 1180,
  "gh tly</w>": 1181,
  "mo m</w>": 1182,
  "ac tually</w>": 1183,
  "ru n</w>": 1184,
  "hi gh</w>": 1185,
  "shi p</w>": 1186,
  "tt en</w>": 1187,
  "st ro": 1188,
  "out side</w>": 1189,
  "fac t</w>": 1190,
  "mat ter</w>": 1191,
  "th re": 1192,
  "v el": 1193,
  "pa in</w>": 1194,
  "re sp": 1195,
  "di sa": 1196,
  "p ter</w>": 1197,
  "sudd enly</w>": 1198,
  "c ks</w>": 1199,
  "ss es</w>": 1200,
  "st ra": 1201,
  "lo st</w>": 1202,
  "under stand</w>": 1203,
  "l ine</w>": 1204,
  "pl an": 1205,
  "wa it</w>": 1206,
  "co ll": 1207,
  "m r</w>": 1208,
  "va mp": 1209,
  "g ing</w>": 1210,
  "th er": 1211,
  "a w": 1212,
  "c ing</w>": 1213,
  "m on</w>": 1214,
  "h on": 1215,
  "p ur": 1216,
  "ga ze</w>": 1217,
  "ca p": 1218,
  "d ad</w>": 1219,
  "han d": 1220,
  "b ru": 1221,
  "di e</w>": 1222,
  "li e</w>": 1223,
  "wa iting</w>": 1224,
  "f ur": 1225,
  "our s</w>": 1226,
  "frien ds</w>": 1227,
  "p le</w>": 1228,
  "c at": 1229,
  "m et</w>": 1230,
  "ste ad</w>": 1231,
  "d rea": 1232,
  "st er": 1233,
  "pre tty</w>": 1234,
  "cau ght</w>": 1235,
  "ag o</w>": 1236,
  "wal k</w>": 1237,
  "who le</w>": 1238,
  "t ers</w>": 1239,
  "en s</w>": 1240,
  "t un": 1241,
  "you r": 1242,
  "s ent</w>": 1243,
  "po li": 1244,
  "in stead</w>": 1245,
  "c y</w>": 1246,
  "fi g": 1247,
  "answ er</w>": 1248,
  "blu e</w>": 1249,
  "laugh ed</w>": 1250,
  "fi ve</w>": 1251,
  "n at": 1252,
  "en g": 1253,
  "we a": 1254,
  "cha pter</w>": 1255,
  "ma y</w>": 1256,
  "t on</w>": 1257,
  "cont ro": 1258,
  "ta ken</w>": 1259,
  "differ ent</w>": 1260,
  "w hat": 1261,
  "co ld</w>": 1262,
  "re la": 1263,
  "o thers</w>": 1264,
  "st om": 1265,
  "tt ed</w>": 1266,
  "si mp": 1267,
  "s it</w>": 1268,
  "car e": 1269,
  "i a</w>": 1270,
  "l ou": 1271,
  "f our</w>": 1272,
  "w s</w>": 1273,
  "bro ther</w>": 1274,
  "z ing</w>": 1275,
  "sc rea": 1276,
  "fa st</w>": 1277,
  "e ks</w>": 1278,
  "gu e</w>": 1279,
  "d in": 1280,
  "de sp": 1281,
  "ch ang": 1282,
  "s wi": 1283,
  "loo ks</w>": 1284,
  "le gs</w>": 1285,
  "fin i": 1286,
  "di st": 1287,
  "l or": 1288,
  "v y</w>": 1289,
  "p en": 1290,
  "n e</w>": 1291,
  "s ou": 1292,
  "i mag": 1293,
  "ang er</w>": 1294,
  "al s</w>": 1295,
  "whisp ered</w>": 1296,
  "per fe": 1297,
  "youn g</w>": 1298,
  "glan ced</w>": 1299,
  "hi t</w>": 1300,
  "in t</w>": 1301,
  "t om": 1302,
  "st rai": 1303,
  "ca se</w>": 1304,
  "ear ed</w>": 1305,
  "n er": 1306,
  "fe ll</w>": 1307,
  "happ y</w>": 1308,
  "e ping</w>": 1309,
  "what ever</w>": 1310,
  "rea son</w>": 1311,
  "br ought</w>": 1312,
  "shi t</w>": 1313,
  "thro at</w>": 1314,
  "t in": 1315,
  "possi ble</w>": 1316,
  "com p": 1317,
  "questi on</w>": 1318,
  "sen se</w>": 1319,
  "wind ow</w>": 1320,
  "star t</w>": 1321,
  "de ath</w>": 1322,
  "ple as": 1323,
  "ste pped</w>": 1324,
  "hol ding</w>": 1325,
  "se ver": 1326,
  "re n": 1327,
  "th ir": 1328,
  "ex ac": 1329,
  "me ant</w>": 1330,
  "ll ow</w>": 1331,
  "con si": 1332,
  "s na": 1333,
  "en ty</w>": 1334,
  "p at": 1335,
  "e s": 1336,
  "sch ool</w>": 1337,
  "ki ss</w>": 1338,
  "sho t</w>": 1339,
  "k ne": 1340,
  "c le</w>": 1341,
  "exac tly</w>": 1342,
  "in ten": 1343,
  "shi rt</w>": 1344,
  "so f": 1345,
  "ac ked</w>": 1346,
  "sh e": 1347,
  "cha ir</w>": 1348,
  "mp ed</w>": 1349,
  "so l": 1350,
  "qu ite</w>": 1351,
  "si tting</w>": 1352,
  "th an": 1353,
  "le aned</w>": 1354,
  "lar ge</w>": 1355,
  "a m": 1356,
  "i d": 1357,
  "stor y</w>": 1358,
  "dam n</w>": 1359,
  "disa pp": 1360,
  "wat ching</w>": 1361,
  "t y": 1362,
  "ch ange</w>": 1363,
  "p ower</w>": 1364,
  "di ed</w>": 1365,
  "w ra": 1366,
  "th ank</w>": 1367,
  "sh ow</w>": 1368,
  "ho pe</w>": 1369,
  "reali zed</w>": 1370,
  "r ing</w>": 1371,
  "ch ri": 1372,
  "c ru": 1373,
  "hu man</w>": 1374,
  "tou ch</w>": 1375,
  "i ll</w>": 1376,
  "beau ti": 1377,
  "kn own</w>": 1378,
  "mo ving</w>": 1379,
  "co vered</w>": 1380,
  "s me": 1381,
  "c ity</w>": 1382,
  "per son</w>": 1383,
  "ho t</w>": 1384,
  "mb led</w>": 1385,
  "ex pla": 1386,
  "run ning</w>": 1387,
  "e ar</w>": 1388,
  "d an": 1389,
  "p or": 1390,
  "foll owed</w>": 1391,
  "v ic": 1392,
  "gu ess</w>": 1393,
  "wat ch</w>": 1394,
  "r an": 1395,
  "l in": 1396,
  "t ered</w>": 1397,
  "de li": 1398,
  "ab o": 1399,
  "resp on": 1400,
  "h ours</w>": 1401,
  "s ing": 1402,
  "pro mi": 1403,
  "fi ce</w>": 1404,
  "clo ser</w>": 1405,
  "gla ss</w>": 1406,
  "sever al</w>": 1407,
  "tru e</w>": 1408,
  "c ir": 1409,
  "continu ed</w>": 1410,
  "grab bed</w>": 1411,
  "sh ru": 1412,
  "k er</w>": 1413,
  "t ch</w>": 1414,
  "app ro": 1415,
  "sle ep</w>": 1416,
  "rep lied</w>": 1417,
  "lo ved</w>": 1418,
  "li ty</w>": 1419,
  "wh e": 1420,
  "e ye</w>": 1421,
  "gh t": 1422,
  "beauti ful</w>": 1423,
  "com for": 1424,
  "atten tion</w>": 1425,
  "t own</w>": 1426,
  "s qu": 1427,
  "d en": 1428,
  "per i": 1429,
  "sta irs</w>": 1430,
  "t ment</w>": 1431,
  "re ma": 1432,
  "n ar": 1433,
  "pu shed</w>": 1434,
  "ex pre": 1435,
  "e as": 1436,
  "cu t</w>": 1437,
  "ye ar</w>": 1438,
  "f er": 1439,
  "ar i": 1440,
  "ste p</w>": 1441,
  "ni ce</w>": 1442,
  "lon ger</w>": 1443,
  "u su": 1444,
  "l ate</w>": 1445,
  "ce pt</w>": 1446,
  "be side</w>": 1447,
  "tt ered</w>": 1448,
  "su b": 1449,
  "gh ter</w>": 1450,
  "sa ying</w>": 1451,
  "s wa": 1452,
  "ll e</w>": 1453,
  "ch en</w>": 1454,
  "ch ance</w>": 1455,
  "shoul ders</w>": 1456,
  "gi ven</w>": 1457,
  "ton ight</w>": 1458,
  "se ar": 1459,
  "bab y</w>": 1460,
  "th ou": 1461,
  "d a</w>": 1462,
  "li ve</w>": 1463,
  "sc re": 1464,
  "li ving</w>": 1465,
  "le ar": 1466,
  "l un": 1467,
  "se at</w>": 1468,
  "s y</w>": 1469,
  "k it": 1470,
  "u m</w>": 1471,
  "si gh": 1472,
  "i e</w>": 1473,
  "gh ten": 1474,
  "el s</w>": 1475,
  "ha ps</w>": 1476,
  "gu n</w>": 1477,
  "k no": 1478,
  "per haps</w>": 1479,
  "c ri": 1480,
  "to day</w>": 1481,
  "der ing</w>": 1482,
  "b ack": 1483,
  "pro ble": 1484,
  "o c": 1485,
  "tur ning</w>": 1486,
  "mon ey</w>": 1487,
  "e d": 1488,
  "chi l": 1489,
  "sh ar": 1490,
  "pi e": 1491,
  "fe ar</w>": 1492,
  "l and</w>": 1493,
  "b ook</w>": 1494,
  "te ars</w>": 1495,
  "jo b</w>": 1496,
  "contro l</w>": 1497,
  "j ack</w>": 1498,
  "j er": 1499,
  "m ents</w>": 1500,
  "p al": 1501,
  "dro pped</w>": 1502,
  "te en</w>": 1503,
  "b b": 1504,
  "t t</w>": 1505,
  "dou b": 1506,
  "sa tion</w>": 1507,
  "dd le</w>": 1508,
  "d ent</w>": 1509,
  "lea ving</w>": 1510,
  "le y</w>": 1511,
  "fi lled</w>": 1512,
  "cou ple</w>": 1513,
  "shu t</w>": 1514,
  "f ree</w>": 1515,
  "v in": 1516,
  "ro se</w>": 1517,
  "cle ar</w>": 1518,
  "ur ed</w>": 1519,
  "fi ght</w>": 1520,
  "of fice</w>": 1521,
  "v ely</w>": 1522,
  "kit chen</w>": 1523,
  "s un": 1524,
  "ne ar</w>": 1525,
  "wom en</w>": 1526,
  "abo ve</w>": 1527,
  "sh ort</w>": 1528,
  "h ow": 1529,
  "g ro": 1530,
  "me et</w>": 1531,
  "si ster</w>": 1532,
  "vi e": 1533,
  "s ar": 1534,
  "l ar</w>": 1535,
  "bu sin": 1536,
  "ur ing</w>": 1537,
  "deci ded</w>": 1538,
  "cu ri": 1539,
  "v el</w>": 1540,
  "so ft</w>": 1541,
  "si des</w>": 1542,
  "l t</w>": 1543,
  "par ents</w>": 1544,
  "go tten</w>": 1545,
  "la y</w>": 1546,
  "me mor": 1547,
  "al ex": 1548,
  "ac ti": 1549,
  "z y</w>": 1550,
  "c an": 1551,
  "pas sed</w>": 1552,
  "on ed</w>": 1553,
  "sk y</w>": 1554,
  "for m</w>": 1555,
  "at es</w>": 1556,
  "rai sed</w>": 1557,
  "e th</w>": 1558,
  "ob vi": 1559,
  "con ver": 1560,
  "po si": 1561,
  "se cre": 1562,
  "any way</w>": 1563,
  "spo ke</w>": 1564,
  "ki lled</w>": 1565,
  "ar ri": 1566,
  "see ing</w>": 1567,
  "g y</w>": 1568,
  "wor king</w>": 1569,
  "sha d": 1570,
  "li fted</w>": 1571,
  "t ched</w>": 1572,
  "br ing</w>": 1573,
  "gr y</w>": 1574,
  "fi ed</w>": 1575,
  "ul t</w>": 1576,
  "comple tely</w>": 1577,
  "sor t</w>": 1578,
  "p ow": 1579,
  "stre et</w>": 1580,
  "ag ed</w>": 1581,
  "f lu": 1582,
  "sp i": 1583,
  "th u": 1584,
  "sil ence</w>": 1585,
  "dre ss</w>": 1586,
  "sa fe</w>": 1587,
  "dre w</w>": 1588,
  "ro ad</w>": 1589,
  "stom ach</w>": 1590,
  "g an</w>": 1591,
  "ce i": 1592,
  "tru th</w>": 1593,
  "or t": 1594,
  "tw enty</w>": 1595,
  "gi ving</w>": 1596,
  "supp o": 1597,
  "ste ps</w>": 1598,
  "tr ac": 1599,
  "ll a</w>": 1600,
  "wal king</w>": 1601,
  "war m</w>": 1602,
  "tr an": 1603,
  "w ol": 1604,
  "ra ther</w>": 1605,
  "cor ner</w>": 1606,
  "chi ld</w>": 1607,
  "star ing</w>": 1608,
  "str ong</w>": 1609,
  "gu ys</w>": 1610,
  "dar k": 1611,
  "c ent</w>": 1612,
  "busin ess</w>": 1613,
  "pu ll</w>": 1614,
  "vi si": 1615,
  "th es</w>": 1616,
  "r or</w>": 1617,
  "c tor</w>": 1618,
  "t ro": 1619,
  "ben e": 1620,
  "f all</w>": 1621,
  "re co": 1622,
  "s que": 1623,
  "in for": 1624,
  "strai ght</w>": 1625,
  "p hi": 1626,
  "gre en</w>": 1627,
  "sh es</w>": 1628,
  "im medi": 1629,
  "a ss</w>": 1630,
  "ra id</w>": 1631,
  "st one</w>": 1632,
  "v an": 1633,
  "b and</w>": 1634,
  "f un": 1635,
  "e dge</w>": 1636,
  "with in</w>": 1637,
  "pre ssed</w>": 1638,
  "ic i": 1639,
  "ta in": 1640,
  "i led</w>": 1641,
  "b ir": 1642,
  "li ev": 1643,
  "spe ak</w>": 1644,
  "buil ding</w>": 1645,
  "pic ked</w>": 1646,
  "in ning</w>": 1647,
  "happ en</w>": 1648,
  "chang ed</w>": 1649,
  "dra w": 1650,
  "t an": 1651,
  "expre ssion</w>": 1652,
  "ter ri": 1653,
  "pr in": 1654,
  "ig nor": 1655,
  "te eth</w>": 1656,
  "ing ly</w>": 1657,
  "noti ced</w>": 1658,
  "ne arly</w>": 1659,
  "c tly</w>": 1660,
  "f fe": 1661,
  "i s": 1662,
  "fing er</w>": 1663,
  "wai ted</w>": 1664,
  "f ood</w>": 1665,
  "cr ow": 1666,
  "d ding</w>": 1667,
  "an ing</w>": 1668,
  "ar e": 1669,
  "reme mb": 1670,
  "di es</w>": 1671,
  "ro lled</w>": 1672,
  "sigh ed</w>": 1673,
  "your self</w>": 1674,
  "kn owing</w>": 1675,
  "mi ss</w>": 1676,
  "gir ls</w>": 1677,
  "ck et</w>": 1678,
  "g on</w>": 1679,
  "af raid</w>": 1680,
  "in a</w>": 1681,
  "up on</w>": 1682,
  "ta tion</w>": 1683,
  "ma kes</w>": 1684,
  "qui et</w>": 1685,
  "suppo sed</w>": 1686,
  "wi de</w>": 1687,
  "enti re</w>": 1688,
  "ll er</w>": 1689,
  "h our</w>": 1690,
  "di sc": 1691,
  "thou ghts</w>": 1692,
  "tow ards</w>": 1693,
  "brea k</w>": 1694,
  "clo thes</w>": 1695,
  "con cer": 1696,
  "ag re": 1697,
  "ea si": 1698,
  "en jo": 1699,
  "ne i": 1700,
  "gr ou": 1701,
  "tr ou": 1702,
  "m a</w>": 1703,
  "w oo": 1704,
  "gr and": 1705,
  "pa in": 1706,
  "de al</w>": 1707,
  "re turned</w>": 1708,
  "b ly</w>": 1709,
  "su n</w>": 1710,
  "see m</w>": 1711,
  "si x</w>": 1712,
  "ce p": 1713,
  "gg ing</w>": 1714,
  "eas y</w>": 1715,
  "el d</w>": 1716,
  "de e": 1717,
  "we ek</w>": 1718,
  "st y</w>": 1719,
  "wor ked</w>": 1720,
  "i se</w>": 1721,
  "ce ss</w>": 1722,
  "c rea": 1723,
  "jo h": 1724,
  "ki ssed</w>": 1725,
  "s al": 1726,
  "o pp": 1727,
  "il s</w>": 1728,
  "chil dre": 1729,
  "wor ry</w>": 1730,
  "perfe ct</w>": 1731,
  "e ye": 1732,
  "ba g</w>": 1733,
  "m al</w>": 1734,
  "te lling</w>": 1735,
  "bene ath</w>": 1736,
  "x ed</w>": 1737,
  "tru st</w>": 1738,
  "minu te</w>": 1739,
  "at s</w>": 1740,
  "than ks</w>": 1741,
  "vamp ire</w>": 1742,
  "imp ort": 1743,
  "be come</w>": 1744,
  "sa m</w>": 1745,
  "mb </w>": 1746,
  "be d": 1747,
  "co ffe": 1748,
  "shru gged</w>": 1749,
  "si ght</w>": 1750,
  "b lo": 1751,
  "th i": 1752,
  "ti ght</w>": 1753,
  "at e": 1754,
  "bar ely</w>": 1755,
  "un g</w>": 1756,
  "wi fe</w>": 1757,
  "e f</w>": 1758,
  "pl aced</w>": 1759,
  "b s</w>": 1760,
  "childre n</w>": 1761,
  "ma tion</w>": 1762,
  "answ ered</w>": 1763,
  "coll e": 1764,
  "foo t</w>": 1765,
  "oun ded</w>": 1766,
  "bl in": 1767,
  "lor d</w>": 1768,
  "some times</w>": 1769,
  "he y</w>": 1770,
  "g ge": 1771,
  "e mo": 1772,
  "ton gue</w>": 1773,
  "surpri sed</w>": 1774,
  "won dered</w>": 1775,
  "emp ty</w>": 1776,
  "y er</w>": 1777,
  "fo l": 1778,
  "lau gh</w>": 1779,
  "pla y</w>": 1780,
  "ck y</w>": 1781,
  "fig ure</w>": 1782,
  "c ting</w>": 1783,
  "for e": 1784,
  "ow ned</w>": 1785,
  "immedi ately</w>": 1786,
  "th y</w>": 1787,
  "c oo": 1788,
  "d uring</w>": 1789,
  "de sk</w>": 1790,
  "f ra": 1791,
  "kn ows</w>": 1792,
  "an k": 1793,
  "poin ted</w>": 1794,
  "sli d</w>": 1795,
  "st e</w>": 1796,
  "coffe e</w>": 1797,
  "d red</w>": 1798,
  "e mb": 1799,
  "s m": 1800,
  "p id</w>": 1801,
  "e ts</w>": 1802,
  "at or</w>": 1803,
  "re ly</w>": 1804,
  "proble m</w>": 1805,
  "qui e": 1806,
  "ing ing</w>": 1807,
  "b al": 1808,
  "sc en": 1809,
  "cer tain</w>": 1810,
  "m med</w>": 1811,
  "ghten ed</w>": 1812,
  "pl an</w>": 1813,
  "da u": 1814,
  "y n</w>": 1815,
  "ac tion</w>": 1816,
  "mi ddle</w>": 1817,
  "t ar": 1818,
  "sel ves</w>": 1819,
  "b all</w>": 1820,
  "e li": 1821,
  "hea vy</w>": 1822,
  "s an": 1823,
  "app eared</w>": 1824,
  "ha ll</w>": 1825,
  "ach ing</w>": 1826,
  "gen er": 1827,
  "e ting</w>": 1828,
  "com m": 1829,
  "m oun": 1830,
  "in st": 1831,
  "af ter": 1832,
  "al though</w>": 1833,
  "at u": 1834,
  "l a</w>": 1835,
  "fini shed</w>": 1836,
  "mon ths</w>": 1837,
  "se tt": 1838,
  "we aring</w>": 1839,
  "s mo": 1840,
  "ch u": 1841,
  "k ni": 1842,
  "dr ink</w>": 1843,
  "la dy</w>": 1844,
  "qu ick</w>": 1845,
  "v al": 1846,
  "no se</w>": 1847,
  "as ed</w>": 1848,
  "pu lling</w>": 1849,
  "bo tt": 1850,
  "how ever</w>": 1851,
  "fu sed</w>": 1852,
  "hea ded</w>": 1853,
  "i an</w>": 1854,
  "any more</w>": 1855,
  "par tment</w>": 1856,
  "inter e": 1857,
  "g ni": 1858,
  "simp ly</w>": 1859,
  "th ed</w>": 1860,
  "li ked</w>": 1861,
  "b ar</w>": 1862,
  "or der</w>": 1863,
  "ke y</w>": 1864,
  "gra y</w>": 1865,
  "nu mber</w>": 1866,
  "soun ded</w>": 1867,
  "wi sh</w>": 1868,
  "an n": 1869,
  "tt e</w>": 1870,
  "fami li": 1871,
  "b re": 1872,
  "h ers</w>": 1873,
  "st ly</w>": 1874,
  "in ned</w>": 1875,
  "es ca": 1876,
  "vie w</w>": 1877,
  "gen tly</w>": 1878,
  "conver sation</w>": 1879,
  "hun dred</w>": 1880,
  "in di": 1881,
  "l er</w>": 1882,
  "sli ghtly</w>": 1883,
  "si r</w>": 1884,
  "ex cept</w>": 1885,
  "- -</w>": 1886,
  "com es</w>": 1887,
  "kne es</w>": 1888,
  "c tive</w>": 1889,
  "be came</w>": 1890,
  "tin y</w>": 1891,
  "er i": 1892,
  "tou ched</w>": 1893,
  "import ant</w>": 1894,
  "sp ace</w>": 1895,
  "re turn</w>": 1896,
  "p lo": 1897,
  "ali ve</w>": 1898,
  "che ek</w>": 1899,
  "v or": 1900,
  "pre sen": 1901,
  "l ying</w>": 1902,
  "swe et</w>": 1903,
  "g es</w>": 1904,
  "fi f": 1905,
  "sof tly</w>": 1906,
  "pl ac": 1907,
  "ex peri": 1908,
  "sp ar": 1909,
  "k y</w>": 1910,
  "t one</w>": 1911,
  "t a</w>": 1912,
  "str ange</w>": 1913,
  "sp ent</w>": 1914,
  "mu sc": 1915,
  "th ick</w>": 1916,
  "w ind</w>": 1917,
  "wa ke</w>": 1918,
  "dire ction</w>": 1919,
  "soun ds</w>": 1920,
  "se x</w>": 1921,
  "ab i": 1922,
  "he si": 1923,
  "n one</w>": 1924,
  "reco gni": 1925,
  "bro ken</w>": 1926,
  "sp ed</w>": 1927,
  "bu tt": 1928,
  "ad ded</w>": 1929,
  "grou p</w>": 1930,
  "a head</w>": 1931,
  "mm er</w>": 1932,
  "tom or": 1933,
  "p ho": 1934,
  "e ars</w>": 1935,
  "r y": 1936,
  "do ors</w>": 1937,
  "par ti": 1938,
  "li ghts</w>": 1939,
  "surpri se</w>": 1940,
  "sig n</w>": 1941,
  "some how</w>": 1942,
  "we eks</w>": 1943,
  "speci ally</w>": 1944,
  "b att": 1945,
  "h en": 1946,
  "stu pid</w>": 1947,
  "wra pped</w>": 1948,
  "wan ts</w>": 1949,
  "al ing</w>": 1950,
  "tomor row</w>": 1951,
  "r s</w>": 1952,
  "re ach</w>": 1953,
  "din ner</w>": 1954,
  "er y</w>": 1955,
  "wor se</w>": 1956,
  "cra zy</w>": 1957,
  "ear th</w>": 1958,
  "m ale</w>": 1959,
  "quie tly</w>": 1960,
  "con ne": 1961,
  "ne y</w>": 1962,
  "some where</w>": 1963,
  "pie ce</w>": 1964,
  "vo l": 1965,
  "d ang": 1966,
  "de ser": 1967,
  "ki ds</w>": 1968,
  "sl ow</w>": 1969,
  "cer tain": 1970,
  "c us</w>": 1971,
  "m el": 1972,
  "stu ff</w>": 1973,
  "per son": 1974,
  "tion al</w>": 1975,
  "st ic</w>": 1976,
  "dau ghter</w>": 1977,
  "sa ge</w>": 1978,
  "e specially</w>": 1979,
  "secon ds</w>": 1980,
  "bo x</w>": 1981,
  "gu ard</w>": 1982,
  "trou ble</w>": 1983,
  "lo cked</w>": 1984,
  "bro ke</w>": 1985,
  "dri ve</w>": 1986,
  "d dy</w>": 1987,
  "sing le</w>": 1988,
  "h y": 1989,
  "w el": 1990,
  "c ab": 1991,
  "re min": 1992,
  "dark ness</w>": 1993,
  "li t</w>": 1994,
  "je ct</w>": 1995,
  "ru p": 1996,
  "ss a</w>": 1997,
  "ma ge</w>": 1998,
  "e at</w>": 1999,
  "cla i": 2000,
  "ll en</w>": 2001,
  "be y": 2002,
  "bed room</w>": 2003,
  "rememb ered</w>": 2004,
  "sque e": 2005,
  "n or</w>": 2006,
  "spe a": 2007,
  "for ce</w>": 2008,
  "are a</w>": 2009,
  "wor e</w>": 2010,
  "wea p": 2011,
  "lu c": 2012,
  "bey ond</w>": 2013,
  "pr acti": 2014,
  "man s</w>": 2015,
  "pu l": 2016,
  "li p</w>": 2017,
  "k y": 2018,
  "be at</w>": 2019,
  "sil ent</w>": 2020,
  "d on</w>": 2021,
  "man aged</w>": 2022,
  "wor ried</w>": 2023,
  "ca tion</w>": 2024,
  "won der</w>": 2025,
  "pa per</w>": 2026,
  "ex i": 2027,
  "questi ons</w>": 2028,
  "co ver</w>": 2029,
  "thre w</w>": 2030,
  "tre es</w>": 2031,
  "pa used</w>": 2032,
  "be a": 2033,
  "i on</w>": 2034,
  "be liev": 2035,
  "wa lls</w>": 2036,
  "si tu": 2037,
  "m rs</w>": 2038,
  "che ck</w>": 2039,
  "me ans</w>": 2040,
  "ti red</w>": 2041,
  "si ve</w>": 2042,
  "c ts</w>": 2043,
  "u sing</w>": 2044,
  "s ki": 2045,
  "b bed</w>": 2046,
  "al ed</w>": 2047,
  "ow n": 2048,
  "en ded</w>": 2049,
  "i ously</w>": 2050,
  "d ru": 2051,
  "see ms</w>": 2052,
  "infor mation</w>": 2053,
  "dre ssed</w>": 2054,
  "he at</w>": 2055,
  "foll ow</w>": 2056,
  "un k</w>": 2057,
  "it al</w>": 2058,
  "b right</w>": 2059,
  "su gge": 2060,
  "expe cted</w>": 2061,
  "ju li": 2062,
  "hu ge</w>": 2063,
  "ga me</w>": 2064,
  "mb ling</w>": 2065,
  "gh ting</w>": 2066,
  "do m</w>": 2067,
  "de fin": 2068,
  "k in": 2069,
  "t ree</w>": 2070,
  "dist ance</w>": 2071,
  "ou d</w>": 2072,
  "promi se</w>": 2073,
  "sh or": 2074,
  "sha king</w>": 2075,
  "an gry</w>": 2076,
  "doub t</w>": 2077,
  "c lar": 2078,
  "ic al</w>": 2079,
  "j en": 2080,
  "b li": 2081,
  "me eting</w>": 2082,
  "un t</w>": 2083,
  "j ack": 2084,
  "ta lly</w>": 2085,
  "gr ow": 2086,
  "a ma": 2087,
  "c ool</w>": 2088,
  "m ate</w>": 2089,
  "br own</w>": 2090,
  "t le</w>": 2091,
  "th or": 2092,
  "vi ce</w>": 2093,
  "g oo": 2094,
  "ha ll": 2095,
  "st ate</w>": 2096,
  "ear ly</w>": 2097,
  "cat ch</w>": 2098,
  "ce ss": 2099,
  "si c</w>": 2100,
  "poli ce</w>": 2101,
  "o d": 2102,
  "o s</w>": 2103,
  "li er</w>": 2104,
  "par ty</w>": 2105,
  "g or": 2106,
  "p lu": 2107,
  "crow d</w>": 2108,
  "bo ard</w>": 2109,
  "smi ling</w>": 2110,
  "for ced</w>": 2111,
  "list en</w>": 2112,
  "ex ci": 2113,
  "w ood</w>": 2114,
  "le ss": 2115,
  "lou d</w>": 2116,
  "wol f</w>": 2117,
  "me s": 2118,
  "f an": 2119,
  "p ick</w>": 2120,
  "de f": 2121,
  "sme ll</w>": 2122,
  "mag ic</w>": 2123,
  "ser ious</w>": 2124,
  "th ered</w>": 2125,
  "m ac": 2126,
  "sc ent</w>": 2127,
  "gr in</w>": 2128,
  "sc ri": 2129,
  "gla d</w>": 2130,
  "hu s": 2131,
  "ne ws</w>": 2132,
  "an a</w>": 2133,
  "do or": 2134,
  "for get</w>": 2135,
  "ke eping</w>": 2136,
  "th ous": 2137,
  "s word</w>": 2138,
  "mur mur": 2139,
  "po cket</w>": 2140,
  "so lu": 2141,
  "cle arly</w>": 2142,
  "sh oo": 2143,
  "sur r": 2144,
  "ner v": 2145,
  "re pe": 2146,
  "agre ed</w>": 2147,
  "p ack</w>": 2148,
  "stru gg": 2149,
  "sna pped</w>": 2150,
  "desp er": 2151,
  "n g": 2152,
  "bo ys</w>": 2153,
  "a po": 2154,
  "en a</w>": 2155,
  "sa ve</w>": 2156,
  "si te</w>": 2157,
  "ch in</w>": 2158,
  "pla ying</w>": 2159,
  "of ten</w>": 2160,
  "de si": 2161,
  "ac ks</w>": 2162,
  "s co": 2163,
  "w ar</w>": 2164,
  "n ick</w>": 2165,
  "comfor table</w>": 2166,
  "ver ing</w>": 2167,
  "j as": 2168,
  "ta ll</w>": 2169,
  "sur vi": 2170,
  "r a</w>": 2171,
  "t ab": 2172,
  "cho ice</w>": 2173,
  "a i": 2174,
  "th in</w>": 2175,
  "as su": 2176,
  "ba th": 2177,
  "whe ther</w>": 2178,
  "be low</w>": 2179,
  "t el</w>": 2180,
  "si st": 2181,
  "ro ck</w>": 2182,
  "posi tion</w>": 2183,
  "g li": 2184,
  "an im": 2185,
  "hun g</w>": 2186,
  "ta kes</w>": 2187,
  "be th</w>": 2188,
  "m ly</w>": 2189,
  "kn ow": 2190,
  "f ru": 2191,
  "pa y</w>": 2192,
  "v al</w>": 2193,
  "ha u": 2194,
  "p es</w>": 2195,
  "pleas ure</w>": 2196,
  "stre ng": 2197,
  "v id</w>": 2198,
  "at temp": 2199,
  "ear lier</w>": 2200,
  "se x": 2201,
  "cal m</w>": 2202,
  "ste a": 2203,
  "alex </w>": 2204,
  "mar k</w>": 2205,
  "y si": 2206,
  "app ar": 2207,
  "as king</w>": 2208,
  "d ate</w>": 2209,
  "drea m</w>": 2210,
  "d own": 2211,
  "fu n</w>": 2212,
  "li k": 2213,
  "l ow": 2214,
  "no on</w>": 2215,
  "certain ly</w>": 2216,
  "g un": 2217,
  "spe ct</w>": 2218,
  "li ved</w>": 2219,
  "v ers</w>": 2220,
  "cro ssed</w>": 2221,
  "sli pped</w>": 2222,
  "gr inned</w>": 2223,
  "obvi ously</w>": 2224,
  "d ness</w>": 2225,
  "e ve</w>": 2226,
  "ha te</w>": 2227,
  "ti s": 2228,
  "sp ir": 2229,
  "ssi ve</w>": 2230,
  "ti e</w>": 2231,
  "le tting</w>": 2232,
  "ev ening</w>": 2233,
  "bott om</w>": 2234,
  "do g</w>": 2235,
  "ge ts</w>": 2236,
  "fur ther</w>": 2237,
  "dd en</w>": 2238,
  "joh n</w>": 2239,
  "br ow</w>": 2240,
  "an ti": 2241,
  "k id</w>": 2242,
  "han ded</w>": 2243,
  "situ ation</w>": 2244,
  "b it": 2245,
  "nor mal</w>": 2246,
  "arri ved</w>": 2247,
  "nat ur": 2248,
  "pa ir</w>": 2249,
  "f it</w>": 2250,
  "m it</w>": 2251,
  "it ely</w>": 2252,
  "e mi": 2253,
  "z en</w>": 2254,
  "ju mped</w>": 2255,
  "usu al</w>": 2256,
  "g er": 2257,
  "rea ding</w>": 2258,
  "pri v": 2259,
  "sol di": 2260,
  "de man": 2261,
  "the m": 2262,
  "f ar": 2263,
  "famili ar</w>": 2264,
  "a partment</w>": 2265,
  "ri es</w>": 2266,
  "k en": 2267,
  "hus band</w>": 2268,
  "pp er</w>": 2269,
  "fr owned</w>": 2270,
  "sm oo": 2271,
  "usu ally</w>": 2272,
  "cu l": 2273,
  "che eks</w>": 2274,
  "k ic": 2275,
  "fi eld</w>": 2276,
  "bath room</w>": 2277,
  "wai st</w>": 2278,
  "d el": 2279,
  "care fully</w>": 2280,
  "ho ping</w>": 2281,
  "expla in</w>": 2282,
  "shar p</w>": 2283,
  "mu ttered</w>": 2284,
  "sc i": 2285,
  "lo se</w>": 2286,
  "l y": 2287,
  "cle an</w>": 2288,
  "cli mb": 2289,
  "sh owed</w>": 2290,
  "d om": 2291,
  "reali ze</w>": 2292,
  "bor n</w>": 2293,
  "en er": 2294,
  "pa th</w>": 2295,
  "mi sta": 2296,
  "ho ped</w>": 2297,
  "st rea": 2298,
  "i ll": 2299,
  "brea thing</w>": 2300,
  "e mer": 2301,
  "spo t</w>": 2302,
  "p un": 2303,
  "gl ance</w>": 2304,
  "w et</w>": 2305,
  "cen ter</w>": 2306,
  "ja ke</w>": 2307,
  "a vo": 2308,
  "them selves</w>": 2309,
  "gre w</w>": 2310,
  "imag ine</w>": 2311,
  "u e</w>": 2312,
  "for tun": 2313,
  "pic ture</w>": 2314,
  "b an": 2315,
  "defin itely</w>": 2316,
  "c tions</w>": 2317,
  "secre t</w>": 2318,
  "comp any</w>": 2319,
  "ex plo": 2320,
  "te st</w>": 2321,
  "laugh ing</w>": 2322,
  "ce ll</w>": 2323,
  "r ying</w>": 2324,
  "sc ra": 2325,
  "ch an": 2326,
  "li sh</w>": 2327,
  "mm a</w>": 2328,
  "sel y</w>": 2329,
  "fu ck</w>": 2330,
  "tur ns</w>": 2331,
  "bu n": 2332,
  "desp ite</w>": 2333,
  "su c": 2334,
  "le g</w>": 2335,
  "hi de</w>": 2336,
  "streng th</w>": 2337,
  "sou l</w>": 2338,
  "li ves</w>": 2339,
  "lik ely</w>": 2340,
  "in de": 2341,
  "er e": 2342,
  "j a</w>": 2343,
  "d r</w>": 2344,
  "ja mes</w>": 2345,
  "ll owed</w>": 2346,
  "pre par": 2347,
  "at ure</w>": 2348,
  "off ered</w>": 2349,
  "sc ared</w>": 2350,
  "si ck</w>": 2351,
  "so ci": 2352,
  "que en</w>": 2353,
  "att ack</w>": 2354,
  "tal ked</w>": 2355,
  "mb ers</w>": 2356,
  "fa ir</w>": 2357,
  "an na</w>": 2358,
  "fu ture</w>": 2359,
  "le ts</w>": 2360,
  "vamp i": 2361,
  "be sides</w>": 2362,
  "en tered</w>": 2363,
  "ja w</w>": 2364,
  "a p": 2365,
  "we ight</w>": 2366,
  "el ev": 2367,
  "sti an</w>": 2368,
  "chu ck": 2369,
  "know le": 2370,
  "b en</w>": 2371,
  "kni fe</w>": 2372,
  "do ctor</w>": 2373,
  "ni e</w>": 2374,
  "ne ar": 2375,
  "ag es</w>": 2376,
  "pa ss</w>": 2377,
  "easi ly</w>": 2378,
  "b ow</w>": 2379,
  "dro p</w>": 2380,
  "fi ghting</w>": 2381,
  "r ound</w>": 2382,
  "c ry</w>": 2383,
  "ter min": 2384,
  "hand le</w>": 2385,
  "shou ted</w>": 2386,
  "as ks</w>": 2387,
  "ra ge</w>": 2388,
  "coun ter</w>": 2389,
  "hel ped</w>": 2390,
  "st are</w>": 2391,
  "memor y</w>": 2392,
  "sta yed</w>": 2393,
  "su it</w>": 2394,
  "thir ty</w>": 2395,
  "re n</w>": 2396,
  "s end</w>": 2397,
  "gr ace</w>": 2398,
  "p ra": 2399,
  "all owed</w>": 2400,
  "d ying</w>": 2401,
  "aw are</w>": 2402,
  "rema ined</w>": 2403,
  "atu res</w>": 2404,
  "for ever</w>": 2405,
  "ff ed</w>": 2406,
  "me tal</w>": 2407,
  "t ary</w>": 2408,
  "mi d": 2409,
  "lli e</w>": 2410,
  "or y</w>": 2411,
  "go ld</w>": 2412,
  "oun ds</w>": 2413,
  "ev en": 2414,
  "it self</w>": 2415,
  "m al": 2416,
  "a side</w>": 2417,
  "dang er": 2418,
  "a da": 2419,
  "pow er": 2420,
  "in vol": 2421,
  "w o": 2422,
  "fore head</w>": 2423,
  "c s</w>": 2424,
  "mu sic</w>": 2425,
  "d ry</w>": 2426,
  "e than</w>": 2427,
  "beg inning</w>": 2428,
  "nei ther</w>": 2429,
  "sil ver</w>": 2430,
  "ck er</w>": 2431,
  "ho sp": 2432,
  "nee ds</w>": 2433,
  "sear ch</w>": 2434,
  "y a</w>": 2435,
  "wor th</w>": 2436,
  "se a</w>": 2437,
  "tru ck</w>": 2438,
  "m er</w>": 2439,
  "hesi t": 2440,
  "ex a": 2441,
  "con vin": 2442,
  "ph ysi": 2443,
  "simp le</w>": 2444,
  "pre ten": 2445,
  "bra in</w>": 2446,
  "vampi res</w>": 2447,
  "c ried</w>": 2448,
  "mi cha": 2449,
  "re lie": 2450,
  "pa ti": 2451,
  "mi ssed</w>": 2452,
  "ir ed</w>": 2453,
  "ef for": 2454,
  "g n": 2455,
  "ic es</w>": 2456,
  "br ows</w>": 2457,
  "s se": 2458,
  "b ing</w>": 2459,
  "f ting</w>": 2460,
  "s ons</w>": 2461,
  "sha ll</w>": 2462,
  "di sp": 2463,
  "or ed</w>": 2464,
  "si ty</w>": 2465,
  "ke ts</w>": 2466,
  "bu ll": 2467,
  "ne w": 2468,
  "mar ried</w>": 2469,
  "diff ic": 2470,
  "wi l": 2471,
  "stan tly</w>": 2472,
  "su ff": 2473,
  "sp read</w>": 2474,
  "fa lling</w>": 2475,
  "de stro": 2476,
  "a part</w>": 2477,
  "p ly</w>": 2478,
  "cap tain</w>": 2479,
  "imp re": 2480,
  "sha ke</w>": 2481,
  "ar t</w>": 2482,
  "prote ct</w>": 2483,
  "cla ss</w>": 2484,
  "p ale</w>": 2485,
  "he ad": 2486,
  "foo t": 2487,
  "rela tion": 2488,
  "ener gy</w>": 2489,
  "ol der</w>": 2490,
  "re le": 2491,
  "oun ding</w>": 2492,
  "re ci": 2493,
  "d on": 2494,
  "sett led</w>": 2495,
  "cu sed</w>": 2496,
  "o in": 2497,
  "d ance</w>": 2498,
  "noti ce</w>": 2499,
  "v ir": 2500,
  "ma ster</w>": 2501,
  "gu il": 2502,
  "we ar</w>": 2503,
  "pan ts</w>": 2504,
  "si gh</w>": 2505,
  "je ans</w>": 2506,
  "after noon</w>": 2507,
  "a mu": 2508,
  "ta il</w>": 2509,
  "fle sh</w>": 2510,
  "re si": 2511,
  "hi gh": 2512,
  "gu i": 2513,
  "v an</w>": 2514,
  "ll o</w>": 2515,
  "ca lling</w>": 2516,
  "wi se</w>": 2517,
  "te am</w>": 2518,
  "mb le</w>": 2519,
  "expla ined</w>": 2520,
  "v or</w>": 2521,
  "c in": 2522,
  "se ven</w>": 2523,
  "c ated</w>": 2524,
  "bb ing</w>": 2525,
  "re ve": 2526,
  "pu sh</w>": 2527,
  "o t</w>": 2528,
  "foll owing</w>": 2529,
  "mi ssion</w>": 2530,
  "z a": 2531,
  "f er</w>": 2532,
  "ab ri": 2533,
  "dr in": 2534,
  "ma x</w>": 2535,
  "scre en</w>": 2536,
  "ha ted</w>": 2537,
  "wan ting</w>": 2538,
  "ni ght": 2539,
  "gu e": 2540,
  "u ne": 2541,
  "sho ck</w>": 2542,
  "ch ur": 2543,
  "d or": 2544,
  "ma in</w>": 2545,
  "mom ents</w>": 2546,
  "pu tting</w>": 2547,
  "ei ght</w>": 2548,
  "lear ned</w>": 2549,
  "under stood</w>": 2550,
  "lo ck</w>": 2551,
  "da vid</w>": 2552,
  "cou ch</w>": 2553,
  "h ood</w>": 2554,
  "appar ently</w>": 2555,
  "mar y</w>": 2556,
  "con fi": 2557,
  "g ate</w>": 2558,
  "hosp ital</w>": 2559,
  "parti cu": 2560,
  "ca mer": 2561,
  "pu bli": 2562,
  "go es</w>": 2563,
  "op ening</w>": 2564,
  "z i": 2565,
  "relie f</w>": 2566,
  "ar ra": 2567,
  "han ging</w>": 2568,
  "disc u": 2569,
  "dro ve</w>": 2570,
  "mo ve": 2571,
  "h oo": 2572,
  "pa u": 2573,
  "se curi": 2574,
  "u n</w>": 2575,
  "ra di": 2576,
  "hun ter</w>": 2577,
  "vi sion</w>": 2578,
  "co le</w>": 2579,
  "won dering</w>": 2580,
  "ge st": 2581,
  "ri de</w>": 2582,
  "w n</w>": 2583,
  "tu res</w>": 2584,
  "gg er</w>": 2585,
  "d ani": 2586,
  "r owed</w>": 2587,
  "ra in</w>": 2588,
  "stu ck</w>": 2589,
  "li es</w>": 2590,
  "danger ous</w>": 2591,
  "no ise</w>": 2592,
  "wi lling</w>": 2593,
  "k ar": 2594,
  "hor se</w>": 2595,
  "v in</w>": 2596,
  "fig ured</w>": 2597,
  "star ting</w>": 2598,
  "thir d</w>": 2599,
  "batt le</w>": 2600,
  "l ted</w>": 2601,
  "car ried</w>": 2602,
  "le ad</w>": 2603,
  "z e": 2604,
  "bu sy</w>": 2605,
  "sudd en</w>": 2606,
  "micha el</w>": 2607,
  "gu ards</w>": 2608,
  "jas on</w>": 2609,
  "c up</w>": 2610,
  "cl en": 2611,
  "speci al</w>": 2612,
  "in clu": 2613,
  "esca pe</w>": 2614,
  "ho le</w>": 2615,
  "screa med</w>": 2616,
  "bo ttle</w>": 2617,
  "hi ps</w>": 2618,
  "disapp eared</w>": 2619,
  "brea k": 2620,
  "k a</w>": 2621,
  "ti vely</w>": 2622,
  "om s</w>": 2623,
  "mi ke</w>": 2624,
  "l ower</w>": 2625,
  "stor e</w>": 2626,
  "ou gh": 2627,
  "in e": 2628,
  "ab solu": 2629,
  "boo ks</w>": 2630,
  "w ed</w>": 2631,
  "shi fted</w>": 2632,
  "de mon</w>": 2633,
  "bo dies</w>": 2634,
  "l en": 2635,
  "sh el": 2636,
  "securi ty</w>": 2637,
  "an ci": 2638,
  "hor ri": 2639,
  "list ening</w>": 2640,
  "power ful</w>": 2641,
  "j ac": 2642,
  "cha se</w>": 2643,
  "sh ower</w>": 2644,
  "o li": 2645,
  "ssi e</w>": 2646,
  "un less</w>": 2647,
  "c er</w>": 2648,
  "fre e": 2649,
  "de m": 2650,
  "w ing</w>": 2651,
  "gri p</w>": 2652,
  "cont act</w>": 2653,
  "go l": 2654,
  "or g": 2655,
  "sa tis": 2656,
  "mi ssing</w>": 2657,
  "expe ct</w>": 2658,
  "com pu": 2659,
  "happ ening</w>": 2660,
  "in es</w>": 2661,
  "v a</w>": 2662,
  "re cei": 2663,
  "we ir": 2664,
  "murmur ed</w>": 2665,
  "po se</w>": 2666,
  "spea king</w>": 2667,
  "s n": 2668,
  "pro fe": 2669,
  "care ful</w>": 2670,
  "su sp": 2671,
  "hall way</w>": 2672,
  "mm ing</w>": 2673,
  "k in</w>": 2674,
  "lu cky</w>": 2675,
  "lear n</w>": 2676,
  "ur </w>": 2677,
  "fre y": 2678,
  "br an": 2679,
  "even tually</w>": 2680,
  "su mmer</w>": 2681,
  "coun t</w>": 2682,
  "c y": 2683,
  "wind ows</w>": 2684,
  "ef fe": 2685,
  "le vel</w>": 2686,
  "el ess</w>": 2687,
  "z ane</w>": 2688,
  "t ent</w>": 2689,
  "mir ror</w>": 2690,
  "mp ing</w>": 2691,
  "tru ly</w>": 2692,
  "thous and</w>": 2693,
  "apo lo": 2694,
  "twi sted</w>": 2695,
  "frey ja</w>": 2696,
  "col or</w>": 2697,
  "la id</w>": 2698,
  "a mer": 2699,
  "hu mans</w>": 2700,
  "ad ly</w>": 2701,
  "har der</w>": 2702,
  "gi e</w>": 2703,
  "vi ol": 2704,
  "ach el</w>": 2705,
  "ac king</w>": 2706,
  "sle eping</w>": 2707,
  "sc ar": 2708,
  "sho p</w>": 2709,
  "ta ste</w>": 2710,
  "desi re</w>": 2711,
  "ac ted</w>": 2712,
  "bur st</w>": 2713,
  "st le</w>": 2714,
  "ri ver</w>": 2715,
  "a tions</w>": 2716,
  "str on": 2717,
  "de ar</w>": 2718,
  "b ent</w>": 2719,
  "wi t": 2720,
  "r achel</w>": 2721,
  "off er</w>": 2722,
  "relation ship</w>": 2723,
  "your s</w>": 2724,
  "sy ste": 2725,
  "ye lled</w>": 2726,
  "plac es</w>": 2727,
  "j on": 2728,
  "co at</w>": 2729,
  "pe ter</w>": 2730,
  "ss y</w>": 2731,
  "i sl": 2732,
  "e my</w>": 2733,
  "ru bbed</w>": 2734,
  "tor s</w>": 2735,
  "r ace</w>": 2736,
  "st on</w>": 2737,
  "at er</w>": 2738,
  "d ence</w>": 2739,
  "mi e</w>": 2740,
  "pu shing</w>": 2741,
  "consi dered</w>": 2742,
  "on y</w>": 2743,
  "gu ar": 2744,
  "respon se</w>": 2745,
  "bu l": 2746,
  "a ir": 2747,
  "th ru": 2748,
  "off ic": 2749,
  "swa llowed</w>": 2750,
  "fre sh</w>": 2751,
  "n al</w>": 2752,
  "chri st": 2753,
  "gr owing</w>": 2754,
  "in ess</w>": 2755,
  "qu e</w>": 2756,
  "fo cus</w>": 2757,
  "ab ly</w>": 2758,
  "en ding</w>": 2759,
  "p h</w>": 2760,
  "grab </w>": 2761,
  "y l": 2762,
  "mi tted</w>": 2763,
  "qu ar": 2764,
  "ad mit</w>": 2765,
  "s mar": 2766,
  "as le": 2767,
  "ma d</w>": 2768,
  "smo ke</w>": 2769,
  "mes sage</w>": 2770,
  "asle ep</w>": 2771,
  "tr ance</w>": 2772,
  "wi d": 2773,
  "opp o": 2774,
  "thr ow</w>": 2775,
  "en d": 2776,
  "i sa": 2777,
  "li d</w>": 2778,
  "diffic ult</w>": 2779,
  "sp end</w>": 2780,
  "na h</w>": 2781,
  "no d</w>": 2782,
  "bur ned</w>": 2783,
  "to m</w>": 2784,
  "fin ding</w>": 2785,
  "am ong</w>": 2786,
  "s a</w>": 2787,
  "po or</w>": 2788,
  "tor y</w>": 2789,
  "c ate</w>": 2790,
  "sta tion</w>": 2791,
  "b by</w>": 2792,
  "s now</w>": 2793,
  "ser iously</w>": 2794,
  "re su": 2795,
  "wa ved</w>": 2796,
  "g ru": 2797,
  "fun ny</w>": 2798,
  "le aning</w>": 2799,
  "com man": 2800,
  "bur ning</w>": 2801,
  "ab </w>": 2802,
  "wa ve</w>": 2803,
  "vi a</w>": 2804,
  "blin ked</w>": 2805,
  "mi les</w>": 2806,
  "un cle</w>": 2807,
  "laugh ter</w>": 2808,
  "in ch</w>": 2809,
  "di str": 2810,
  "obvi ous</w>": 2811,
  "tur ed</w>": 2812,
  "feel ings</w>": 2813,
  "beg in</w>": 2814,
  "ho tel</w>": 2815,
  "comple te</w>": 2816,
  "f rea": 2817,
  "con fused</w>": 2818,
  "ada m</w>": 2819,
  "cra w": 2820,
  "mo vi": 2821,
  "swe e": 2822,
  "st y": 2823,
  "wi ld</w>": 2824,
  "s en</w>": 2825,
  "presen ce</w>": 2826,
  "li st</w>": 2827,
  "f as": 2828,
  "nerv ous</w>": 2829,
  "ac cep": 2830,
  "amer ic": 2831,
  "x i": 2832,
  "b are</w>": 2833,
  "l eng": 2834,
  "whisp er</w>": 2835,
  "e k": 2836,
  "any where</w>": 2837,
  "comp li": 2838,
  "sh are</w>": 2839,
  "app reci": 2840,
  "abi lity</w>": 2841,
  "natur al</w>": 2842,
  "fa llen</w>": 2843,
  "w ine</w>": 2844,
  "th om": 2845,
  "or e</w>": 2846,
  "possi bly</w>": 2847,
  "emb arra": 2848,
  "f ic": 2849,
  "lu ci": 2850,
  "ge or": 2851,
  "remin ded</w>": 2852,
  "priv ate</w>": 2853,
  "stre tched</w>": 2854,
  "j i": 2855,
  "hea ds</w>": 2856,
  "fl at</w>": 2857,
  "no te</w>": 2858,
  "st ick</w>": 2859,
  "e u": 2860,
  "ar gu": 2861,
  "go d": 2862,
  "dire ctly</w>": 2863,
  "e mma</w>": 2864,
  "tri p</w>": 2865,
  "re fle": 2866,
  "fac es</w>": 2867,
  "shad ows</w>": 2868,
  "ag er</w>": 2869,
  "hi dden</w>": 2870,
  "re cor": 2871,
  "min i": 2872,
  "lea ther</w>": 2873,
  "ex cu": 2874,
  "d an</w>": 2875,
  "ele c": 2876,
  "in ve": 2877,
  "im possible</w>": 2878,
  "b ite</w>": 2879,
  "pla yed</w>": 2880,
  "shad ow</w>": 2881,
  "as sa": 2882,
  "k ers</w>": 2883,
  "supp ose</w>": 2884,
  "lli on</w>": 2885,
  "d ged</w>": 2886,
  "s lu": 2887,
  "person al</w>": 2888,
  "de termin": 2889,
  "vi sit</w>": 2890,
  "ri ck</w>": 2891,
  "sho es</w>": 2892,
  "lin es</w>": 2893,
  "pal m</w>": 2894,
  "me ss</w>": 2895,
  "w in</w>": 2896,
  "tu al</w>": 2897,
  "ac ing</w>": 2898,
  "believ ed</w>": 2899,
  "i ly</w>": 2900,
  "si ze</w>": 2901,
  "ne cess": 2902,
  "for d</w>": 2903,
  "in k": 2904,
  "po sse": 2905,
  "d ings</w>": 2906,
  "p ers</w>": 2907,
  "sur face</w>": 2908,
  "feel s</w>": 2909,
  "for est</w>": 2910,
  "cir cle</w>": 2911,
  "sar ah</w>": 2912,
  "ser ved</w>": 2913,
  "p ink</w>": 2914,
  "vel op": 2915,
  "ev id": 2916,
  "la p</w>": 2917,
  "clu b</w>": 2918,
  "sho ved</w>": 2919,
  "jack et</w>": 2920,
  "p our": 2921,
  "oun ced</w>": 2922,
  "jo in</w>": 2923,
  "bi lity</w>": 2924,
  "coun try</w>": 2925,
  "experi ence</w>": 2926,
  "b ones</w>": 2927,
  "mi li": 2928,
  "door way</w>": 2929,
  "o k</w>": 2930,
  "clai med</w>": 2931,
  "pre sent</w>": 2932,
  "tr a</w>": 2933,
  "deman ded</w>": 2934,
  "fi sh</w>": 2935,
  "spe ed</w>": 2936,
  "in si": 2937,
  "m as</w>": 2938,
  "in stru": 2939,
  "a ti": 2940,
  "se th</w>": 2941,
  "ev il</w>": 2942,
  "l in</w>": 2943,
  "ta ins</w>": 2944,
  "pro du": 2945,
  "knowle dge</w>": 2946,
  "m or</w>": 2947,
  "u h</w>": 2948,
  "we st</w>": 2949,
  "climb ed</w>": 2950,
  "war ri": 2951,
  "fo cused</w>": 2952,
  "weir d</w>": 2953,
  "li a</w>": 2954,
  "cor re": 2955,
  "fini sh</w>": 2956,
  "si de": 2957,
  "mo on</w>": 2958,
  "thre at": 2959,
  "e ding</w>": 2960,
  "cr ying</w>": 2961,
  "f ought</w>": 2962,
  "gh o": 2963,
  "n ers</w>": 2964,
  "clo ck</w>": 2965,
  "memor ies</w>": 2966,
  "ar ti": 2967,
  "ke e": 2968,
  "c at</w>": 2969,
  "m ach": 2970,
  "en trance</w>": 2971,
  "par t": 2972,
  "appro ached</w>": 2973,
  "wi shed</w>": 2974,
  "for th</w>": 2975,
  "dri ving</w>": 2976,
  "screa m</w>": 2977,
  "ran g</w>": 2978,
  "c o</w>": 2979,
  "fa ster</w>": 2980,
  "hear ing</w>": 2981,
  "all ow</w>": 2982,
  "to tally</w>": 2983,
  "brea the</w>": 2984,
  "bo y": 2985,
  "re aching</w>": 2986,
  "fin al</w>": 2987,
  "che cked</w>": 2988,
  "mp s</w>": 2989,
  "promi sed</w>": 2990,
  "op s</w>": 2991,
  "lea ding</w>": 2992,
  "deci sion</w>": 2993,
  "t ching</w>": 2994,
  "sla mmed</w>": 2995,
  "inter rup": 2996,
  "fa vor": 2997,
  "bo at</w>": 2998,
  "invol ved</w>": 2999,
  "low ered</w>": 3000,
  "r at": 3001,
  "su rely</w>": 3002,
  "so phi": 3003,
  "intere sted</w>": 3004,
  "lun ch</w>": 3005,
  "we ak</w>": 3006,
  "to ssed</w>": 3007,
  "b on": 3008,
  "d or</w>": 3009,
  "har dly</w>": 3010,
  "a unt</w>": 3011,
  "si on": 3012,
  "in ation</w>": 3013,
  "fi l": 3014,
  "cen tr": 3015,
  "musc les</w>": 3016,
  "fa i": 3017,
  "mi l": 3018,
  "be er</w>": 3019,
  "di r": 3020,
  "s ne": 3021,
  "in no": 3022,
  "vi ll": 3023,
  "cle ared</w>": 3024,
  "un able</w>": 3025,
  "si ons</w>": 3026,
  "inter est</w>": 3027,
  "ci ous</w>": 3028,
  "s ni": 3029,
  "no body</w>": 3030,
  "wel come</w>": 3031,
  "k o": 3032,
  "gla sses</w>": 3033,
  "perfe ctly</w>": 3034,
  "stor m</w>": 3035,
  "be t</w>": 3036,
  "for med</w>": 3037,
  "be ar</w>": 3038,
  "stru ck</w>": 3039,
  "cir c": 3040,
  "e ment</w>": 3041,
  "compu ter</w>": 3042,
  "p y</w>": 3043,
  "fr an": 3044,
  "mo stly</w>": 3045,
  "concer ned</w>": 3046,
  "cei ling</w>": 3047,
  "di tion</w>": 3048,
  "st age</w>": 3049,
  "d anger</w>": 3050,
  "continu e</w>": 3051,
  "com pan": 3052,
  "de te": 3053,
  "pau l</w>": 3054,
  "pa id</w>": 3055,
  "re gre": 3056,
  "hon e": 3057,
  "oc ca": 3058,
  "dri ver</w>": 3059,
  "hea ding</w>": 3060,
  "e ty</w>": 3061,
  "b ow": 3062,
  "ri age</w>": 3063,
  "i mage</w>": 3064,
  "m ous</w>": 3065,
  "in cre": 3066,
  "s and": 3067,
  "ru sh</w>": 3068,
  "ki lling</w>": 3069,
  "n ur": 3070,
  "bri ef": 3071,
  "c ross</w>": 3072,
  "or dered</w>": 3073,
  "ga sped</w>": 3074,
  "kic ked</w>": 3075,
  "hi ding</w>": 3076,
  "la w</w>": 3077,
  "n ine</w>": 3078,
  "od d</w>": 3079,
  "scen e</w>": 3080,
  "bro thers</w>": 3081,
  "twi ce</w>": 3082,
  "st ers</w>": 3083,
  "ar r": 3084,
  "y ard</w>": 3085,
  "for gotten</w>": 3086,
  "pi er": 3087,
  "in stantly</w>": 3088,
  "tt ering</w>": 3089,
  "lo gan</w>": 3090,
  "y an": 3091,
  "na ked</w>": 3092,
  "j our": 3093,
  "lo a": 3094,
  "bla de</w>": 3095,
  "a sh": 3096,
  "ter ing</w>": 3097,
  "gener al</w>": 3098,
  "ac ci": 3099,
  "op er": 3100,
  "w ound</w>": 3101,
  "ar my</w>": 3102,
  "bru shed</w>": 3103,
  "sw ung</w>": 3104,
  "an no": 3105,
  "gi gg": 3106,
  "con sc": 3107,
  "s nor": 3108,
  "ad van": 3109,
  "fac ed</w>": 3110,
  "effor t</w>": 3111,
  "n on": 3112,
  "e lle</w>": 3113,
  "pan ic</w>": 3114,
  "ca st</w>": 3115,
  "squee zed</w>": 3116,
  "pro vi": 3117,
  "wri st</w>": 3118,
  "ll en": 3119,
  "is su": 3120,
  "bur n</w>": 3121,
  "se par": 3122,
  "jo ined</w>": 3123,
  "hi story</w>": 3124,
  "terri ble</w>": 3125,
  "m c": 3126,
  "won der": 3127,
  "ri sk</w>": 3128,
  "rep or": 3129,
  "v ani": 3130,
  "ro ll</w>": 3131,
  "ignor ed</w>": 3132,
  "sig ned</w>": 3133,
  "ac he</w>": 3134,
  "syste m</w>": 3135,
  "woo ds</w>": 3136,
  "soldi ers</w>": 3137,
  "brea king</w>": 3138,
  "bu y</w>": 3139,
  "al e": 3140,
  "list ened</w>": 3141,
  "pie ces</w>": 3142,
  "sa d</w>": 3143,
  "isl and</w>": 3144,
  "fi st</w>": 3145,
  "fe male</w>": 3146,
  "thom as</w>": 3147,
  "a st</w>": 3148,
  "re sted</w>": 3149,
  "fle w</w>": 3150,
  "c her</w>": 3151,
  "si mon</w>": 3152,
  "buil t</w>": 3153,
  "enjo y</w>": 3154,
  "nei gh": 3155,
  "ber t</w>": 3156,
  "par k</w>": 3157,
  "v ar": 3158,
  "hen ry</w>": 3159,
  "fl ying</w>": 3160,
  "ye llow</w>": 3161,
  "chur ch</w>": 3162,
  "s p</w>": 3163,
  "war ning</w>": 3164,
  "war ds</w>": 3165,
  "boo ts</w>": 3166,
  "f y</w>": 3167,
  "ama zing</w>": 3168,
  "sk ir": 3169,
  "ri sing</w>": 3170,
  "ac y</w>": 3171,
  "break fast</w>": 3172,
  "pho to": 3173,
  "uni ver": 3174,
  "fol ded</w>": 3175,
  "af fe": 3176,
  "he llo</w>": 3177,
  "o ther": 3178,
  "bit ch</w>": 3179,
  "cla ire</w>": 3180,
  "de scri": 3181,
  "ru shed</w>": 3182,
  "mu l": 3183,
  "nor th</w>": 3184,
  "ow ers</w>": 3185,
  "st ic": 3186,
  "c and": 3187,
  "n ate</w>": 3188,
  "absolu tely</w>": 3189,
  "re nt</w>": 3190,
  "respon si": 3191,
  "stea dy</w>": 3192,
  "he al": 3193,
  "t in</w>": 3194,
  "wor st</w>": 3195,
  "weap on</w>": 3196,
  "de v": 3197,
  "si s</w>": 3198,
  "cir cu": 3199,
  "jo e</w>": 3200,
  "loo se</w>": 3201,
  "bloo dy</w>": 3202,
  "swe at</w>": 3203,
  "e m</w>": 3204,
  "han g</w>": 3205,
  "prepar ed</w>": 3206,
  "b ag": 3207,
  "we dding</w>": 3208,
  "men tion</w>": 3209,
  "fa ir": 3210,
  "go ver": 3211,
  "tion ed</w>": 3212,
  "su per": 3213,
  "ti ghtly</w>": 3214,
  "tran s": 3215,
  "par king</w>": 3216,
  "oppo site</w>": 3217,
  "bl ow</w>": 3218,
  "ty pe</w>": 3219,
  "s our": 3220,
  "f ly</w>": 3221,
  "drea ms</w>": 3222,
  "la ke</w>": 3223,
  "jer ked</w>": 3224,
  "lu ke</w>": 3225,
  "tt ers</w>": 3226,
  "fa ult</w>": 3227,
  "gr own</w>": 3228,
  "excu se</w>": 3229,
  "def en": 3230,
  "lea ves</w>": 3231,
  "dani el</w>": 3232,
  "fu cking</w>": 3233,
  "cr y": 3234,
  "butt on</w>": 3235,
  "ch oo": 3236,
  "se y</w>": 3237,
  "e yed</w>": 3238,
  "woo den</w>": 3239,
  "inst in": 3240,
  "be ach</w>": 3241,
  "mo tion</w>": 3242,
  "inde ed</w>": 3243,
  "dis gu": 3244,
  "pre ss</w>": 3245,
  "si x": 3246,
  "cur led</w>": 3247,
  "a i</w>": 3248,
  "pl ate</w>": 3249,
  "ta ils</w>": 3250,
  "k ate</w>": 3251,
  "st ab": 3252,
  "r on": 3253,
  "screa ming</w>": 3254,
  "e ating</w>": 3255,
  "p sy": 3256,
  "gen tle</w>": 3257,
  "gra ss</w>": 3258,
  "leng th</w>": 3259,
  "h i</w>": 3260,
  "wi lli": 3261,
  "ki ssing</w>": 3262,
  "in i": 3263,
  "su s</w>": 3264,
  "men tal</w>": 3265,
  "ex hau": 3266,
  "exci te": 3267,
  "la tion</w>": 3268,
  "ti ed</w>": 3269,
  "pl ans</w>": 3270,
  "hu h</w>": 3271,
  "nat ure</w>": 3272,
  "s m</w>": 3273,
  "go ds</w>": 3274,
  "disapp oin": 3275,
  "ti p</w>": 3276,
  "move ment</w>": 3277,
  "s sure</w>": 3278,
  "sle pt</w>": 3279,
  "ci l</w>": 3280,
  "id enti": 3281,
  "g lo": 3282,
  "stu died</w>": 3283,
  "re fu": 3284,
  "necess ary</w>": 3285,
  "tou ching</w>": 3286,
  "visi ble</w>": 3287,
  "d un": 3288,
  "mon th</w>": 3289,
  "t led</w>": 3290,
  "ex ten": 3291,
  "fi re": 3292,
  "s ong</w>": 3293,
  "gol den</w>": 3294,
  "intere sting</w>": 3295,
  "ki e</w>": 3296,
  "c t": 3297,
  "emo tions</w>": 3298,
  "hun gry</w>": 3299,
  "g ar</w>": 3300,
  "ye ster": 3301,
  "happ ens</w>": 3302,
  "up set</w>": 3303,
  "d ents</w>": 3304,
  "sear ching</w>": 3305,
  "ac ting</w>": 3306,
  "cre ature</w>": 3307,
  "easi er</w>": 3308,
  "n el</w>": 3309,
  "lo sing</w>": 3310,
  "tra vel": 3311,
  "ari ly</w>": 3312,
  "ri se</w>": 3313,
  "re action</w>": 3314,
  "rele ased</w>": 3315,
  "ro lling</w>": 3316,
  "ma j": 3317,
  "c ard</w>": 3318,
  "er ic</w>": 3319,
  "el ed</w>": 3320,
  "s lo": 3321,
  "e cho": 3322,
  "con fu": 3323,
  "cau sed</w>": 3324,
  "an ds</w>": 3325,
  "concer n</w>": 3326,
  "nar rowed</w>": 3327,
  "at trac": 3328,
  "la w": 3329,
  "fing er": 3330,
  "st ard</w>": 3331,
  "ac </w>": 3332,
  "dee per</w>": 3333,
  "fla shed</w>": 3334,
  "sa fe": 3335,
  "wh ose</w>": 3336,
  "lu ck</w>": 3337,
  "mista ke</w>": 3338,
  "clen ched</w>": 3339,
  "bi ll</w>": 3340,
  "cl ou": 3341,
  "p ool</w>": 3342,
  "te ch": 3343,
  "car ry</w>": 3344,
  "grow led</w>": 3345,
  "publi c</w>": 3346,
  "bl ack": 3347,
  "br inging</w>": 3348,
  "fir m</w>": 3349,
  "m enti": 3350,
  "thin ks</w>": 3351,
  "smoo th</w>": 3352,
  "er ly</w>": 3353,
  "pro per": 3354,
  "yester day</w>": 3355,
  "shi ft</w>": 3356,
  "gr an": 3357,
  "ha w": 3358,
  "fre n": 3359,
  "sou th</w>": 3360,
  "deci de</w>": 3361,
  "f ts</w>": 3362,
  "ja mie</w>": 3363,
  "te a</w>": 3364,
  "str ang": 3365,
  "sta ying</w>": 3366,
  "fortun ately</w>": 3367,
  "ag ree</w>": 3368,
  "ry an</w>": 3369,
  "di rt</w>": 3370,
  "b one</w>": 3371,
  "repe ated</w>": 3372,
  "fif teen</w>": 3373,
  "in vi": 3374,
  "prin ce</w>": 3375,
  "hesit ated</w>": 3376,
  "wo ke</w>": 3377,
  "ang el</w>": 3378,
  "ca su": 3379,
  "favor ite</w>": 3380,
  "w ings</w>": 3381,
  "st un": 3382,
  "sp un</w>": 3383,
  "st af": 3384,
  "smi les</w>": 3385,
  "y al</w>": 3386,
  "cour t</w>": 3387,
  "po sed</w>": 3388,
  "ti ghtened</w>": 3389,
  "plan ned</w>": 3390,
  "sha pe</w>": 3391,
  "sho cked</w>": 3392,
  "sc rat": 3393,
  "lan ded</w>": 3394,
  "se ment</w>": 3395,
  "weap ons</w>": 3396,
  "i ling</w>": 3397,
  "st an</w>": 3398,
  "wor ks</w>": 3399,
  "draw n</w>": 3400,
  "bri dge</w>": 3401,
  "re moved</w>": 3402,
  "colle ge</w>": 3403,
  "eye brows</w>": 3404,
  "dir ty</w>": 3405,
  "ju mp</w>": 3406,
  "ri ch": 3407,
  "sub ject</w>": 3408,
  "1 9": 3409,
  "enti rely</w>": 3410,
  "gre y</w>": 3411,
  "spe cted</w>": 3412,
  "re fused</w>": 3413,
  "bl ank": 3414,
  "ke ys</w>": 3415,
  "chuck led</w>": 3416,
  "car rying</w>": 3417,
  "stor ies</w>": 3418,
  "e t": 3419,
  "smar t</w>": 3420,
  "ri ch</w>": 3421,
  "or ig": 3422,
  "wonder ful</w>": 3423,
  "pe ace</w>": 3424,
  "hi ll</w>": 3425,
  "h ou": 3426,
  "near by</w>": 3427,
  "b ye</w>": 3428,
  "clo sing</w>": 3429,
  "recogni zed</w>": 3430,
  "aw k": 3431,
  "war m": 3432,
  "sh owing</w>": 3433,
  "ro oms</w>": 3434,
  "gi ves</w>": 3435,
  "less ly</w>": 3436,
  "m ood</w>": 3437,
  "re gi": 3438,
  "ca lls</w>": 3439,
  "con su": 3440,
  "be lly</w>": 3441,
  "kno cked</w>": 3442,
  "nar row</w>": 3443,
  "tr ack</w>": 3444,
  "mat t</w>": 3445,
  "ac cept</w>": 3446,
  "brea thed</w>": 3447,
  "wor n</w>": 3448,
  "ac e": 3449,
  "me an": 3450,
  "in te": 3451,
  "g as</w>": 3452,
  "i di": 3453,
  "sh ared</w>": 3454,
  "every where</w>": 3455,
  "ba stard</w>": 3456,
  "sugge sted</w>": 3457,
  "gh s</w>": 3458,
  "sh a</w>": 3459,
  "sa ved</w>": 3460,
  "anim al</w>": 3461,
  "t age</w>": 3462,
  "v ul": 3463,
  "char lie</w>": 3464,
  "s mir": 3465,
  "g ly</w>": 3466,
  "desper ate</w>": 3467,
  "mar k": 3468,
  "ga thered</w>": 3469,
  "in n</w>": 3470,
  "char ge</w>": 3471,
  "li br": 3472,
  "ro of</w>": 3473,
  "c kets</w>": 3474,
  "warm th</w>": 3475,
  "hea vi": 3476,
  "kne e</w>": 3477,
  "f al": 3478,
  "c ele": 3479,
  "gi ft</w>": 3480,
  "fi ll</w>": 3481,
  "dou ble</w>": 3482,
  "answ ers</w>": 3483,
  "a se</w>": 3484,
  "p ort</w>": 3485,
  "th ering</w>": 3486,
  "b ought</w>": 3487,
  "other wise</w>": 3488,
  "lo g": 3489,
  "sen ding</w>": 3490,
  "spo ken</w>": 3491,
  "re gar": 3492,
  "pre gn": 3493,
  "avo id</w>": 3494,
  "sex y</w>": 3495,
  "pl ane</w>": 3496,
  "com b": 3497,
  "su cked</w>": 3498,
  "thu mb</w>": 3499,
  "ba se</w>": 3500,
  "s ca": 3501,
  "r ough</w>": 3502,
  "shoo t</w>": 3503,
  "dr unk</w>": 3504,
  "bu ried</w>": 3505,
  "dee ply</w>": 3506,
  "re sta": 3507,
  "st ar</w>": 3508,
  "gi ant</w>": 3509,
  "l ing": 3510,
  "resta ur": 3511,
  "ma il</w>": 3512,
  "bi e</w>": 3513,
  "n ment</w>": 3514,
  "on i": 3515,
  "bo ther</w>": 3516,
  "de vi": 3517,
  "pro ce": 3518,
  "gro aned</w>": 3519,
  "te x": 3520,
  "ta u": 3521,
  "car s</w>": 3522,
  "ali ty</w>": 3523,
  "draw ing</w>": 3524,
  "pre ssing</w>": 3525,
  "s an</w>": 3526,
  "tra in</w>": 3527,
  "pleas ed</w>": 3528,
  "p it": 3529,
  "fa int</w>": 3530,
  "consc ious</w>": 3531,
  "pas sing</w>": 3532,
  "reali ty</w>": 3533,
  "sil ently</w>": 3534,
  "do ll": 3535,
  "on ing</w>": 3536,
  "in tro": 3537,
  "hel ping</w>": 3538,
  "a wake</w>": 3539,
  "inve sti": 3540,
  "hu g</w>": 3541,
  "cha llen": 3542,
  "be lon": 3543,
  "am oun": 3544,
  "dra gged</w>": 3545,
  "wri tten</w>": 3546,
  "ach es</w>": 3547,
  "in ti": 3548,
  "emi ly</w>": 3549,
  "sur ed</w>": 3550,
  "du st</w>": 3551,
  "bu s</w>": 3552,
  "c el": 3553,
  "th a</w>": 3554,
  "swe ar</w>": 3555,
  "exci ted</w>": 3556,
  "my ster": 3557,
  "sp r": 3558,
  "m i</w>": 3559,
  "e di": 3560,
  "rep ly</w>": 3561,
  "ro b": 3562,
  "un ted</w>": 3563,
  "p in": 3564,
  "na mes</w>": 3565,
  "g her</w>": 3566,
  "bre e": 3567,
  "hear t": 3568,
  "x es</w>": 3569,
  "surr ounded</w>": 3570,
  "fa ded</w>": 3571,
  "fif ty</w>": 3572,
  "shi ps</w>": 3573,
  "be lt</w>": 3574,
  "beau ty</w>": 3575,
  "inst ant</w>": 3576,
  "in ted</w>": 3577,
  "f light</w>": 3578,
  "ex tra</w>": 3579,
  "re gu": 3580,
  "tra ining</w>": 3581,
  "imag ined</w>": 3582,
  "te en": 3583,
  "zz y</w>": 3584,
  "pu lls</w>": 3585,
  "s and</w>": 3586,
  "ste el</w>": 3587,
  "dra w</w>": 3588,
  "pa use</w>": 3589,
  "e qu": 3590,
  "supp ort</w>": 3591,
  "pic tures</w>": 3592,
  "attemp t</w>": 3593,
  "s oo": 3594,
  "wa ves</w>": 3595,
  "ce ll": 3596,
  "y or": 3597,
  "apolo gi": 3598,
  "hon ey</w>": 3599,
  "lar ly</w>": 3600,
  "experi en": 3601,
  "ad mitted</w>": 3602,
  "pur pose</w>": 3603,
  "consi der</w>": 3604,
  "menti oned</w>": 3605,
  "g abri": 3606,
  "st al": 3607,
  "li ties</w>": 3608,
  "g y": 3609,
  "or tun": 3610,
  "pla y": 3611,
  "dis covered</w>": 3612,
  "de st</w>": 3613,
  "tu de</w>": 3614,
  "le an</w>": 3615,
  "a sh</w>": 3616,
  "i or</w>": 3617,
  "or din": 3618,
  "opp ortun": 3619,
  "app ear": 3620,
  "le tter</w>": 3621,
  "t ele": 3622,
  "in ci": 3623,
  "hor ses</w>": 3624,
  "intro du": 3625,
  "se tting</w>": 3626,
  "kno ck</w>": 3627,
  "fla sh</w>": 3628,
  "sp ra": 3629,
  "no ah</w>": 3630,
  "stra tion</w>": 3631,
  "wi ped</w>": 3632,
  "0 0</w>": 3633,
  "so a": 3634,
  "b er</w>": 3635,
  "pr oud</w>": 3636,
  "j un": 3637,
  "ti al</w>": 3638,
  "gr ow</w>": 3639,
  "poin ting</w>": 3640,
  "vo ices</w>": 3641,
  "oc cur": 3642,
  "bru sh</w>": 3643,
  "stre ss</w>": 3644,
  "anci ent</w>": 3645,
  "ho ly</w>": 3646,
  "consi dering</w>": 3647,
  "sli ding</w>": 3648,
  "pl enty</w>": 3649,
  "drin king</w>": 3650,
  "s che": 3651,
  "offic er</w>": 3652,
  "b as": 3653,
  "physi cal</w>": 3654,
  "pro cess</w>": 3655,
  "s ac": 3656,
  "li ly</w>": 3657,
  "k ick</w>": 3658,
  "b oun": 3659,
  "stu dy</w>": 3660,
  "expe cting</w>": 3661,
  "movi e</w>": 3662,
  "ser vice</w>": 3663,
  "ur a</w>": 3664,
  "n ow": 3665,
  "d are</w>": 3666,
  "v ag": 3667,
  "youn ger</w>": 3668,
  "determin ed</w>": 3669,
  "ti ps</w>": 3670,
  "sh ri": 3671,
  "s ink</w>": 3672,
  "stre ets</w>": 3673,
  "opportun ity</w>": 3674,
  "cor ri": 3675,
  "ab and": 3676,
  "ser ve</w>": 3677,
  "ster n</w>": 3678,
  "tra il</w>": 3679,
  "na med</w>": 3680,
  "an ne</w>": 3681,
  "he els</w>": 3682,
  "incre di": 3683,
  "moun tain</w>": 3684,
  "gl ared</w>": 3685,
  "do zen</w>": 3686,
  "curi ous</w>": 3687,
  "excite ment</w>": 3688,
  "vi ous</w>": 3689,
  "de tails</w>": 3690,
  "ha m</w>": 3691,
  "e tte</w>": 3692,
  "lo cal</w>": 3693,
  "hor ror</w>": 3694,
  "interrup ted</w>": 3695,
  "hon est</w>": 3696,
  "proble ms</w>": 3697,
  "p on": 3698,
  "la y": 3699,
  "thr owing</w>": 3700,
  "cra p</w>": 3701,
  "st in</w>": 3702,
  "li ghtly</w>": 3703,
  "com mon</w>": 3704,
  "star s</w>": 3705,
  "differ ence</w>": 3706,
  "b ound</w>": 3707,
  "pre ssure</w>": 3708,
  "bri ef</w>": 3709,
  "bla me</w>": 3710,
  "ba stian</w>": 3711,
  "sli p</w>": 3712,
  "willi am</w>": 3713,
  "te ar</w>": 3714,
  "sc an": 3715,
  "b adly</w>": 3716,
  "coll ap": 3717,
  "en emy</w>": 3718,
  "re ver": 3719,
  "bea st</w>": 3720,
  "rela xed</w>": 3721,
  "lan gu": 3722,
  "a de</w>": 3723,
  "f our": 3724,
  "spe ll</w>": 3725,
  "boy friend</w>": 3726,
  "gr ate": 3727,
  "gir l": 3728,
  "ei gh": 3729,
  "ac her</w>": 3730,
  "squ are</w>": 3731,
  "ir on</w>": 3732,
  "h om": 3733,
  "ca mp</w>": 3734,
  "fl owers</w>": 3735,
  "safe ty</w>": 3736,
  "resp ond</w>": 3737,
  "ma lly</w>": 3738,
  "dom in": 3739,
  "dra gon</w>": 3740,
  "ju d": 3741,
  "v i</w>": 3742,
  "ex tre": 3743,
  "d le</w>": 3744,
  "stron ger</w>": 3745,
  "we ek": 3746,
  "staf f</w>": 3747,
  "mi d</w>": 3748,
  "j ared</w>": 3749,
  "ti m</w>": 3750,
  "an ts</w>": 3751,
  "stan ds</w>": 3752,
  "ill u": 3753,
  "particu lar</w>": 3754,
  "swe pt</w>": 3755,
  "ti cal</w>": 3756,
  "ca ssie</w>": 3757,
  "comfor t</w>": 3758,
  "be ll</w>": 3759,
  "gl ow</w>": 3760,
  "l and": 3761,
  "or ders</w>": 3762,
  "emo tion</w>": 3763,
  "qu ired</w>": 3764,
  "au di": 3765,
  "mur der</w>": 3766,
  "ri di": 3767,
  "ki sses</w>": 3768,
  "z es</w>": 3769,
  "bl ond</w>": 3770,
  "li ft</w>": 3771,
  "fi le</w>": 3772,
  "g al</w>": 3773,
  "luc as</w>": 3774,
  "christ mas</w>": 3775,
  "bo ss</w>": 3776,
  "ve hi": 3777,
  "st ered</w>": 3778,
  "pi ssed</w>": 3779,
  "ta ined</w>": 3780,
  "dr a</w>": 3781,
  "tw el": 3782,
  "tu cked</w>": 3783,
  "wri ting</w>": 3784,
  "de ck</w>": 3785,
  "be coming</w>": 3786,
  "w re": 3787,
  "fe atures</w>": 3788,
  "rich ard</w>": 3789,
  "thi ghs</w>": 3790,
  "in crea": 3791,
  "hur ry</w>": 3792,
  "fa iled</w>": 3793,
  "je sus</w>": 3794,
  "elev ator</w>": 3795,
  "blo ck</w>": 3796,
  "s nar": 3797,
  "si mi": 3798,
  "re li": 3799,
  "t le": 3800,
  "goo d": 3801,
  "v ity</w>": 3802,
  "pla in</w>": 3803,
  "ky lie</w>": 3804,
  "ir ri": 3805,
  "oli via</w>": 3806,
  "comm and</w>": 3807,
  "d der</w>": 3808,
  "pul se</w>": 3809,
  "sk y": 3810,
  "yor k</w>": 3811,
  "cab in</w>": 3812,
  "t v</w>": 3813,
  "ro pe</w>": 3814,
  "at en</w>": 3815,
  "en t": 3816,
  "mat eri": 3817,
  "elec tri": 3818,
  "lo ss</w>": 3819,
  "geor ge</w>": 3820,
  "du e</w>": 3821,
  "fac ing</w>": 3822,
  "now here</w>": 3823,
  "re spect</w>": 3824,
  "be l": 3825,
  "fu ri": 3826,
  "de st": 3827,
  "fla mes</w>": 3828,
  "b r</w>": 3829,
  "be l</w>": 3830,
  "evid ence</w>": 3831,
  "f loo": 3832,
  "ton y</w>": 3833,
  "t ing": 3834,
  "la un": 3835,
  "respon ded</w>": 3836,
  "i al</w>": 3837,
  "pour ed</w>": 3838,
  "re lease</w>": 3839,
  "fir mly</w>": 3840,
  "el ing</w>": 3841,
  "cre w</w>": 3842,
  "thru st</w>": 3843,
  "sme lled</w>": 3844,
  "comm un": 3845,
  "ab by</w>": 3846,
  "p uni": 3847,
  "c ow": 3848,
  "inclu ding</w>": 3849,
  "for ty</w>": 3850,
  "t less</w>": 3851,
  "be tra": 3852,
  "b ank</w>": 3853,
  "as y</w>": 3854,
  "se bastian</w>": 3855,
  "sc u": 3856,
  "orig in": 3857,
  "por ch</w>": 3858,
  "me mbers</w>": 3859,
  "lea der</w>": 3860,
  "e se</w>": 3861,
  "sc ow": 3862,
  "thre at</w>": 3863,
  "rep ort</w>": 3864,
  "eye brow</w>": 3865,
  "restaur ant</w>": 3866,
  "fra me</w>": 3867,
  "pro ve</w>": 3868,
  "bi gger</w>": 3869,
  "lo ts</w>": 3870,
  "so lid</w>": 3871,
  "n ic": 3872,
  "hur ried</w>": 3873,
  "j or": 3874,
  "an der</w>": 3875,
  "in ha": 3876,
  "b at": 3877,
  "in y</w>": 3878,
  "star ts</w>": 3879,
  "spir it</w>": 3880,
  "fi xed</w>": 3881,
  "ca stle</w>": 3882,
  "com pe": 3883,
  "ob li": 3884,
  "ri f": 3885,
  "re liev": 3886,
  "te xt</w>": 3887,
  "sil k</w>": 3888,
  "mb s</w>": 3889,
  "b acked</w>": 3890,
  "car ed</w>": 3891,
  "ca ve</w>": 3892,
  "p age</w>": 3893,
  "r aced</w>": 3894,
  "mor tal</w>": 3895,
  "m my</w>": 3896,
  "p ace</w>": 3897,
  "as ing</w>": 3898,
  "ne ath</w>": 3899,
  "ang ed</w>": 3900,
  "strugg led</w>": 3901,
  "plan ning</w>": 3902,
  "wh en": 3903,
  "ga ll": 3904,
  "whe el</w>": 3905,
  "amoun t</w>": 3906,
  "d ag": 3907,
  "ge ous</w>": 3908,
  "vill age</w>": 3909,
  "ma ssive</w>": 3910,
  "f ool</w>": 3911,
  "th o": 3912,
  "ignor e</w>": 3913,
  "cu stom": 3914,
  "je al": 3915,
  "spe e": 3916,
  "ge st</w>": 3917,
  "twel ve</w>": 3918,
  "ser v": 3919,
  "sc oo": 3920,
  "pp y</w>": 3921,
  "par ts</w>": 3922,
  "lo vely</w>": 3923,
  "up stairs</w>": 3924,
  "f an</w>": 3925,
  "v ac": 3926,
  "ma in": 3927,
  "e sc": 3928,
  "i vy</w>": 3929,
  "j an": 3930,
  "blank et</w>": 3931,
  "juli an</w>": 3932,
  "y n": 3933,
  "pow ers</w>": 3934,
  "v is</w>": 3935,
  "f ed</w>": 3936,
  "a th": 3937,
  "sli de</w>": 3938,
  "dam ned</w>": 3939,
  "hi gher</w>": 3940,
  "gri pped</w>": 3941,
  "ff led</w>": 3942,
  "le e</w>": 3943,
  "ti tude</w>": 3944,
  "t oo": 3945,
  "mat ch</w>": 3946,
  "mar ked</w>": 3947,
  "wid ened</w>": 3948,
  "ri pped</w>": 3949,
  "rema in</w>": 3950,
  "si e</w>": 3951,
  "p a</w>": 3952,
  "coun cil</w>": 3953,
  "mach ine</w>": 3954,
  "ssi ons</w>": 3955,
  "under standing</w>": 3956,
  "chi ef</w>": 3957,
  "when ever</w>": 3958,
  "in j": 3959,
  "bl ur": 3960,
  "shi eld</w>": 3961,
  "mar riage</w>": 3962,
  "th ri": 3963,
  "inten se</w>": 3964,
  "par ked</w>": 3965,
  "pa pers</w>": 3966,
  "on er</w>": 3967,
  "con centr": 3968,
  "chri stian</w>": 3969,
  "guil t</w>": 3970,
  "mi a</w>": 3971,
  "un comfortable</w>": 3972,
  "oc cu": 3973,
  "o ce": 3974,
  "a mon": 3975,
  "an tly</w>": 3976,
  "vic tor": 3977,
  "re que": 3978,
  "dem ons</w>": 3979,
  "f lat": 3980,
  "ridi cul": 3981,
  "ur ge</w>": 3982,
  "g age</w>": 3983,
  "wh om</w>": 3984,
  "k al": 3985,
  "eli za": 3986,
  "pur se</w>": 3987,
  "rea sons</w>": 3988,
  "ni ghts</w>": 3989,
  "brief ly</w>": 3990,
  "mi llion</w>": 3991,
  "in ches</w>": 3992,
  "ten sion</w>": 3993,
  "under neath</w>": 3994,
  "insi sted</w>": 3995,
  "reliev ed</w>": 3996,
  "wri te</w>": 3997,
  "enjo yed</w>": 3998,
  "cap able</w>": 3999,
  "choo se</w>": 4000,
  "wol ves</w>": 4001,
  "practi cally</w>": 4002,
  "ous es</w>": 4003,
  "co vering</w>": 4004,
  "ex pen": 4005,
  "joh n": 4006,
  "eng lish</w>": 4007,
  "war ned</w>": 4008,
  "sli ght</w>": 4009,
  "mon ster</w>": 4010,
  "c ure</w>": 4011,
  "ac cor": 4012,
  "survi ve</w>": 4013,
  "anti ci": 4014,
  "star tled</w>": 4015,
  "maj or</w>": 4016,
  "bir d</w>": 4017,
  "ti cally</w>": 4018,
  "wh el": 4019,
  "heavi ly</w>": 4020,
  "mp a": 4021,
  "m m</w>": 4022,
  "rela x</w>": 4023,
  "ru bbing</w>": 4024,
  "j ane</w>": 4025,
  "z ation</w>": 4026,
  "r ou": 4027,
  "di a</w>": 4028,
  "confu sion</w>": 4029,
  "ri an</w>": 4030,
  "dan cing</w>": 4031,
  "rai se</w>": 4032,
  "ic a</w>": 4033,
  "tab les</w>": 4034,
  "ea se</w>": 4035,
  "pla stic</w>": 4036,
  "h at</w>": 4037,
  "g as": 4038,
  "li am</w>": 4039,
  "on a</w>": 4040,
  "sto pping</w>": 4041,
  "fi er": 4042,
  "eng ine</w>": 4043,
  "ba lls</w>": 4044,
  "l ined</w>": 4045,
  "libr ary</w>": 4046,
  "po i": 4047,
  "wi tch</w>": 4048,
  "gar den</w>": 4049,
  "re g": 4050,
  "bla ke</w>": 4051,
  "sp or": 4052,
  "ble w</w>": 4053,
  "haw k</w>": 4054,
  "camer a</w>": 4055,
  "ne t</w>": 4056,
  "chri s</w>": 4057,
  "g ers</w>": 4058,
  "w ow</w>": 4059,
  "conne ction</w>": 4060,
  "mar ry</w>": 4061,
  "inno cent</w>": 4062,
  "c ture</w>": 4063,
  "ang le</w>": 4064,
  "li ght": 4065,
  "st ate": 4066,
  "p ure</w>": 4067,
  "tra vel</w>": 4068,
  "ta li": 4069,
  "grate ful</w>": 4070,
  "mer ely</w>": 4071,
  "bir th": 4072,
  "al er": 4073,
  "nor mally</w>": 4074,
  "na ils</w>": 4075,
  "ru les</w>": 4076,
  "re sting</w>": 4077,
  "eliza beth</w>": 4078,
  "acci dent</w>": 4079,
  "con nor</w>": 4080,
  "ho pe": 4081,
  "al d</w>": 4082,
  "ga tion</w>": 4083,
  "convin ced</w>": 4084,
  "plan et</w>": 4085,
  "off ici": 4086,
  "sig ns</w>": 4087,
  "for got</w>": 4088,
  "me al</w>": 4089,
  "hand some</w>": 4090,
  "f ic</w>": 4091,
  "emp lo": 4092,
  "ch o</w>": 4093,
  "li qu": 4094,
  "ga in</w>": 4095,
  "i zed</w>": 4096,
  "ad mir": 4097,
  "x ing</w>": 4098,
  "app ear</w>": 4099,
  "ag ent</w>": 4100,
  "swi r": 4101,
  "hal f": 4102,
  "fi x</w>": 4103,
  "char ac": 4104,
  "thr own</w>": 4105,
  "dro pping</w>": 4106,
  "juli a</w>": 4107,
  "p et</w>": 4108,
  "te lls</w>": 4109,
  "h int</w>": 4110,
  "f ying</w>": 4111,
  "p ounding</w>": 4112,
  "win ter</w>": 4113,
  "l ack</w>": 4114,
  "cre ated</w>": 4115,
  "fro ze</w>": 4116,
  "horri ble</w>": 4117,
  "ang s</w>": 4118,
  "s ank</w>": 4119,
  "t an</w>": 4120,
  "hone stly</w>": 4121,
  "pic king</w>": 4122,
  "pi le</w>": 4123,
  "en ter</w>": 4124,
  "sp ring</w>": 4125,
  "profe ss": 4126,
  "sp lit</w>": 4127,
  "cre atures</w>": 4128,
  "girl friend</w>": 4129,
  "gu l": 4130,
  "be lle</w>": 4131,
  "jo y</w>": 4132,
  "sh y</w>": 4133,
  "pleas ant</w>": 4134,
  "assu med</w>": 4135,
  "mi ser": 4136,
  "se ven": 4137,
  "tun nel</w>": 4138,
  "li fe": 4139,
  "glan cing</w>": 4140,
  "no ds</w>": 4141,
  "effe ct</w>": 4142,
  "ac tions</w>": 4143,
  "mili tary</w>": 4144,
  "stu mbled</w>": 4145,
  "sen si": 4146,
  "dist ur": 4147,
  "re luc": 4148,
  "prin cess</w>": 4149,
  "week end</w>": 4150,
  "ff s</w>": 4151,
  "se an</w>": 4152,
  "tre ss</w>": 4153,
  "vi o": 4154,
  "fren ch</w>": 4155,
  "gra du": 4156,
  "conne cted</w>": 4157,
  "cu te</w>": 4158,
  "over whel": 4159,
  "j ace</w>": 4160,
  "wea k": 4161,
  "sh ment</w>": 4162,
  "fas hi": 4163,
  "in du": 4164,
  "fli pped</w>": 4165,
  "anim als</w>": 4166,
  "ji m</w>": 4167,
  "wal ks</w>": 4168,
  "un fortunately</w>": 4169,
  "fir ed</w>": 4170,
  "con st": 4171,
  "ous ness</w>": 4172,
  "b om": 4173,
  "ow ning</w>": 4174,
  "b ble</w>": 4175,
  "ac es</w>": 4176,
  "cen tly</w>": 4177,
  "fi sts</w>": 4178,
  "u pper</w>": 4179,
  "de b": 4180,
  "k i</w>": 4181,
  "lun gs</w>": 4182,
  "sty le</w>": 4183,
  "ri d</w>": 4184,
  "i us</w>": 4185,
  "t at": 4186,
  "ca sh</w>": 4187,
  "appreci ate</w>": 4188,
  "me aning</w>": 4189,
  "ex per": 4190,
  "a lli": 4191,
  "l ts</w>": 4192,
  "ni fic": 4193,
  "ci gar": 4194,
  "w ere": 4195,
  "ghten ing</w>": 4196,
  "h ouses</w>": 4197,
  "pregn ant</w>": 4198,
  "ea st</w>": 4199,
  "grab bing</w>": 4200,
  "dd led</w>": 4201,
  "gre e": 4202,
  "or ange</w>": 4203,
  "pas sion</w>": 4204,
  "than k": 4205,
  "chang ing</w>": 4206,
  "bl on": 4207,
  "cha irs</w>": 4208,
  "fe ed</w>": 4209,
  "z a</w>": 4210,
  "hu gged</w>": 4211,
  "clo set</w>": 4212,
  "tan tly</w>": 4213,
  "dist ant</w>": 4214,
  "ar med</w>": 4215,
  "ther e": 4216,
  "cr ack</w>": 4217,
  "lou dly</w>": 4218,
  "da ddy</w>": 4219,
  "en ces</w>": 4220,
  "bag s</w>": 4221,
  "ac le</w>": 4222,
  "ed die</w>": 4223,
  "sp ine</w>": 4224,
  "ki ller</w>": 4225,
  "pas sen": 4226,
  "jo sh</w>": 4227,
  "sear ched</w>": 4228,
  "as se": 4229,
  "fer red</w>": 4230,
  "h a</w>": 4231,
  "aw ful</w>": 4232,
  "i st</w>": 4233,
  "ev ents</w>": 4234,
  "g w": 4235,
  "buil dings</w>": 4236,
  "tre mbling</w>": 4237,
  "ssi on": 4238,
  "k ev": 4239,
  "sti ff": 4240,
  "gho st</w>": 4241,
  "da y": 4242,
  "tau ght</w>": 4243,
  "sk u": 4244,
  "plu s</w>": 4245,
  "hon or</w>": 4246,
  "wa shed</w>": 4247,
  "co tt": 4248,
  "practi ce</w>": 4249,
  "gen tle": 4250,
  "o p</w>": 4251,
  "we i": 4252,
  "e qui": 4253,
  "cl oud</w>": 4254,
  "z o": 4255,
  "ti lted</w>": 4256,
  "recogni ze</w>": 4257,
  "con fe": 4258,
  "fur y</w>": 4259,
  "l ace</w>": 4260,
  "tre ated</w>": 4261,
  "se ction</w>": 4262,
  "clou ds</w>": 4263,
  "bro o": 4264,
  "m ely</w>": 4265,
  "e ss": 4266,
  "har d": 4267,
  "as m</w>": 4268,
  "accep ted</w>": 4269,
  "li ssa</w>": 4270,
  "destro y</w>": 4271,
  "some body</w>": 4272,
  "me as": 4273,
  "qu a": 4274,
  "radi o</w>": 4275,
  "tre at</w>": 4276,
  "ri s</w>": 4277,
  "se qu": 4278,
  "langu age</w>": 4279,
  "fro zen</w>": 4280,
  "clo thing</w>": 4281,
  "a my</w>": 4282,
  "sh ly</w>": 4283,
  "cep tion</w>": 4284,
  "ri ley</w>": 4285,
  "l o</w>": 4286,
  "k ir": 4287,
  "cha in</w>": 4288,
  "warri or</w>": 4289,
  "da mage</w>": 4290,
  "sa ke</w>": 4291,
  "cry st": 4292,
  "f at</w>": 4293,
  "el bow</w>": 4294,
  "regre t</w>": 4295,
  "cur rent</w>": 4296,
  "belie f</w>": 4297,
  "gor geous</w>": 4298,
  "avo i": 4299,
  "americ an</w>": 4300,
  "ad di": 4301,
  "tu gged</w>": 4302,
  "ex </w>": 4303,
  "re l</w>": 4304,
  "fr ank</w>": 4305,
  "be ating</w>": 4306,
  "strea m</w>": 4307,
  "l ab": 4308,
  "tow el</w>": 4309,
  "sta ir": 4310,
  "cr ou": 4311,
  "ang led</w>": 4312,
  "con ten": 4313,
  "p it</w>": 4314,
  "cr acked</w>": 4315,
  "ck les</w>": 4316,
  "cha mber</w>": 4317,
  "org ani": 4318,
  "oce an</w>": 4319,
  "ar i</w>": 4320,
  "corri dor</w>": 4321,
  "spo tted</w>": 4322,
  "mp le</w>": 4323,
  "ro cks</w>": 4324,
  "str anger</w>": 4325,
  "inten ded</w>": 4326,
  "sex u": 4327,
  "s ane</w>": 4328,
  "ca ll": 4329,
  "ch er": 4330,
  "jo ke</w>": 4331,
  "st led</w>": 4332,
  "li fting</w>": 4333,
  "lo gy</w>": 4334,
  "to es</w>": 4335,
  "ignor ing</w>": 4336,
  "ti ves</w>": 4337,
  "sen sation</w>": 4338,
  "su spected</w>": 4339,
  "temp le</w>": 4340,
  "idi ot</w>": 4341,
  "ch ose</w>": 4342,
  "it u": 4343,
  "for give</w>": 4344,
  "s al</w>": 4345,
  "d less</w>": 4346,
  "fi lling</w>": 4347,
  "fru stration</w>": 4348,
  "ll ows</w>": 4349,
  "g an": 4350,
  "car ol": 4351,
  "du ty</w>": 4352,
  "bal ance</w>": 4353,
  "down stairs</w>": 4354,
  "b led</w>": 4355,
  "clai m</w>": 4356,
  "ste pping</w>": 4357,
  "je ff</w>": 4358,
  "spi ri": 4359,
  "pre si": 4360,
  "back ward</w>": 4361,
  "gun s</w>": 4362,
  "ck led</w>": 4363,
  "pe ered</w>": 4364,
  "be lla</w>": 4365,
  "k at": 4366,
  "st ir": 4367,
  "g ent</w>": 4368,
  "de fe": 4369,
  "preten d</w>": 4370,
  "e pi": 4371,
  "bree ze</w>": 4372,
  "esca ped</w>": 4373,
  "cau sing</w>": 4374,
  "m bo": 4375,
  "skir t</w>": 4376,
  "sma ller</w>": 4377,
  "pri son</w>": 4378,
  "s nu": 4379,
  "susp ici": 4380,
  "pu zz": 4381,
  "guil ty</w>": 4382,
  "a st": 4383,
  "var ious</w>": 4384,
  "gover nment</w>": 4385,
  "occa sion": 4386,
  "le ans</w>": 4387,
  "stun ned</w>": 4388,
  "recei ved</w>": 4389,
  "fer ence</w>": 4390,
  "gu t</w>": 4391,
  "ten der</w>": 4392,
  "desper ately</w>": 4393,
  "exa min": 4394,
  "whi r": 4395,
  "pro gra": 4396,
  "der ek</w>": 4397,
  "lo e</w>": 4398,
  "who ever</w>": 4399,
  "secre ts</w>": 4400,
  "p he": 4401,
  "in v": 4402,
  "tri es</w>": 4403,
  "man i": 4404,
  "cli mb</w>": 4405,
  "ab rup": 4406,
  "bu i": 4407,
  "tor e</w>": 4408,
  "gabri el</w>": 4409,
  "hi ssed</w>": 4410,
  "gr ant</w>": 4411,
  "po pped</w>": 4412,
  "y ne</w>": 4413,
  "bui ld</w>": 4414,
  "mo ves</w>": 4415,
  "man age</w>": 4416,
  "exi st": 4417,
  "ad d</w>": 4418,
  "ridicul ous</w>": 4419,
  "enjo ying</w>": 4420,
  "simi lar</w>": 4421,
  "a mb": 4422,
  "p han": 4423,
  "har m</w>": 4424,
  "pat ter": 4425,
  "du g</w>": 4426,
  "far ther</w>": 4427,
  "o be": 4428,
  "au thor": 4429,
  "grand mother</w>": 4430,
  "c les</w>": 4431,
  "tra pped</w>": 4432,
  "par ted</w>": 4433,
  "ni a</w>": 4434,
  "att acked</w>": 4435,
  "d y": 4436,
  "sist ers</w>": 4437,
  "st ones</w>": 4438,
  "ann ounced</w>": 4439,
  "be gun</w>": 4440,
  "tow er</w>": 4441,
  "no tes</w>": 4442,
  "co ck</w>": 4443,
  "poin ts</w>": 4444,
  "cho sen</w>": 4445,
  "pal ms</w>": 4446,
  "f ate</w>": 4447,
  "state ment</w>": 4448,
  "be ha": 4449,
  "abrup tly</w>": 4450,
  "mi s": 4451,
  "com par": 4452,
  "inte lli": 4453,
  "re turning</w>": 4454,
  "o l</w>": 4455,
  "p en</w>": 4456,
  "bl ing</w>": 4457,
  "ll ey</w>": 4458,
  "gest ure</w>": 4459,
  "mar i": 4460,
  "awk ward</w>": 4461,
  "ma ke": 4462,
  "da wn</w>": 4463,
  "pi llow</w>": 4464,
  "s nat": 4465,
  "ho li": 4466,
  "al arm</w>": 4467,
  "l ated</w>": 4468,
  "part ner</w>": 4469,
  "stu dents</w>": 4470,
  "ex plan": 4471,
  "le x": 4472,
  "terri fied</w>": 4473,
  "i z": 4474,
  "profess or</w>": 4475,
  "dri fted</w>": 4476,
  "ro a": 4477,
  "st ated</w>": 4478,
  "as sured</w>": 4479,
  "and a</w>": 4480,
  "yan ked</w>": 4481,
  "gen cy</w>": 4482,
  "hi p</w>": 4483,
  "lon don</w>": 4484,
  "al right</w>": 4485,
  "soldi er</w>": 4486,
  "clo th</w>": 4487,
  "de ca": 4488,
  "la dies</w>": 4489,
  "lan ding</w>": 4490,
  "rea son": 4491,
  "ch loe</w>": 4492,
  "crea m</w>": 4493,
  "bun ch</w>": 4494,
  "pain ful</w>": 4495,
  "z ar": 4496,
  "w ro": 4497,
  "ru le</w>": 4498,
  "sar a</w>": 4499,
  "exhau sted</w>": 4500,
  "wa ste</w>": 4501,
  "musc le</w>": 4502,
  "c tively</w>": 4503,
  "te dly</w>": 4504,
  "particu larly</w>": 4505,
  "cur se</w>": 4506,
  "hol ds</w>": 4507,
  "sen sed</w>": 4508,
  "pri de</w>": 4509,
  "do gs</w>": 4510,
  "une x": 4511,
  "app e": 4512,
  "cal e": 4513,
  "con fir": 4514,
  "con ce": 4515,
  "fa lls</w>": 4516,
  "tre nt</w>": 4517,
  "in su": 4518,
  "s ke": 4519,
  "in ner</w>": 4520,
  "grand father</w>": 4521,
  "circu m": 4522,
  "m un": 4523,
  "nur se</w>": 4524,
  "bi ts</w>": 4525,
  "de scen": 4526,
  "birth day</w>": 4527,
  "moun tains</w>": 4528,
  "photo gra": 4529,
  "en ds</w>": 4530,
  "l ur": 4531,
  "ing ton</w>": 4532,
  "m o</w>": 4533,
  "r hy": 4534,
  "com ment</w>": 4535,
  "thi gh</w>": 4536,
  "lar ger</w>": 4537,
  "gr and</w>": 4538,
  "fr own</w>": 4539,
  "li cked</w>": 4540,
  "mar cus</w>": 4541,
  "che cking</w>": 4542,
  "pre ci": 4543,
  "shoo ting</w>": 4544,
  "p ha": 4545,
  "wea ther</w>": 4546,
  "ga zed</w>": 4547,
  "gl owing</w>": 4548,
  "att ered</w>": 4549,
  "bri lli": 4550,
  "an x": 4551,
  "pur ple</w>": 4552,
  "imp ati": 4553,
  "co lon": 4554,
  "blon de</w>": 4555,
  "echo ed</w>": 4556,
  "ma sk</w>": 4557,
  "li mi": 4558,
  "ju dge</w>": 4559,
  "li ter": 4560,
  "r on</w>": 4561,
  "snor ted</w>": 4562,
  "mar ks</w>": 4563,
  "t ch": 4564,
  "gli mp": 4565,
  "fli ck": 4566,
  "ri ding</w>": 4567,
  "sp ing</w>": 4568,
  "si p</w>": 4569,
  "a me": 4570,
  "soun ding</w>": 4571,
  "gar age</w>": 4572,
  "sha kes</w>": 4573,
  "thr ough": 4574,
  "ci vi": 4575,
  "sp la": 4576,
  "k ing": 4577,
  "k er": 4578,
  "ar ched</w>": 4579,
  "strai ghtened</w>": 4580,
  "de p": 4581,
  "col ored</w>": 4582,
  "foot steps</w>": 4583,
  "gu s</w>": 4584,
  "bow l</w>": 4585,
  "ck en</w>": 4586,
  "bl an": 4587,
  "bl es</w>": 4588,
  "p acked</w>": 4589,
  "en cou": 4590,
  "vani shed</w>": 4591,
  "ju sti": 4592,
  "embarra ssed</w>": 4593,
  "de velop": 4594,
  "br a</w>": 4595,
  "experien ced</w>": 4596,
  "so oner</w>": 4597,
  "sha de</w>": 4598,
  "u gly</w>": 4599,
  "shi r": 4600,
  "mu m</w>": 4601,
  "ang el": 4602,
  "d at": 4603,
  "g lea": 4604,
  "ter y</w>": 4605,
  "deser ve</w>": 4606,
  "i sh</w>": 4607,
  "ben ch</w>": 4608,
  "half way</w>": 4609,
  "d el</w>": 4610,
  "to tal</w>": 4611,
  "sof a</w>": 4612,
  "w on</w>": 4613,
  "cen tu": 4614,
  "cu tting</w>": 4615,
  "cla y</w>": 4616,
  "r acing</w>": 4617,
  "con clu": 4618,
  "sa tur": 4619,
  "frien dly</w>": 4620,
  "satis fied</w>": 4621,
  "ex ha": 4622,
  "fa vor</w>": 4623,
  "gri m": 4624,
  "tra ff": 4625,
  "n an": 4626,
  "nu mbers</w>": 4627,
  "she et</w>": 4628,
  "sen ten": 4629,
  "con sci": 4630,
  "gl are</w>": 4631,
  "al co": 4632,
  "n on</w>": 4633,
  "ex pl": 4634,
  "wa sh</w>": 4635,
  "mat ters</w>": 4636,
  "advan tage</w>": 4637,
  "tor n</w>": 4638,
  "re be": 4639,
  "victor ia</w>": 4640,
  "ste ve</w>": 4641,
  "con temp": 4642,
  "ro bert</w>": 4643,
  "en ter": 4644,
  "o '": 4645,
  "tt a</w>": 4646,
  "pl at": 4647,
  "ma p</w>": 4648,
  "ma d": 4649,
  "b o</w>": 4650,
  "mu mbled</w>": 4651,
  "l en</w>": 4652,
  "convin ce</w>": 4653,
  "cat ching</w>": 4654,
  "en velop": 4655,
  "appro ach</w>": 4656,
  "through out</w>": 4657,
  "corre ct</w>": 4658,
  "sour ce</w>": 4659,
  "f abri": 4660,
  "ex it</w>": 4661,
  "hun dre": 4662,
  "po pu": 4663,
  "ur y</w>": 4664,
  "li kes</w>": 4665,
  "sing ly</w>": 4666,
  "pa ying</w>": 4667,
  "ro de</w>": 4668,
  "com pla": 4669,
  "hea ven</w>": 4670,
  "po st</w>": 4671,
  "sche du": 4672,
  "i te": 4673,
  "cl an</w>": 4674,
  "shi f": 4675,
  "ta pped</w>": 4676,
  "as sist": 4677,
  "th less</w>": 4678,
  "s mu": 4679,
  "destro yed</w>": 4680,
  "er ie</w>": 4681,
  "un like</w>": 4682,
  "b owed</w>": 4683,
  "for cing</w>": 4684,
  "ba y</w>": 4685,
  "tra ined</w>": 4686,
  "jo se": 4687,
  "whisp ers</w>": 4688,
  "hun t</w>": 4689,
  "bi lly</w>": 4690,
  "a va": 4691,
  "eas ed</w>": 4692,
  "rema ining</w>": 4693,
  "me at</w>": 4694,
  "si lly</w>": 4695,
  "sco tt</w>": 4696,
  "neigh b": 4697,
  "bro ad</w>": 4698,
  "t ask</w>": 4699,
  "mag gie</w>": 4700,
  "re ar</w>": 4701,
  "cle aring</w>": 4702,
  "stan ces</w>": 4703,
  "n it": 4704,
  "si zed</w>": 4705,
  "b ond</w>": 4706,
  "a man": 4707,
  "pain ted</w>": 4708,
  "appear ance</w>": 4709,
  "tar get</w>": 4710,
  "e ager</w>": 4711,
  "spe ct": 4712,
  "hel ple": 4713,
  "el ds</w>": 4714,
  "spar k": 4715,
  "vi de": 4716,
  "r ab": 4717,
  "ser ies</w>": 4718,
  "re tri": 4719,
  "g al": 4720,
  "lu cy</w>": 4721,
  "ac cess</w>": 4722,
  "la p": 4723,
  "fai th</w>": 4724,
  "co p</w>": 4725,
  "gest ured</w>": 4726,
  "cale b</w>": 4727,
  "dete ctive</w>": 4728,
  "pri ce</w>": 4729,
  "peri o": 4730,
  "ad dress</w>": 4731,
  "gr inning</w>": 4732,
  "sla pped</w>": 4733,
  "bl ank</w>": 4734,
  "jour ney</w>": 4735,
  "prote ction</w>": 4736,
  "e ter": 4737,
  "lo tte</w>": 4738,
  "r att": 4739,
  "fri ghtened</w>": 4740,
  "wro te</w>": 4741,
  "lat ing</w>": 4742,
  "su it": 4743,
  "surr ounding</w>": 4744,
  "ga mes</w>": 4745,
  "ki d": 4746,
  "pro gre": 4747,
  "imag es</w>": 4748,
  "responsi ble</w>": 4749,
  "every body</w>": 4750,
  "en or": 4751,
  "p ack": 4752,
  "ous in</w>": 4753,
  "c ousin</w>": 4754,
  "ten se</w>": 4755,
  "gar ion</w>": 4756,
  "compan i": 4757,
  "al y": 4758,
  "challen ge</w>": 4759,
  "fe a": 4760,
  "c tors</w>": 4761,
  "de an</w>": 4762,
  "wra p</w>": 4763,
  "gue ssed</w>": 4764,
  "possi bility</w>": 4765,
  "f led</w>": 4766,
  "ca m": 4767,
  "sun light</w>": 4768,
  "ma s": 4769,
  "sku ll</w>": 4770,
  "dri ve": 4771,
  "pp le</w>": 4772,
  "stri ke</w>": 4773,
  "cur sed</w>": 4774,
  "re cently</w>": 4775,
  "w an</w>": 4776,
  "de pen": 4777,
  "m are</w>": 4778,
  "ter ror</w>": 4779,
  "w y": 4780,
  "e ked</w>": 4781,
  "ar gue</w>": 4782,
  "tr ace</w>": 4783,
  "au tom": 4784,
  "vio let</w>": 4785,
  "me mber</w>": 4786,
  "a than</w>": 4787,
  "b ou": 4788,
  "hi tting</w>": 4789,
  "v ent</w>": 4790,
  "sti on</w>": 4791,
  "men ted</w>": 4792,
  "sha me</w>": 4793,
  "sen ses</w>": 4794,
  "o sity</w>": 4795,
  "cer e": 4796,
  "ad ju": 4797,
  "tri stan</w>": 4798,
  "a do": 4799,
  "kee ps</w>": 4800,
  "strugg ling</w>": 4801,
  "bu zz": 4802,
  "b ows</w>": 4803,
  "vehi cle</w>": 4804,
  "gh ten</w>": 4805,
  "rai sing</w>": 4806,
  "dr ank</w>": 4807,
  "traff ic</w>": 4808,
  "gh ty</w>": 4809,
  "k at</w>": 4810,
  "ex claimed</w>": 4811,
  "char les</w>": 4812,
  "li z</w>": 4813,
  "y ards</w>": 4814,
  "a de": 4815,
  "tr act</w>": 4816,
  "unex pe": 4817,
  "shar ply</w>": 4818,
  "pri son": 4819,
  "our selves</w>": 4820,
  "je cted</w>": 4821,
  "co st</w>": 4822,
  "discu ss</w>": 4823,
  "h ome": 4824,
  "lo cation</w>": 4825,
  "bloo d": 4826,
  "d ining</w>": 4827,
  "f oun": 4828,
  "di smi": 4829,
  "pun ch</w>": 4830,
  "wi ll": 4831,
  "hun ting</w>": 4832,
  "na u": 4833,
  "di an</w>": 4834,
  "col ate</w>": 4835,
  "bo b</w>": 4836,
  "ab sen": 4837,
  "st ag": 4838,
  "tru sted</w>": 4839,
  "sel </w>": 4840,
  "brea st</w>": 4841,
  "ck le</w>": 4842,
  "ough ly</w>": 4843,
  "dam p</w>": 4844,
  "stro ked</w>": 4845,
  "an drew</w>": 4846,
  "regu lar</w>": 4847,
  "t ough</w>": 4848,
  "br and": 4849,
  "ci a</w>": 4850,
  "drive way</w>": 4851,
  "cryst al</w>": 4852,
  "cho colate</w>": 4853,
  "occur red</w>": 4854,
  "lo ving</w>": 4855,
  "ca ge</w>": 4856,
  "bir th</w>": 4857,
  "co ps</w>": 4858,
  "lo s</w>": 4859,
  "sc ar</w>": 4860,
  "har ry</w>": 4861,
  "bo thered</w>": 4862,
  "ab e</w>": 4863,
  "2 0": 4864,
  "i sion</w>": 4865,
  "d al": 4866,
  "clo sely</w>": 4867,
  "m n</w>": 4868,
  "chi ll</w>": 4869,
  "se ated</w>": 4870,
  "wor l": 4871,
  "ca tions</w>": 4872,
  "t elev": 4873,
  "le tters</w>": 4874,
  "na than</w>": 4875,
  "pi dly</w>": 4876,
  "the tic</w>": 4877,
  "g ant</w>": 4878,
  "rememb ering</w>": 4879,
  "accor ding</w>": 4880,
  "jon athan</w>": 4881,
  "smi th</w>": 4882,
  "vo lu": 4883,
  "lou der</w>": 4884,
  "sa u": 4885,
  "shu dd": 4886,
  "some what</w>": 4887,
  "pat ted</w>": 4888,
  "explan ation</w>": 4889,
  "sy mpa": 4890,
  "re mo": 4891,
  "v et</w>": 4892,
  "re placed</w>": 4893,
  "str ated</w>": 4894,
  "pal ace</w>": 4895,
  "co vers</w>": 4896,
  "att ached</w>": 4897,
  "she ll</w>": 4898,
  "ver sion</w>": 4899,
  "i ses</w>": 4900,
  "mi st</w>": 4901,
  "c lau": 4902,
  "d ating</w>": 4903,
  "wa ll": 4904,
  "po ten": 4905,
  "vo lun": 4906,
  "bull et</w>": 4907,
  "chri st</w>": 4908,
  "po t</w>": 4909,
  "exist ence</w>": 4910,
  "se ttle</w>": 4911,
  "sc ru": 4912,
  "re search</w>": 4913,
  "g own</w>": 4914,
  "bu tt</w>": 4915,
  "p y": 4916,
  "sl owed</w>": 4917,
  "assu me</w>": 4918,
  "liqu id</w>": 4919,
  "beha vi": 4920,
  "doll ars</w>": 4921,
  "vi br": 4922,
  "sel ess</w>": 4923,
  "pro per</w>": 4924,
  "man ner</w>": 4925,
  "yl an</w>": 4926,
  "ordin ary</w>": 4927,
  "ing ed</w>": 4928,
  "ther ine</w>": 4929,
  "t ness</w>": 4930,
  "d i</w>": 4931,
  "re al": 4932,
  "ca li": 4933,
  "ba ll": 4934,
  "thou ght": 4935,
  "cau ti": 4936,
  "mo aned</w>": 4937,
  "b ac": 4938,
  "gg led</w>": 4939,
  "plac ing</w>": 4940,
  "sh ine</w>": 4941,
  "y den</w>": 4942,
  "ther n</w>": 4943,
  "quar ters</w>": 4944,
  "ro o": 4945,
  "dan ny</w>": 4946,
  "gas p</w>": 4947,
  "cri me</w>": 4948,
  "she ets</w>": 4949,
  "char lotte</w>": 4950,
  "stru ction</w>": 4951,
  "no dding</w>": 4952,
  "t i</w>": 4953,
  "gre at": 4954,
  "tra y</w>": 4955,
  "gg y</w>": 4956,
  "light ning</w>": 4957,
  "hundre ds</w>": 4958,
  "ale c</w>": 4959,
  "de clar": 4960,
  "de cor": 4961,
  "tt erly</w>": 4962,
  "de gre": 4963,
  "ra w</w>": 4964,
  "e m": 4965,
  "mo on": 4966,
  "f angs</w>": 4967,
  "ro man": 4968,
  "in sane</w>": 4969,
  "ra y</w>": 4970,
  "pre di": 4971,
  "pi sto": 4972,
  "ac cu": 4973,
  "ca ke</w>": 4974,
  "dra g</w>": 4975,
  "fac tion</w>": 4976,
  "or ing</w>": 4977,
  "presi dent</w>": 4978,
  "bir ds</w>": 4979,
  "clu e</w>": 4980,
  "ev ent</w>": 4981,
  "gen u": 4982,
  "squ ir": 4983,
  "pre vious</w>": 4984,
  "happ iness</w>": 4985,
  "issu e</w>": 4986,
  "no ted</w>": 4987,
  "te ach</w>": 4988,
  "confi dence</w>": 4989,
  "invi ted</w>": 4990,
  "ri e</w>": 4991,
  "ph y</w>": 4992,
  "bl ind</w>": 4993,
  "ki dding</w>": 4994,
  "suc cess": 4995,
  "ev an</w>": 4996,
  "squee ze</w>": 4997,
  "pa tion</w>": 4998,
  "aband oned</w>": 4999,
  "gra sp</w>": 5000,
  "po ckets</w>": 5001,
  "lo ad</w>": 5002,
  "drin ks</w>": 5003,
  "b i</w>": 5004,
  "rea s": 5005,
  "s se</w>": 5006,
  "po p</w>": 5007,
  "ble eding</w>": 5008,
  "dru g</w>": 5009,
  "st ops</w>": 5010,
  "re ss</w>": 5011,
  "dra ke</w>": 5012,
  "stu dying</w>": 5013,
  "cigar ette</w>": 5014,
  "recor d</w>": 5015,
  "agre ement</w>": 5016,
  "laugh s</w>": 5017,
  "amu sed</w>": 5018,
  "gg s</w>": 5019,
  "f ence</w>": 5020,
  "tri ck</w>": 5021,
  "aman da</w>": 5022,
  "a x": 5023,
  "y ly</w>": 5024,
  "confi dent</w>": 5025,
  "or i": 5026,
  "run s</w>": 5027,
  "telev ision</w>": 5028,
  "tra iled</w>": 5029,
  "ve ins</w>": 5030,
  "dro ps</w>": 5031,
  "lo ves</w>": 5032,
  "threat ened</w>": 5033,
  "fa ke</w>": 5034,
  "sexu al</w>": 5035,
  "e llie</w>": 5036,
  "z om": 5037,
  "ali ce</w>": 5038,
  "m ere</w>": 5039,
  "re mind</w>": 5040,
  "com mi": 5041,
  "brea d</w>": 5042,
  "extre mely</w>": 5043,
  "st and": 5044,
  "sp a": 5045,
  "ha ired</w>": 5046,
  "pro of</w>": 5047,
  "te acher</w>": 5048,
  "shor e</w>": 5049,
  "pi ed</w>": 5050,
  "col in</w>": 5051,
  "wr ink": 5052,
  "stro de</w>": 5053,
  "sophi e</w>": 5054,
  "se as": 5055,
  "proper ty</w>": 5056,
  "exten ded</w>": 5057,
  "j o</w>": 5058,
  "pan ties</w>": 5059,
  "er al</w>": 5060,
  "l an</w>": 5061,
  "mon it": 5062,
  "for mer</w>": 5063,
  "at ors</w>": 5064,
  "l ab</w>": 5065,
  "origin al</w>": 5066,
  "st ling</w>": 5067,
  "da e": 5068,
  "fu l": 5069,
  "loa ded</w>": 5070,
  "di ck</w>": 5071,
  "shru g</w>": 5072,
  "fas cin": 5073,
  "ca p</w>": 5074,
  "pl un": 5075,
  "e ag": 5076,
  "deser ved</w>": 5077,
  "fla me</w>": 5078,
  "log ical</w>": 5079,
  "ten ed</w>": 5080,
  "ex posed</w>": 5081,
  "off ering</w>": 5082,
  "vul ner": 5083,
  "sna p</w>": 5084,
  "cla ws</w>": 5085,
  "sli pping</w>": 5086,
  "id an</w>": 5087,
  "di sh</w>": 5088,
  "se es</w>": 5089,
  "ff in</w>": 5090,
  "st ates</w>": 5091,
  "su e</w>": 5092,
  "ga vin</w>": 5093,
  "be ar": 5094,
  "d ylan</w>": 5095,
  "cra ft</w>": 5096,
  "materi al</w>": 5097,
  "disappoin ted</w>": 5098,
  "sh eri": 5099,
  "su spect</w>": 5100,
  "kev in</w>": 5101,
  "vir g": 5102,
  "ex e": 5103,
  "co de</w>": 5104,
  "profe ssion": 5105,
  "medi cal</w>": 5106,
  "r ings</w>": 5107,
  "devi l</w>": 5108,
  "ow ns</w>": 5109,
  "t rea": 5110,
  "lan ds</w>": 5111,
  "mat es</w>": 5112,
  "finger tips</w>": 5113,
  "b ars</w>": 5114,
  "ner ves</w>": 5115,
  "sho ts</w>": 5116,
  "sp er": 5117,
  "o tic</w>": 5118,
  "univer se</w>": 5119,
  "lu st</w>": 5120,
  "enor mous</w>": 5121,
  "su san</w>": 5122,
  "mor gan</w>": 5123,
  "and ra</w>": 5124,
  "gri ef</w>": 5125,
  "centu ries</w>": 5126,
  "ic y</w>": 5127,
  "gra ve</w>": 5128,
  "hal t</w>": 5129,
  "fe llow</w>": 5130,
  "sle y</w>": 5131,
  "har sh</w>": 5132,
  "fabri c</w>": 5133,
  "o b</w>": 5134,
  "sur ve": 5135,
  "han nah</w>": 5136,
  "fe ared</w>": 5137,
  "all ey</w>": 5138,
  "ag ged</w>": 5139,
  "thous ands</w>": 5140,
  "fin n</w>": 5141,
  "curi osity</w>": 5142,
  "ro be</w>": 5143,
  "b es</w>": 5144,
  "m mer": 5145,
  "ju stin</w>": 5146,
  "hope fully</w>": 5147,
  "lat ely</w>": 5148,
  "m .</w>": 5149,
  "belon ged</w>": 5150,
  "pro ject</w>": 5151,
  "vic tor</w>": 5152,
  "sw ing</w>": 5153,
  "b ren": 5154,
  "soci al</w>": 5155,
  "e c": 5156,
  "par a": 5157,
  "pa int</w>": 5158,
  "suc ce": 5159,
  "gh ted</w>": 5160,
  "ing er</w>": 5161,
  "bri ck</w>": 5162,
  "deli cate</w>": 5163,
  "swa llow</w>": 5164,
  "sp ending</w>": 5165,
  "in visible</w>": 5166,
  "je cts</w>": 5167,
  "shudd ered</w>": 5168,
  "sh ining</w>": 5169,
  "mon y</w>": 5170,
  "brilli ant</w>": 5171,
  "satur day</w>": 5172,
  "expen sive</w>": 5173,
  "reali zing</w>": 5174,
  "ar a</w>": 5175,
  "emer ged</w>": 5176,
  "rif le</w>": 5177,
  "all owing</w>": 5178,
  "ma ss</w>": 5179,
  "ser ge": 5180,
  "any body</w>": 5181,
  "af ford</w>": 5182,
  "z ens</w>": 5183,
  "g en</w>": 5184,
  "answ ering</w>": 5185,
  "na tion</w>": 5186,
  "ri er</w>": 5187,
  "sa tions</w>": 5188,
  "cr ack": 5189,
  "y o": 5190,
  "free dom</w>": 5191,
  "warri ors</w>": 5192,
  "jor dan</w>": 5193,
  "nerv ously</w>": 5194,
  "passen ger</w>": 5195,
  "deli ber": 5196,
  "d it</w>": 5197,
  "jeal ous</w>": 5198,
  "collap sed</w>": 5199,
  "gue sts</w>": 5200,
  "d d</w>": 5201,
  "shi vered</w>": 5202,
  "ru shing</w>": 5203,
  "ke lly</w>": 5204,
  "mid night</w>": 5205,
  "ga z": 5206,
  "shor ts</w>": 5207,
  "sp inning</w>": 5208,
  "mac </w>": 5209,
  "c ook</w>": 5210,
  "appro aching</w>": 5211,
  "pa y": 5212,
  "p ment</w>": 5213,
  "ar ely</w>": 5214,
  "distr acted</w>": 5215,
  "assa ss": 5216,
  "a mber</w>": 5217,
  "ob ject</w>": 5218,
  "rhy th": 5219,
  "ad vice</w>": 5220,
  "gh ed</w>": 5221,
  "a z": 5222,
  "hur ting</w>": 5223,
  "hor iz": 5224,
  "ex act</w>": 5225,
  "se du": 5226,
  "sh own</w>": 5227,
  "tion ally</w>": 5228,
  "cho ked</w>": 5229,
  "ava il": 5230,
  "t ate</w>": 5231,
  "re quired</w>": 5232,
  "a we": 5233,
  "car ds</w>": 5234,
  "di ly</w>": 5235,
  "bri an</w>": 5236,
  "pho to</w>": 5237,
  "te asing</w>": 5238,
  "wri sts</w>": 5239,
  "screa ms</w>": 5240,
  "disp lay</w>": 5241,
  "back ground</w>": 5242,
  "par is</w>": 5243,
  "sar ca": 5244,
  "craw led</w>": 5245,
  "in fe": 5246,
  "vide o</w>": 5247,
  "b and": 5248,
  "cre ate</w>": 5249,
  "ul ar</w>": 5250,
  "cre te</w>": 5251,
  "dan te</w>": 5252,
  "stra ined</w>": 5253,
  "over head</w>": 5254,
  "a y</w>": 5255,
  "explo ded</w>": 5256,
  "or a</w>": 5257,
  "fli cked</w>": 5258,
  "x ic": 5259,
  "pre cious</w>": 5260,
  "con ven": 5261,
  "fair ly</w>": 5262,
  "su ck</w>": 5263,
  "bor ed</w>": 5264,
  "jac ob</w>": 5265,
  "jen ny</w>": 5266,
  "sig n": 5267,
  "di gging</w>": 5268,
  "scan ned</w>": 5269,
  "mi le</w>": 5270,
  "so fi": 5271,
  "imp ro": 5272,
  "p ad</w>": 5273,
  "clo se": 5274,
  "impre ssed</w>": 5275,
  "re tt</w>": 5276,
  "coll ar</w>": 5277,
  "comman der</w>": 5278,
  "ti s</w>": 5279,
  "el even</w>": 5280,
  "bi ke</w>": 5281,
  "kn u": 5282,
  "encou ra": 5283,
  "i sy</w>": 5284,
  "sol ve</w>": 5285,
  "ll an</w>": 5286,
  "dru gs</w>": 5287,
  "sho pping</w>": 5288,
  "reve aled</w>": 5289,
  "in tri": 5290,
  "trac ks</w>": 5291,
  "b y": 5292,
  "i ted</w>": 5293,
  "pain ting</w>": 5294,
  "hun ger</w>": 5295,
  "qu it</w>": 5296,
  "sta ined</w>": 5297,
  "circum stances</w>": 5298,
  "soci ety</w>": 5299,
  "deser t</w>": 5300,
  "sc al": 5301,
  "si ts</w>": 5302,
  "gro an</w>": 5303,
  "ff y</w>": 5304,
  "mi xed</w>": 5305,
  "t ches</w>": 5306,
  "fri day</w>": 5307,
  "r ows</w>": 5308,
  "kn elt</w>": 5309,
  "char ged</w>": 5310,
  "e aten</w>": 5311,
  "a h": 5312,
  "bo xes</w>": 5313,
  "ga thering</w>": 5314,
  "mat the": 5315,
  "sun day</w>": 5316,
  "avail able</w>": 5317,
  "ren ce</w>": 5318,
  "sh er": 5319,
  "resi st</w>": 5320,
  "dae mon</w>": 5321,
  "ac count</w>": 5322,
  "ce ment</w>": 5323,
  "ti cs</w>": 5324,
  "ky le</w>": 5325,
  "con crete</w>": 5326,
  "dar ling</w>": 5327,
  "c ca</w>": 5328,
  "john ny</w>": 5329,
  "fan ta": 5330,
  "w ounds</w>": 5331,
  "si ck": 5332,
  "l ac": 5333,
  "ne ck": 5334,
  "in ion</w>": 5335,
  "cor e</w>": 5336,
  "flu shed</w>": 5337,
  "chang es</w>": 5338,
  "brea ths</w>": 5339,
  "tal s</w>": 5340,
  "sci enti": 5341,
  "infor med</w>": 5342,
  "op inion</w>": 5343,
  "ba si": 5344,
  "di m</w>": 5345,
  "mo der": 5346,
  "ro land</w>": 5347,
  "sne a": 5348,
  "pati ent</w>": 5349,
  "jer emy</w>": 5350,
  "ta sted</w>": 5351,
  "sp are</w>": 5352,
  "de tail</w>": 5353,
  "mo tioned</w>": 5354,
  "sand wi": 5355,
  "a va</w>": 5356,
  "swe at": 5357,
  "k ane</w>": 5358,
  "dire ct</w>": 5359,
  "se ll</w>": 5360,
  "shou ting</w>": 5361,
  "for ming</w>": 5362,
  "so li": 5363,
  "e py</w>": 5364,
  "co m</w>": 5365,
  "frien d": 5366,
  "in ched</w>": 5367,
  "sa ges</w>": 5368,
  "al ty</w>": 5369,
  "jer k</w>": 5370,
  "f lar": 5371,
  "r are</w>": 5372,
  "de partment</w>": 5373,
  "cra sh</w>": 5374,
  "bor ing</w>": 5375,
  "sac ri": 5376,
  "wit ne": 5377,
  "dra gging</w>": 5378,
  "anno yed</w>": 5379,
  "dag ger</w>": 5380,
  "lo ver</w>": 5381,
  "e y": 5382,
  "ff ing</w>": 5383,
  "du de</w>": 5384,
  "stu b": 5385,
  "den y</w>": 5386,
  "kno cking</w>": 5387,
  "jack son</w>": 5388,
  "k o</w>": 5389,
  "f arm</w>": 5390,
  "for ms</w>": 5391,
  "la d</w>": 5392,
  "ti sh</w>": 5393,
  "prote st</w>": 5394,
  "ma gaz": 5395,
  "dra g": 5396,
  "pun ched</w>": 5397,
  "amu sement</w>": 5398,
  "emb race</w>": 5399,
  "tr unk</w>": 5400,
  "b iting</w>": 5401,
  "ter ms</w>": 5402,
  "col t</w>": 5403,
  "mo thers</w>": 5404,
  "wa ving</w>": 5405,
  "mar a</w>": 5406,
  "col ors</w>": 5407,
  "re d": 5408,
  "u ri": 5409,
  "appro pri": 5410,
  "ja x</w>": 5411,
  "e ded</w>": 5412,
  "te ased</w>": 5413,
  "ty ler</w>": 5414,
  "h o</w>": 5415,
  "uni form</w>": 5416,
  "al ter": 5417,
  "y ers</w>": 5418,
  "sheri ff</w>": 5419,
  "bru shing</w>": 5420,
  "disapp ear</w>": 5421,
  "sha ped</w>": 5422,
  "dev on</w>": 5423,
  "cha mp": 5424,
  "exi st</w>": 5425,
  "deli cious</w>": 5426,
  "hun ters</w>": 5427,
  "rema ins</w>": 5428,
  "tra p</w>": 5429,
  "or ted</w>": 5430,
  "ar m": 5431,
  "glan ces</w>": 5432,
  "g ates</w>": 5433,
  "ev ed</w>": 5434,
  "di amon": 5435,
  "pro mp": 5436,
  "ex er": 5437,
  "ac tual</w>": 5438,
  "ho ll": 5439,
  "hel en</w>": 5440,
  "bran ches</w>": 5441,
  "clar y</w>": 5442,
  "wra pping</w>": 5443,
  "gu est</w>": 5444,
  "bb led</w>": 5445,
  "st a</w>": 5446,
  "en e</w>": 5447,
  "ace ful</w>": 5448,
  "a ye</w>": 5449,
  "g a</w>": 5450,
  "l ance</w>": 5451,
  "cor ners</w>": 5452,
  "sing ing</w>": 5453,
  "de on</w>": 5454,
  "fl owing</w>": 5455,
  "wor k": 5456,
  "dis belief</w>": 5457,
  "ye p</w>": 5458,
  "n ine": 5459,
  "reve aling</w>": 5460,
  "b last</w>": 5461,
  "vi er</w>": 5462,
  "good bye</w>": 5463,
  "th or</w>": 5464,
  "p ages</w>": 5465,
  "sha ttered</w>": 5466,
  "re aches</w>": 5467,
  "ri bs</w>": 5468,
  "p oo": 5469,
  "ide as</w>": 5470,
  "sy mbo": 5471,
  "ca ses</w>": 5472,
  "b acks</w>": 5473,
  "na sty</w>": 5474,
  "spar hawk</w>": 5475,
  "night mare</w>": 5476,
  "ro yal</w>": 5477,
  "p tion</w>": 5478,
  "win ked</w>": 5479,
  "reve al</w>": 5480,
  "d led</w>": 5481,
  "mark et</w>": 5482,
  "in ts</w>": 5483,
  "ar ia</w>": 5484,
  "hi d</w>": 5485,
  "ra pidly</w>": 5486,
  "li ar</w>": 5487,
  "sti ff</w>": 5488,
  "th us</w>": 5489,
  "or e": 5490,
  "el a": 5491,
  "t ated</w>": 5492,
  "fo g</w>": 5493,
  "l ting</w>": 5494,
  "resu lt</w>": 5495,
  "se ats</w>": 5496,
  "we al": 5497,
  "fa thers</w>": 5498,
  "satis faction</w>": 5499,
  "fier ce</w>": 5500,
  "d oo": 5501,
  "ti ghter</w>": 5502,
  "be long</w>": 5503,
  "de al": 5504,
  "mm ered</w>": 5505,
  "fla sh": 5506,
  "j on</w>": 5507,
  "shi fting</w>": 5508,
  "circ les</w>": 5509,
  "senten ce</w>": 5510,
  "je ssi": 5511,
  "thu si": 5512,
  "fur nit": 5513,
  "fa mous</w>": 5514,
  "ar chi": 5515,
  "furnit ure</w>": 5516,
  "me lissa</w>": 5517,
  "de ss</w>": 5518,
  "wi shing</w>": 5519,
  "cre dit</w>": 5520,
  "he ight</w>": 5521,
  "st atu": 5522,
  "mu d</w>": 5523,
  "en cy</w>": 5524,
  "casu al</w>": 5525,
  "tre vor</w>": 5526,
  "pisto l</w>": 5527,
  "ev es</w>": 5528,
  "incredi ble</w>": 5529,
  "comm uni": 5530,
  "ju lie</w>": 5531,
  "chi cken</w>": 5532,
  "ll as</w>": 5533,
  "gge st</w>": 5534,
  "pu s</w>": 5535,
  "de aling</w>": 5536,
  "cur ren": 5537,
  "survi ved</w>": 5538,
  "ru ssi": 5539,
  "stu ffed</w>": 5540,
  "op ens</w>": 5541,
  "bi ggest</w>": 5542,
  "beg ins</w>": 5543,
  "ow ner</w>": 5544,
  "whi pped</w>": 5545,
  "n i</w>": 5546,
  "sw o": 5547,
  "en thusi": 5548,
  "co cked</w>": 5549,
  "ski lls</w>": 5550,
  "ch ann": 5551,
  "re sc": 5552,
  "bri de</w>": 5553,
  "che er": 5554,
  "sh ane</w>": 5555,
  "k night</w>": 5556,
  "ed ges</w>": 5557,
  "mi c</w>": 5558,
  "sc attered</w>": 5559,
  "cre pt</w>": 5560,
  "de e</w>": 5561,
  "furi ous</w>": 5562,
  "p se</w>": 5563,
  "wa it": 5564,
  "behavi or</w>": 5565,
  "cab </w>": 5566,
  "shi ver</w>": 5567,
  "reque st</w>": 5568,
  "clu tched</w>": 5569,
  "ow e</w>": 5570,
  "cu pped</w>": 5571,
  "den i": 5572,
  "qu inn</w>": 5573,
  "t our</w>": 5574,
  "op tion</w>": 5575,
  "re move</w>": 5576,
  "be ard</w>": 5577,
  "min ds</w>": 5578,
  "cal mly</w>": 5579,
  "con dition</w>": 5580,
  "sh out</w>": 5581,
  "happ ily</w>": 5582,
  "perio d</w>": 5583,
  "l ink</w>": 5584,
  "ti pped</w>": 5585,
  "ti le</w>": 5586,
  "cli ff</w>": 5587,
  "mil k</w>": 5588,
  "pu ts</w>": 5589,
  "kic king</w>": 5590,
  "grow l</w>": 5591,
  "sensi tive</w>": 5592,
  "p ity</w>": 5593,
  "provi ded</w>": 5594,
  "n is</w>": 5595,
  "ro ger</w>": 5596,
  "ste al</w>": 5597,
  "consi der": 5598,
  "ga ther</w>": 5599,
  "const ant</w>": 5600,
  "sp ort</w>": 5601,
  "re act</w>": 5602,
  "de a": 5603,
  "sig nific": 5604,
  "spee ch</w>": 5605,
  "m ance</w>": 5606,
  "on g": 5607,
  "ver n</w>": 5608,
  "liter ally</w>": 5609,
  "gr unted</w>": 5610,
  "side walk</w>": 5611,
  "cou rage</w>": 5612,
  "tab ly</w>": 5613,
  "care er</w>": 5614,
  "air port</w>": 5615,
  "arr anged</w>": 5616,
  "lu x": 5617,
  "apologi ze</w>": 5618,
  "ann oun": 5619,
  "r ange</w>": 5620,
  "ba th</w>": 5621,
  "en ess</w>": 5622,
  "ex cell": 5623,
  "fur </w>": 5624,
  "lear ning</w>": 5625,
  "stu dent</w>": 5626,
  "in va": 5627,
  "no pe</w>": 5628,
  "mar tin</w>": 5629,
  "emer gency</w>": 5630,
  "win ced</w>": 5631,
  "make up</w>": 5632,
  "st ry</w>": 5633,
  "anx ious</w>": 5634,
  "va lley</w>": 5635,
  "ru pt</w>": 5636,
  "ge ar</w>": 5637,
  "pat rick</w>": 5638,
  "s om": 5639,
  "sa van": 5640,
  "bi tter</w>": 5641,
  "emo tional</w>": 5642,
  "dri ven</w>": 5643,
  "z ard</w>": 5644,
  "ex change</w>": 5645,
  "na tional</w>": 5646,
  "app oin": 5647,
  "mo an</w>": 5648,
  "swee the": 5649,
  "a ver": 5650,
  "stri p</w>": 5651,
  "chil d": 5652,
  "e lla</w>": 5653,
  "bl ink</w>": 5654,
  "se cure</w>": 5655,
  "eigh teen</w>": 5656,
  "un usual</w>": 5657,
  "arri ve</w>": 5658,
  "j im": 5659,
  "he al</w>": 5660,
  "en emi": 5661,
  "dan ced</w>": 5662,
  "mir anda</w>": 5663,
  "famili es</w>": 5664,
  "swi f": 5665,
  "t ank</w>": 5666,
  "g or</w>": 5667,
  "li ds</w>": 5668,
  "climb ing</w>": 5669,
  "cri min": 5670,
  "exe cu": 5671,
  "frea king</w>": 5672,
  "enemi es</w>": 5673,
  "thr one</w>": 5674,
  "cro ssing</w>": 5675,
  "argu ment</w>": 5676,
  "to l": 5677,
  "ve ment</w>": 5678,
  "hou se": 5679,
  "g le</w>": 5680,
  "vi du": 5681,
  "inj ured</w>": 5682,
  "s day</w>": 5683,
  "sp here</w>": 5684,
  "defen se</w>": 5685,
  "indi vidu": 5686,
  "ro ared</w>": 5687,
  "vel ed</w>": 5688,
  "sc or": 5689,
  "natur ally</w>": 5690,
  "k ha": 5691,
  "re st": 5692,
  "d ge": 5693,
  "du ll</w>": 5694,
  "dun can</w>": 5695,
  "equi pment</w>": 5696,
  "so ld</w>": 5697,
  "c on</w>": 5698,
  "resc ue</w>": 5699,
  "hu mor</w>": 5700,
  "fr ank": 5701,
  "al i</w>": 5702,
  "four th</w>": 5703,
  "up ward</w>": 5704,
  "ri p</w>": 5705,
  "jessi ca</w>": 5706,
  "dre ssing</w>": 5707,
  "foot ball</w>": 5708,
  "ac cent</w>": 5709,
  "b ased</w>": 5710,
  "sto len</w>": 5711,
  "sp en": 5712,
  "sa v": 5713,
  "clo ak</w>": 5714,
  "ha ir": 5715,
  "strugg le</w>": 5716,
  "mm it</w>": 5717,
  "disapp ear": 5718,
  "r in": 5719,
  "hu man": 5720,
  "flo ating</w>": 5721,
  "gree ted</w>": 5722,
  "b al</w>": 5723,
  "du cked</w>": 5724,
  "law yer</w>": 5725,
  "edi th</w>": 5726,
  "vic es</w>": 5727,
  "re call</w>": 5728,
  "w ounded</w>": 5729,
  "close st</w>": 5730,
  "threat ening</w>": 5731,
  "co py</w>": 5732,
  "car pet</w>": 5733,
  "do l": 5734,
  "sweethe art</w>": 5735,
  "ic ious</w>": 5736,
  "dire ctions</w>": 5737,
  "prote cted</w>": 5738,
  "mal es</w>": 5739,
  "n y": 5740,
  "stre tch</w>": 5741,
  "dist in": 5742,
  "offic ers</w>": 5743,
  "br y": 5744,
  "whi mp": 5745,
  "illu min": 5746,
  "ka tie</w>": 5747,
  "shor tly</w>": 5748,
  "reli gi": 5749,
  "ac hi": 5750,
  "sc ul": 5751,
  "j et</w>": 5752,
  "separ ate</w>": 5753,
  "dri ed</w>": 5754,
  "antici pation</w>": 5755,
  "gri m</w>": 5756,
  "kid na": 5757,
  "r out": 5758,
  "mar ie</w>": 5759,
  "ro ar</w>": 5760,
  "mp led</w>": 5761,
  "scre e": 5762,
  "ad ven": 5763,
  "do c</w>": 5764,
  "ju mping</w>": 5765,
  "glimp se</w>": 5766,
  "r i</w>": 5767,
  "de mon": 5768,
  "ho l</w>": 5769,
  "lo gi": 5770,
  "occu pied</w>": 5771,
  "se ful</w>": 5772,
  "bi le</w>": 5773,
  "sc ary</w>": 5774,
  "der ly</w>": 5775,
  "du ke</w>": 5776,
  "move ments</w>": 5777,
  "ter m</w>": 5778,
  "cen tur": 5779,
  "n ity</w>": 5780,
  "alex ander</w>": 5781,
  "gigg led</w>": 5782,
  "tal e</w>": 5783,
  "gh ters</w>": 5784,
  "draw er</w>": 5785,
  "cha sed</w>": 5786,
  "ex pan": 5787,
  "o il</w>": 5788,
  "mag n": 5789,
  "k el": 5790,
  "ki ly</w>": 5791,
  "luci en</w>": 5792,
  "wa sh": 5793,
  "heart beat</w>": 5794,
  "ic s</w>": 5795,
  "ri s": 5796,
  "near est</w>": 5797,
  "cra shed</w>": 5798,
  "sel e": 5799,
  "excell ent</w>": 5800,
  "b in": 5801,
  "r ate</w>": 5802,
  "per man": 5803,
  "impre ssion</w>": 5804,
  "bra ve</w>": 5805,
  "h ook</w>": 5806,
  "matthe w</w>": 5807,
  "ti ll</w>": 5808,
  "fru strated</w>": 5809,
  "cl in": 5810,
  "real m</w>": 5811,
  "sna ke</w>": 5812,
  "crow ded</w>": 5813,
  "ta ining</w>": 5814,
  "up right</w>": 5815,
  "g ence</w>": 5816,
  "dar ted</w>": 5817,
  "centur y</w>": 5818,
  "bo lt</w>": 5819,
  "wi cked</w>": 5820,
  "ho lly</w>": 5821,
  "sa dness</w>": 5822,
  "ru in</w>": 5823,
  "holi day</w>": 5824,
  "v ari": 5825,
  "lo bby</w>": 5826,
  "stro ke</w>": 5827,
  "ste ph": 5828,
  "to p": 5829,
  "ma ma</w>": 5830,
  "d ney</w>": 5831,
  "je sse</w>": 5832,
  "g ment</w>": 5833,
  "a .": 5834,
  "ma son</w>": 5835,
  "be gged</w>": 5836,
  "ad or": 5837,
  "c tu": 5838,
  "sp y</w>": 5839,
  "six teen</w>": 5840,
  "or ity</w>": 5841,
  "su cking</w>": 5842,
  "da w": 5843,
  "mi cro": 5844,
  "temp er": 5845,
  "ru ined</w>": 5846,
  "de adly</w>": 5847,
  "ad vi": 5848,
  "d ated</w>": 5849,
  "fl ow</w>": 5850,
  "hea ther</w>": 5851,
  "r arely</w>": 5852,
  "s wore</w>": 5853,
  "d ar</w>": 5854,
  "casu ally</w>": 5855,
  "sa ving</w>": 5856,
  "fe li": 5857,
  "r al": 5858,
  "disappoin tment</w>": 5859,
  "ro le</w>": 5860,
  "vulner able</w>": 5861,
  "bar n</w>": 5862,
  "e du": 5863,
  "da mi": 5864,
  "co lu": 5865,
  "el ena</w>": 5866,
  "con sequ": 5867,
  "be g</w>": 5868,
  "unexpe cted</w>": 5869,
  "sh ows</w>": 5870,
  "ow en</w>": 5871,
  "ye lling</w>": 5872,
  "sugge st</w>": 5873,
  "awe some</w>": 5874,
  "cab in": 5875,
  "ar ro": 5876,
  "swi tch</w>": 5877,
  "heal thy</w>": 5878,
  "cur ve</w>": 5879,
  "tw in</w>": 5880,
  "te ssa</w>": 5881,
  "snar led</w>": 5882,
  "e stab": 5883,
  "mat tered</w>": 5884,
  "tor ture</w>": 5885,
  "fre qu": 5886,
  "ta pe</w>": 5887,
  "susp icious</w>": 5888,
  "twi sting</w>": 5889,
  "sle eve</w>": 5890,
  "hand ful</w>": 5891,
  "aler t</w>": 5892,
  "profession al</w>": 5893,
  "cli cked</w>": 5894,
  "vel s</w>": 5895,
  "gar rett</w>": 5896,
  "c ke": 5897,
  "compli cated</w>": 5898,
  "as si": 5899,
  "li mbs</w>": 5900,
  "wan dered</w>": 5901,
  "ma tic</w>": 5902,
  "p ir": 5903,
  "ed ward</w>": 5904,
  "st ance</w>": 5905,
  "her o</w>": 5906,
  "el e</w>": 5907,
  "to e</w>": 5908,
  "da ve</w>": 5909,
  "for t</w>": 5910,
  "ro b</w>": 5911,
  "un known</w>": 5912,
  "tr y": 5913,
  "al ine</w>": 5914,
  "sa f": 5915,
  "co ach</w>": 5916,
  "vi lle</w>": 5917,
  "ab sor": 5918,
  "ul ti": 5919,
  "ag ony</w>": 5920,
  "temp or": 5921,
  "preten ding</w>": 5922,
  "p ounded</w>": 5923,
  "back pack</w>": 5924,
  "disgu st</w>": 5925,
  "g g</w>": 5926,
  "mul ti": 5927,
  "zz a</w>": 5928,
  "coun ted</w>": 5929,
  "pre fer</w>": 5930,
  "per mission</w>": 5931,
  "ing e</w>": 5932,
  "mar ch</w>": 5933,
  "civi li": 5934,
  "cle aning</w>": 5935,
  "con di": 5936,
  "boo t</w>": 5937,
  "ad rian</w>": 5938,
  "circ led</w>": 5939,
  "ga ined</w>": 5940,
  "progre ss</w>": 5941,
  "t ar</w>": 5942,
  "fla shing</w>": 5943,
  "tr i</w>": 5944,
  "tech ni": 5945,
  "tar a</w>": 5946,
  "stag g": 5947,
  "d ging</w>": 5948,
  "ba sement</w>": 5949,
  "provi de</w>": 5950,
  "h mm</w>": 5951,
  "conven i": 5952,
  "psy chi": 5953,
  "ta tions</w>": 5954,
  "swif tly</w>": 5955,
  "wa ter": 5956,
  "hol den</w>": 5957,
  "do cu": 5958,
  "attrac tive</w>": 5959,
  "con tra": 5960,
  "fan cy</w>": 5961,
  "serge ant</w>": 5962,
  "1 0</w>": 5963,
  "ven ge</w>": 5964,
  "tu b</w>": 5965,
  "sti cally</w>": 5966,
  "sophi a</w>": 5967,
  "sett ling</w>": 5968,
  "s in</w>": 5969,
  "mo lly</w>": 5970,
  "sh aring</w>": 5971,
  "er in</w>": 5972,
  "ken dra</w>": 5973,
  "god dess</w>": 5974,
  "exi sted</w>": 5975,
  "z er</w>": 5976,
  "star es</w>": 5977,
  "el bows</w>": 5978,
  "vic tim</w>": 5979,
  "ro me</w>": 5980,
  "for ces</w>": 5981,
  "mmer ing</w>": 5982,
  "su gar</w>": 5983,
  "str ing</w>": 5984,
  "sto le</w>": 5985,
  "re cent</w>": 5986,
  "viol ent</w>": 5987,
  "la ying</w>": 5988,
  "ss ment</w>": 5989,
  "ar ch": 5990,
  "fol ks</w>": 5991,
  "crou ched</w>": 5992,
  "a idan</w>": 5993,
  "lea pt</w>": 5994,
  "spen cer</w>": 5995,
  "ho llow</w>": 5996,
  "side ways</w>": 5997,
  "to dd</w>": 5998,
  "ac knowle": 5999,
  "su m": 6000,
  "dark ened</w>": 6001,
  "scre wed</w>": 6002,
  "myster y</w>": 6003,
  "pri est</w>": 6004,
  "ser ving</w>": 6005,
  "in flu": 6006,
  "bab e</w>": 6007,
  "a ar": 6008,
  "on ic</w>": 6009,
  "yl or</w>": 6010,
  "univer sity</w>": 6011,
  "bl owing</w>": 6012,
  "poten tial</w>": 6013,
  "mat tress</w>": 6014,
  "doub ted</w>": 6015,
  "alco hol</w>": 6016,
  "is le</w>": 6017,
  "bull shit</w>": 6018,
  "ki m</w>": 6019,
  "cru el</w>": 6020,
  "re se": 6021,
  "he li": 6022,
  "audi ence</w>": 6023,
  "ar mor</w>": 6024,
  "scre w</w>": 6025,
  "han k</w>": 6026,
  "t ag": 6027,
  "t ney</w>": 6028,
  "movi es</w>": 6029,
  "scra mbled</w>": 6030,
  "justi ce</w>": 6031,
  "fi gu": 6032,
  "posse ssed</w>": 6033,
  "tra de</w>": 6034,
  "attemp ted</w>": 6035,
  "sw inging</w>": 6036,
  "kin ds</w>": 6037,
  "si a</w>": 6038,
  "un conscious</w>": 6039,
  "g n</w>": 6040,
  "an nie</w>": 6041,
  "va st</w>": 6042,
  "ne st</w>": 6043,
  "confir med</w>": 6044,
  "pi lot</w>": 6045,
  "p ou": 6046,
  "he aling</w>": 6047,
  "ss ly</w>": 6048,
  "re pu": 6049,
  "fl ower</w>": 6050,
  "fr ed</w>": 6051,
  "mar ble</w>": 6052,
  "an dre": 6053,
  "poli te</w>": 6054,
  "im ing</w>": 6055,
  "val u": 6056,
  "for ear": 6057,
  "as soci": 6058,
  "posi tive</w>": 6059,
  "gre ater</w>": 6060,
  "ten sed</w>": 6061,
  "tion ing</w>": 6062,
  "progra m</w>": 6063,
  "chan ces</w>": 6064,
  "gui de</w>": 6065,
  "he ated</w>": 6066,
  "a wa": 6067,
  "d ant</w>": 6068,
  "fi ts</w>": 6069,
  "ha ven</w>": 6070,
  "reluc tantly</w>": 6071,
  "conten ts</w>": 6072,
  "che mi": 6073,
  "fr owning</w>": 6074,
  "e th": 6075,
  "fl or": 6076,
  "appropri ate</w>": 6077,
  "pati ence</w>": 6078,
  "hesi tation</w>": 6079,
  "horiz on</w>": 6080,
  "be gging</w>": 6081,
  "han na</w>": 6082,
  "neigh bor": 6083,
  "there fore</w>": 6084,
  "cha os</w>": 6085,
  "whisp ering</w>": 6086,
  "end less</w>": 6087,
  "e go</w>": 6088,
  "gi deon</w>": 6089,
  "t ant</w>": 6090,
  "blo cks</w>": 6091,
  "ca mp": 6092,
  "mer cy</w>": 6093,
  "z er": 6094,
  "a she</w>": 6095,
  "vi vi": 6096,
  "fi elds</w>": 6097,
  "cor por": 6098,
  "se ts</w>": 6099,
  "bal con": 6100,
  "cont ent</w>": 6101,
  "ri dge</w>": 6102,
  "sou ls</w>": 6103,
  "ma je": 6104,
  "grand ma</w>": 6105,
  "ho les</w>": 6106,
  "lon ely</w>": 6107,
  "incredi bly</w>": 6108,
  "clu tching</w>": 6109,
  "a id</w>": 6110,
  "cl ined</w>": 6111,
  "frea k</w>": 6112,
  "ja il</w>": 6113,
  "patter n</w>": 6114,
  "sig nal</w>": 6115,
  "bu ddy</w>": 6116,
  "temp er</w>": 6117,
  "th ick": 6118,
  "wor thy</w>": 6119,
  "e cho</w>": 6120,
  "ast oni": 6121,
  "g abe</w>": 6122,
  "dis cover</w>": 6123,
  "a ire</w>": 6124,
  "un sure</w>": 6125,
  "mel ted</w>": 6126,
  "d ges</w>": 6127,
  "tre mbled</w>": 6128,
  "spi lled</w>": 6129,
  "man u": 6130,
  "po sing</w>": 6131,
  "reas sur": 6132,
  "assist ant</w>": 6133,
  "ali en</w>": 6134,
  "ma i": 6135,
  "i sed</w>": 6136,
  "th ful</w>": 6137,
  "po st": 6138,
  "sol ved</w>": 6139,
  "fli es</w>": 6140,
  "hoo ked</w>": 6141,
  "li sa</w>": 6142,
  "y aw": 6143,
  "refle ction</w>": 6144,
  "cla sses</w>": 6145,
  "la mp</w>": 6146,
  "cap tured</w>": 6147,
  "la ura</w>": 6148,
  "in tent</w>": 6149,
  "supp lies</w>": 6150,
  "pl es</w>": 6151,
  "pour ing</w>": 6152,
  "travel ed</w>": 6153,
  "wa king</w>": 6154,
  "cur ved</w>": 6155,
  "u seless</w>": 6156,
  "no te": 6157,
  "ran dom</w>": 6158,
  "pic al</w>": 6159,
  "sh iny</w>": 6160,
  "rou te</w>": 6161,
  "wh er": 6162,
  "con stantly</w>": 6163,
  "car ved</w>": 6164,
  "app ears</w>": 6165,
  "o x": 6166,
  "il a</w>": 6167,
  "consci ousness</w>": 6168,
  "e dly</w>": 6169,
  "to i": 6170,
  "si vely</w>": 6171,
  "in ny</w>": 6172,
  "commun ity</w>": 6173,
  "l ers</w>": 6174,
  "envelop e</w>": 6175,
  "org asm</w>": 6176,
  "qu ir": 6177,
  "suc cess</w>": 6178,
  "lo cated</w>": 6179,
  "al oud</w>": 6180,
  "moder n</w>": 6181,
  "prote ctive</w>": 6182,
  "en der</w>": 6183,
  "v au": 6184,
  "p inned</w>": 6185,
  "snat ched</w>": 6186,
  "for ei": 6187,
  "mag ical</w>": 6188,
  "fashi on</w>": 6189,
  "ro lls</w>": 6190,
  "roman tic</w>": 6191,
  "st en": 6192,
  "sy l": 6193,
  "explo sion</w>": 6194,
  "bi es</w>": 6195,
  "at titude</w>": 6196,
  "physi cally</w>": 6197,
  "di pped</w>": 6198,
  "nee ding</w>": 6199,
  "cle aned</w>": 6200,
  "mer edith</w>": 6201,
  "viol ence</w>": 6202,
  "helple ss</w>": 6203,
  "soa ked</w>": 6204,
  "at ri": 6205,
  "knu ckles</w>": 6206,
  "v ine</w>": 6207,
  "inten sity</w>": 6208,
  "o es</w>": 6209,
  "de cent</w>": 6210,
  "instin ct</w>": 6211,
  "sh ow": 6212,
  "americ a</w>": 6213,
  "mon day</w>": 6214,
  "je ss</w>": 6215,
  "k ri": 6216,
  "hi red</w>": 6217,
  "brea sts</w>": 6218,
  "br on": 6219,
  "c iting</w>": 6220,
  "bo t</w>": 6221,
  "car t</w>": 6222,
  "hi lls</w>": 6223,
  "photo s</w>": 6224,
  "er on</w>": 6225,
  "fo ld</w>": 6226,
  "ini ti": 6227,
  "issu es</w>": 6228,
  "smir k</w>": 6229,
  "ite ms</w>": 6230,
  "di g</w>": 6231,
  "ick y</w>": 6232,
  "blin king</w>": 6233,
  "men tally</w>": 6234,
  "h in": 6235,
  "a tive</w>": 6236,
  "wher ever</w>": 6237,
  "th ly</w>": 6238,
  "coun tered</w>": 6239,
  "cur ls</w>": 6240,
  "were wolf</w>": 6241,
  "boo k": 6242,
  "imag ination</w>": 6243,
  "tur ing</w>": 6244,
  "le g": 6245,
  "an n</w>": 6246,
  "br and</w>": 6247,
  "ac ts</w>": 6248,
  "l oun": 6249,
  "psy cho": 6250,
  "sto ck</w>": 6251,
  "ve s": 6252,
  "r ow": 6253,
  "mer ci": 6254,
  "moon light</w>": 6255,
  "ag ing</w>": 6256,
  "she er</w>": 6257,
  "sn ow": 6258,
  "pur po": 6259,
  "stiff ened</w>": 6260,
  "abi lities</w>": 6261,
  "friend ship</w>": 6262,
  "e ll": 6263,
  "fl ung</w>": 6264,
  "ber ry</w>": 6265,
  "imp act</w>": 6266,
  "tr aced</w>": 6267,
  "slu mped</w>": 6268,
  "declar ed</w>": 6269,
  "re ck": 6270,
  "k et</w>": 6271,
  "in spe": 6272,
  "jen ni": 6273,
  "charac ter</w>": 6274,
  "gh test</w>": 6275,
  "in tru": 6276,
  "ma da": 6277,
  "scow led</w>": 6278,
  "gw en</w>": 6279,
  "stir red</w>": 6280,
  "c ely</w>": 6281,
  "con tained</w>": 6282,
  "sci ence</w>": 6283,
  "dri pping</w>": 6284,
  "je ssie</w>": 6285,
  "the ory</w>": 6286,
  "fru it</w>": 6287,
  "gl or": 6288,
  "figu res</w>": 6289,
  "stro king</w>": 6290,
  "grim aced</w>": 6291,
  "offici al</w>": 6292,
  "sch oo": 6293,
  "bran ch</w>": 6294,
  "a ked</w>": 6295,
  "ser van": 6296,
  "wi pe</w>": 6297,
  "sp at</w>": 6298,
  "serv ant</w>": 6299,
  "swo llen</w>": 6300,
  "lap top</w>": 6301,
  "pi zza</w>": 6302,
  "pro ved</w>": 6303,
  "high way</w>": 6304,
  "pan ic": 6305,
  "ob se": 6306,
  "ar se</w>": 6307,
  "hur ts</w>": 6308,
  "per cent</w>": 6309,
  "l ang": 6310,
  "p are</w>": 6311,
  "stic king</w>": 6312,
  "cl ung</w>": 6313,
  "surpri singly</w>": 6314,
  "ni pple</w>": 6315,
  "che a": 6316,
  "ar ran": 6317,
  "gy m</w>": 6318,
  "centr al</w>": 6319,
  "suff ering</w>": 6320,
  "jim my</w>": 6321,
  "ar row</w>": 6322,
  "di se": 6323,
  "lea ds</w>": 6324,
  "tri gger</w>": 6325,
  "ti re</w>": 6326,
  "foo lish</w>": 6327,
  "saf ely</w>": 6328,
  "responsi bility</w>": 6329,
  "l ane</w>": 6330,
  "tw ins</w>": 6331,
  "t angled</w>": 6332,
  "mi lli": 6333,
  "ch or": 6334,
  "co ast</w>": 6335,
  "less on</w>": 6336,
  "tat too</w>": 6337,
  "sa lly</w>": 6338,
  "servan ts</w>": 6339,
  "sla ve</w>": 6340,
  "travel ing</w>": 6341,
  "a tic</w>": 6342,
  "de vice</w>": 6343,
  "arran ge": 6344,
  "gri pping</w>": 6345,
  "cele br": 6346,
  "proper ly</w>": 6347,
  "te e</w>": 6348,
  "pre pare</w>": 6349,
  "u seful</w>": 6350,
  "pl ant</w>": 6351,
  "mar ia</w>": 6352,
  "sp reading</w>": 6353,
  "e state</w>": 6354,
  "an xi": 6355,
  "zo e</w>": 6356,
  "rhyth m</w>": 6357,
  "war n</w>": 6358,
  "ol as</w>": 6359,
  "tre at": 6360,
  "ou l</w>": 6361,
  "ye ll</w>": 6362,
  "brand on</w>": 6363,
  "compar ed</w>": 6364,
  "sh one</w>": 6365,
  "co ck": 6366,
  "colle ction</w>": 6367,
  "stru cture</w>": 6368,
  "fac i": 6369,
  "s words</w>": 6370,
  "twi st</w>": 6371,
  "do ck</w>": 6372,
  "sho ve</w>": 6373,
  "le i": 6374,
  "st ool</w>": 6375,
  "ag u": 6376,
  "separ ated</w>": 6377,
  "en z": 6378,
  "com pre": 6379,
  "v ar</w>": 6380,
  "fl owed</w>": 6381,
  "fa in": 6382,
  "shel f</w>": 6383,
  "pp ers</w>": 6384,
  "e ds</w>": 6385,
  "mur dered</w>": 6386,
  "suff er</w>": 6387,
  "uni ted</w>": 6388,
  "ro cked</w>": 6389,
  "deli vered</w>": 6390,
  "high ly</w>": 6391,
  "d war": 6392,
  "u tterly</w>": 6393,
  "ra ven</w>": 6394,
  "plan ted</w>": 6395,
  "da mmit</w>": 6396,
  "pat ch</w>": 6397,
  "che ese</w>": 6398,
  "fli r": 6399,
  "er up": 6400,
  "su ite</w>": 6401,
  "kee per</w>": 6402,
  "chuck le</w>": 6403,
  "moun ted</w>": 6404,
  "b ic": 6405,
  "t att": 6406,
  "de lla</w>": 6407,
  "l yn</w>": 6408,
  "a ms</w>": 6409,
  "ab or": 6410,
  "wit ness</w>": 6411,
  "e tt": 6412,
  "car ing</w>": 6413,
  "dra ined</w>": 6414,
  "jenni fer</w>": 6415,
  "cli ck</w>": 6416,
  "occasion ally</w>": 6417,
  "swe ater</w>": 6418,
  "blo cked</w>": 6419,
  "br ings</w>": 6420,
  "tre n": 6421,
  "st ack</w>": 6422,
  "mon d</w>": 6423,
  "te ss</w>": 6424,
  "person ally</w>": 6425,
  "dire cted</w>": 6426,
  "e lli": 6427,
  "quar ter</w>": 6428,
  "da isy</w>": 6429,
  "te aring</w>": 6430,
  "d ur": 6431,
  "spiri ts</w>": 6432,
  "la tions</w>": 6433,
  "r ounded</w>": 6434,
  "heal th</w>": 6435,
  "cru shed</w>": 6436,
  "n ings</w>": 6437,
  "st en</w>": 6438,
  "kar en</w>": 6439,
  "arri val</w>": 6440,
  "il er</w>": 6441,
  "butt er": 6442,
  "ank le</w>": 6443,
  "ry der</w>": 6444,
  "see k</w>": 6445,
  "ru de</w>": 6446,
  "r inging</w>": 6447,
  "aar on</w>": 6448,
  "sp s</w>": 6449,
  "back wards</w>": 6450,
  "chi ca": 6451,
  "tra sh</w>": 6452,
  "so le</w>": 6453,
  "ven s</w>": 6454,
  "fun eral</w>": 6455,
  "ex changed</w>": 6456,
  "sor e</w>": 6457,
  "pre ferred</w>": 6458,
  "cour ty": 6459,
  "balcon y</w>": 6460,
  "pe ar": 6461,
  "inten tion</w>": 6462,
  "war dly</w>": 6463,
  "bi o": 6464,
  "lo cks</w>": 6465,
  "refu se</w>": 6466,
  "fac ts</w>": 6467,
  "car riage</w>": 6468,
  "ga u": 6469,
  "jen ks</w>": 6470,
  "pp led</w>": 6471,
  "continu es</w>": 6472,
  "qu ire</w>": 6473,
  "schedu le</w>": 6474,
  "cri es</w>": 6475,
  "da tion</w>": 6476,
  "prote cting</w>": 6477,
  "su its</w>": 6478,
  "ci p": 6479,
  "child hood</w>": 6480,
  "pas sage</w>": 6481,
  "enti al</w>": 6482,
  "drea med</w>": 6483,
  "st able</w>": 6484,
  "pi e</w>": 6485,
  "un it</w>": 6486,
  "bra d</w>": 6487,
  "smir ked</w>": 6488,
  "g id</w>": 6489,
  "tri bu": 6490,
  "dem and</w>": 6491,
  "rai l</w>": 6492,
  "u ten": 6493,
  "mu g</w>": 6494,
  "du mb</w>": 6495,
  "sc ars</w>": 6496,
  "ha bit</w>": 6497,
  "le gi": 6498,
  "gra de</w>": 6499,
  "m son</w>": 6500,
  "wil dly</w>": 6501,
  "sal t</w>": 6502,
  "e tr": 6503,
  "e ggs</w>": 6504,
  "en i": 6505,
  "ad ren": 6506,
  "sur ren": 6507,
  "introdu ced</w>": 6508,
  "emplo ye": 6509,
  "d ale</w>": 6510,
  "y le</w>": 6511,
  "chica go</w>": 6512,
  "wi ping</w>": 6513,
  "s ought</w>": 6514,
  "p in</w>": 6515,
  "ner ve</w>": 6516,
  "ang ing</w>": 6517,
  "bl own</w>": 6518,
  "coun ting</w>": 6519,
  "jo ining</w>": 6520,
  "ous y</w>": 6521,
  "ha mmer</w>": 6522,
  "de vo": 6523,
  "di stri": 6524,
  "wat ers</w>": 6525,
  "a bu": 6526,
  "ci ti": 6527,
  "1 1</w>": 6528,
  "at us</w>": 6529,
  "glo ves</w>": 6530,
  "exha led</w>": 6531,
  "a k": 6532,
  "mi x</w>": 6533,
  "ta ylor</w>": 6534,
  "car ter</w>": 6535,
  "stre tching</w>": 6536,
  "strang ely</w>": 6537,
  "ne u": 6538,
  "ma id</w>": 6539,
  "g rea": 6540,
  "pl ates</w>": 6541,
  "pe te</w>": 6542,
  "re presen": 6543,
  "sc are</w>": 6544,
  "ne tt</w>": 6545,
  "questi oned</w>": 6546,
  "l i</w>": 6547,
  "d ley</w>": 6548,
  "discu ssion</w>": 6549,
  "stair case</w>": 6550,
  "neighbor hood</w>": 6551,
  "ra gged</w>": 6552,
  "pan ting</w>": 6553,
  "di vor": 6554,
  "shel ter</w>": 6555,
  "thir teen</w>": 6556,
  "s her</w>": 6557,
  "tan e": 6558,
  "boo th</w>": 6559,
  "isa ac</w>": 6560,
  "qu o": 6561,
  "mm m</w>": 6562,
  "mat ched</w>": 6563,
  "cy cle</w>": 6564,
  "g lu": 6565,
  "sofi a</w>": 6566,
  "it a</w>": 6567,
  "cr own</w>": 6568,
  "yn n</w>": 6569,
  "fal se</w>": 6570,
  "en tering</w>": 6571,
  "repe at</w>": 6572,
  "r h": 6573,
  "o' clock</w>": 6574,
  "sor ts</w>": 6575,
  "avoi ding</w>": 6576,
  "prepar ing</w>": 6577,
  "contro lled</w>": 6578,
  "re venge</w>": 6579,
  "an dy</w>": 6580,
  "app le</w>": 6581,
  "un ting</w>": 6582,
  "ang els</w>": 6583,
  "ll ers</w>": 6584,
  "la wn</w>": 6585,
  "su per</w>": 6586,
  "m in</w>": 6587,
  "ani e</w>": 6588,
  "anxi ety</w>": 6589,
  "an ces</w>": 6590,
  "n ly</w>": 6591,
  "sp it</w>": 6592,
  "sp in</w>": 6593,
  "ste fan</w>": 6594,
  "drag ons</w>": 6595,
  "magn us</w>": 6596,
  "ai den</w>": 6597,
  "ta ller</w>": 6598,
  "mur der": 6599,
  "p ounds</w>": 6600,
  "j i</w>": 6601,
  "ni ch": 6602,
  "b our": 6603,
  "u mp": 6604,
  "do ctors</w>": 6605,
  "ch arm</w>": 6606,
  "sla mming</w>": 6607,
  "def end</w>": 6608,
  "success ful</w>": 6609,
  "concentr ate</w>": 6610,
  "ph ra": 6611,
  "swi tched</w>": 6612,
  "mor s</w>": 6613,
  "myster ious</w>": 6614,
  "courty ard</w>": 6615,
  "ss er</w>": 6616,
  "fe ar": 6617,
  "solu tion</w>": 6618,
  "mel o": 6619,
  "w ren": 6620,
  "comple x</w>": 6621,
  "puzz led</w>": 6622,
  "tt er": 6623,
  "spra w": 6624,
  "expe c": 6625,
  "ca ssi": 6626,
  "dam on</w>": 6627,
  "craw l</w>": 6628,
  "ly n": 6629,
  "oli ver</w>": 6630,
  "remo te</w>": 6631,
  "jose ph</w>": 6632,
  "ob served</w>": 6633,
  "ri ly</w>": 6634,
  "he el</w>": 6635,
  "bott les</w>": 6636,
  "th ra": 6637,
  "bab ies</w>": 6638,
  "neck lace</w>": 6639,
  "re stra": 6640,
  "me ta": 6641,
  "priv acy</w>": 6642,
  "p an</w>": 6643,
  "th al</w>": 6644,
  "to ps</w>": 6645,
  "en na</w>": 6646,
  "d in</w>": 6647,
  "inci dent</w>": 6648,
  "wi re</w>": 6649,
  "cra shing</w>": 6650,
  "butt ons</w>": 6651,
  "as ha": 6652,
  "grab s</w>": 6653,
  "e ps</w>": 6654,
  "ho pes</w>": 6655,
  "t ance</w>": 6656,
  "coo king</w>": 6657,
  "coo per</w>": 6658,
  "suff ered</w>": 6659,
  "fa il</w>": 6660,
  "flick ered</w>": 6661,
  "star k</w>": 6662,
  "bull ets</w>": 6663,
  "li ghting</w>": 6664,
  "stub born</w>": 6665,
  "sha ft</w>": 6666,
  "li mp</w>": 6667,
  "overwhel ming</w>": 6668,
  "an o</w>": 6669,
  "squee zing</w>": 6670,
  "vin cent</w>": 6671,
  "c he</w>": 6672,
  "r at</w>": 6673,
  "can dy</w>": 6674,
  "four teen</w>": 6675,
  "mir acle</w>": 6676,
  "co inci": 6677,
  "pre y</w>": 6678,
  "ll owing</w>": 6679,
  "sp ite</w>": 6680,
  "s or</w>": 6681,
  "b ounced</w>": 6682,
  "u tter</w>": 6683,
  "gu it": 6684,
  "for k</w>": 6685,
  "visi ted</w>": 6686,
  "fli p</w>": 6687,
  "mes sages</w>": 6688,
  "cali for": 6689,
  "ju de</w>": 6690,
  "tri al</w>": 6691,
  "sk i</w>": 6692,
  "v ance</w>": 6693,
  "mb les</w>": 6694,
  "immedi ate</w>": 6695,
  "vel vet</w>": 6696,
  "miser able</w>": 6697,
  "to ssing</w>": 6698,
  "degre e</w>": 6699,
  "di ty</w>": 6700,
  "in ev": 6701,
  "cha sing</w>": 6702,
  "inter ior</w>": 6703,
  "ai med</w>": 6704,
  "m ingly</w>": 6705,
  "no stri": 6706,
  "n ina</w>": 6707,
  "lat est</w>": 6708,
  "drea ming</w>": 6709,
  "mu ffled</w>": 6710,
  "mon sters</w>": 6711,
  "char ming</w>": 6712,
  "heli co": 6713,
  "instru ctions</w>": 6714,
  "tr ed</w>": 6715,
  "sa dly</w>": 6716,
  "dd ling</w>": 6717,
  "cauti ously</w>": 6718,
  "cur tain</w>": 6719,
  "r o</w>": 6720,
  "eter nity</w>": 6721,
  "b end</w>": 6722,
  "an ge": 6723,
  "li cen": 6724,
  "re lated</w>": 6725,
  "comman ded</w>": 6726,
  "d les</w>": 6727,
  "ra z": 6728,
  "sal v": 6729,
  "ra in": 6730,
  "ha tred</w>": 6731,
  "ma li": 6732,
  "questi oning</w>": 6733,
  "a in</w>": 6734,
  "inclu ded</w>": 6735,
  "bur y</w>": 6736,
  "intelli gence</w>": 6737,
  "le o</w>": 6738,
  "tech no": 6739,
  "ad ver": 6740,
  "fin ds</w>": 6741,
  "sme lls</w>": 6742,
  "om i</w>": 6743,
  "t ons</w>": 6744,
  "1 2</w>": 6745,
  "volun te": 6746,
  "mi stress</w>": 6747,
  "fortun e</w>": 6748,
  "off en": 6749,
  "fair y</w>": 6750,
  "nu mb": 6751,
  "puni shment</w>": 6752,
  "sla p</w>": 6753,
  "dami en</w>": 6754,
  "see king</w>": 6755,
  "p ened</w>": 6756,
  "na tive</w>": 6757,
  "equ ally</w>": 6758,
  "ca de</w>": 6759,
  "it able</w>": 6760,
  "sin s</w>": 6761,
  "flash light</w>": 6762,
  "p .": 6763,
  "d ane</w>": 6764,
  "bo ar": 6765,
  "na il</w>": 6766,
  "ben ef": 6767,
  "me xic": 6768,
  "flar ed</w>": 6769,
  "impre ssive</w>": 6770,
  "flo ated</w>": 6771,
  "be th": 6772,
  "han ding</w>": 6773,
  "curren tly</w>": 6774,
  "e ing</w>": 6775,
  "o dd": 6776,
  "some day</w>": 6777,
  "tal ent</w>": 6778,
  "ou ts</w>": 6779,
  "sa man": 6780,
  "great est</w>": 6781,
  "ge on</w>": 6782,
  "gr ounds</w>": 6783,
  "con tract</w>": 6784,
  "poi son</w>": 6785,
  "gra sped</w>": 6786,
  "scrat ched</w>": 6787,
  "bo ards</w>": 6788,
  "invi tation</w>": 6789,
  "ev a</w>": 6790,
  "certain ty</w>": 6791,
  "re fer": 6792,
  "at lan": 6793,
  "fe eding</w>": 6794,
  "cott on</w>": 6795,
  "surpri sing</w>": 6796,
  "ph a</w>": 6797,
  "sho ving</w>": 6798,
  "sta ke</w>": 6799,
  "under ground</w>": 6800,
  "br ac": 6801,
  "nat ali": 6802,
  "ru b</w>": 6803,
  "th under</w>": 6804,
  "c ti": 6805,
  "god damn</w>": 6806,
  "da ily</w>": 6807,
  "bo bby</w>": 6808,
  "je w": 6809,
  "k ins</w>": 6810,
  "att le</w>": 6811,
  "ki es</w>": 6812,
  "swi mming</w>": 6813,
  "nu ts</w>": 6814,
  "bom b</w>": 6815,
  "j ill</w>": 6816,
  "he i": 6817,
  "camer on</w>": 6818,
  "war med</w>": 6819,
  "hi ts</w>": 6820,
  "descen ded</w>": 6821,
  "ca in</w>": 6822,
  "b at</w>": 6823,
  "na p": 6824,
  "mag ed</w>": 6825,
  "pre vent</w>": 6826,
  "terri tory</w>": 6827,
  "hear ts</w>": 6828,
  "d ens</w>": 6829,
  "thor ne</w>": 6830,
  "c ane</w>": 6831,
  "califor nia</w>": 6832,
  "k u": 6833,
  "s i</w>": 6834,
  "cru sh</w>": 6835,
  "regar dless</w>": 6836,
  "worl ds</w>": 6837,
  "la ws</w>": 6838,
  "fi res</w>": 6839,
  "forei gn</w>": 6840,
  "under wear</w>": 6841,
  "k not</w>": 6842,
  "gl and</w>": 6843,
  "da llas</w>": 6844,
  "str ate": 6845,
  "mat ely</w>": 6846,
  "ph ones</w>": 6847,
  "mon ica</w>": 6848,
  "investi gation</w>": 6849,
  "b a</w>": 6850,
  "tol er": 6851,
  "su al</w>": 6852,
  "speci es</w>": 6853,
  "inten tly</w>": 6854,
  "dire ctor</w>": 6855,
  "defe at</w>": 6856,
  "ven ess</w>": 6857,
  "cli ent</w>": 6858,
  "ac i": 6859,
  "bi lities</w>": 6860,
  "mo tor": 6861,
  "ter r": 6862,
  "so le": 6863,
  "la dder</w>": 6864,
  "our ed</w>": 6865,
  "b in</w>": 6866,
  "roa ds</w>": 6867,
  "k ings</w>": 6868,
  "new spa": 6869,
  "life time</w>": 6870,
  "li f": 6871,
  "cla ssi": 6872,
  "de sign</w>": 6873,
  "ka therine</w>": 6874,
  "de signed</w>": 6875,
  "cla sped</w>": 6876,
  "' em</w>": 6877,
  "ti ci": 6878,
  "bu t": 6879,
  "ne il</w>": 6880,
  "pre su": 6881,
  "sin king</w>": 6882,
  "el ine</w>": 6883,
  "after ward</w>": 6884,
  "pier ce</w>": 6885,
  "mi tch</w>": 6886,
  "lex i</w>": 6887,
  "gl owed</w>": 6888,
  "preten ded</w>": 6889,
  "me tho": 6890,
  "inti mate</w>": 6891,
  "sacri fice</w>": 6892,
  "du sty</w>": 6893,
  "gentle man</w>": 6894,
  "sl ender</w>": 6895,
  "cu ts</w>": 6896,
  "whi s": 6897,
  "bas ket</w>": 6898,
  "chea p</w>": 6899,
  "jen na</w>": 6900,
  "exer ci": 6901,
  "thank fully</w>": 6902,
  "plat form</w>": 6903,
  "deci sions</w>": 6904,
  "ame lia</w>": 6905,
  "cr un": 6906,
  "acti vity</w>": 6907,
  "cre ating</w>": 6908,
  "commun ic": 6909,
  "t ful</w>": 6910,
  "ank les</w>": 6911,
  "believ ing</w>": 6912,
  "cle an": 6913,
  "ta lity</w>": 6914,
  "man ager</w>": 6915,
  "op tions</w>": 6916,
  "refle cted</w>": 6917,
  "de light</w>": 6918,
  "t z</w>": 6919,
  "ag ents</w>": 6920,
  "adren aline</w>": 6921,
  "gru mbled</w>": 6922,
  "le gal</w>": 6923,
  "prison er</w>": 6924,
  "to by</w>": 6925,
  "t re</w>": 6926,
  "six ty</w>": 6927,
  "newspa per</w>": 6928,
  "is a</w>": 6929,
  "vag u": 6930,
  "f s</w>": 6931,
  "nostri ls</w>": 6932,
  "emp ha": 6933,
  "mom ent": 6934,
  "fi les</w>": 6935,
  "bar rel</w>": 6936,
  "exa mple</w>": 6937,
  "saman tha</w>": 6938,
  "mo del</w>": 6939,
  "dar ker</w>": 6940,
  "i ri": 6941,
  "indi cated</w>": 6942,
  "absolu te</w>": 6943,
  "at op</w>": 6944,
  "e mail</w>": 6945,
  "kno b</w>": 6946,
  "resu lts</w>": 6947,
  "bor e</w>": 6948,
  "p at</w>": 6949,
  "je wel": 6950,
  "ni k": 6951,
  "atten d</w>": 6952,
  "e z</w>": 6953,
  "call um</w>": 6954,
  "mi ghty</w>": 6955,
  "dar ed</w>": 6956,
  "cu ps</w>": 6957,
  "twi tched</w>": 6958,
  "dra ped</w>": 6959,
  "hi re</w>": 6960,
  "sha ky</w>": 6961,
  "an ton": 6962,
  "jo bs</w>": 6963,
  "deliber ately</w>": 6964,
  "sou thern</w>": 6965,
  "ra fe</w>": 6966,
  "per su": 6967,
  "grou ps</w>": 6968,
  "s ack</w>": 6969,
  "en gland</w>": 6970,
  "wrink led</w>": 6971,
  "at ory</w>": 6972,
  "ti ger</w>": 6973,
  "inter view</w>": 6974,
  "ro l</w>": 6975,
  "sy dney</w>": 6976,
  "descri bed</w>": 6977,
  "lau ren</w>": 6978,
  "lon g": 6979,
  "y alty</w>": 6980,
  "sni ffed</w>": 6981,
  "go al</w>": 6982,
  "author ity</w>": 6983,
  "ici ent</w>": 6984,
  "d read</w>": 6985,
  "bar ked</w>": 6986,
  "camer as</w>": 6987,
  "en ted</w>": 6988,
  "fe ars</w>": 6989,
  "betra yed</w>": 6990,
  "wait ress</w>": 6991,
  "wal ker</w>": 6992,
  "gl aring</w>": 6993,
  "seven teen</w>": 6994,
  "ja y</w>": 6995,
  "bla des</w>": 6996,
  "tri ump": 6997,
  "mo s</w>": 6998,
  "col or": 6999,
  "recor ds</w>": 7000,
  "magaz ine</w>": 7001,
  "pro phe": 7002,
  "a isle</w>": 7003,
  "ti ms</w>": 7004,
  "mat ching</w>": 7005,
  "g ary</w>": 7006,
  "may or</w>": 7007,
  "z ach</w>": 7008,
  "x on</w>": 7009,
  "effor ts</w>": 7010,
  "lo cker</w>": 7011,
  "wor rying</w>": 7012,
  "cle ver</w>": 7013,
  "rout ine</w>": 7014,
  "shad ow": 7015,
  "ac les</w>": 7016,
  "sun shine</w>": 7017,
  "er a</w>": 7018,
  "king dom</w>": 7019,
  "c ating</w>": 7020,
  "hel met</w>": 7021,
  "affe cted</w>": 7022,
  "weak ness</w>": 7023,
  "seas on</w>": 7024,
  "swi m</w>": 7025,
  "go ssi": 7026,
  "cur tains</w>": 7027,
  "ni cole</w>": 7028,
  "comfor tably</w>": 7029,
  "l aced</w>": 7030,
  "squ inted</w>": 7031,
  "sy n": 7032,
  "con fron": 7033,
  "r oughly</w>": 7034,
  "gu ed</w>": 7035,
  "sne ak</w>": 7036,
  "prote sted</w>": 7037,
  "smo king</w>": 7038,
  "tatt oo": 7039,
  "re called</w>": 7040,
  "p ted</w>": 7041,
  "inha led</w>": 7042,
  "dat a</w>": 7043,
  "me ter</w>": 7044,
  "n an</w>": 7045,
  "floo ded</w>": 7046,
  "par an": 7047,
  "adju sted</w>": 7048,
  "ex tra": 7049,
  "ar ch</w>": 7050,
  "pra yed</w>": 7051,
  "cha ins</w>": 7052,
  "lie uten": 7053,
  "lli an</w>": 7054,
  "shel ves</w>": 7055,
  "b ad": 7056,
  "ch y</w>": 7057,
  "odd ly</w>": 7058,
  "fi cation</w>": 7059,
  "deman ding</w>": 7060,
  "bu ll</w>": 7061,
  "produ ced</w>": 7062,
  "stri pped</w>": 7063,
  "ba se": 7064,
  "me g</w>": 7065,
  "th ouse</w>": 7066,
  "reason able</w>": 7067,
  "prin ts</w>": 7068,
  "pa per": 7069,
  "sen ior</w>": 7070,
  "descri be</w>": 7071,
  "bu sh</w>": 7072,
  "examin ed</w>": 7073,
  "imp er": 7074,
  "en try</w>": 7075,
  "eng aged</w>": 7076,
  "li ghter</w>": 7077,
  "ve ge": 7078,
  "cla ss": 7079,
  "al ong": 7080,
  "t us</w>": 7081,
  "un locked</w>": 7082,
  "ro cky</w>": 7083,
  "hu mili": 7084,
  "sh r": 7085,
  "repu tation</w>": 7086,
  "wa gon</w>": 7087,
  "nu mb</w>": 7088,
  "cere mony</w>": 7089,
  "bri ghtly</w>": 7090,
  "spi der</w>": 7091,
  "ck ling</w>": 7092,
  "visi ons</w>": 7093,
  "compan ion</w>": 7094,
  "repor ts</w>": 7095,
  "rea ds</w>": 7096,
  "carol ine</w>": 7097,
  "ag ue</w>": 7098,
  "val ue</w>": 7099,
  "fa de</w>": 7100,
  "investi g": 7101,
  "supp ly</w>": 7102,
  "flo ors</w>": 7103,
  "sandwi ch</w>": 7104,
  "antici p": 7105,
  "zz led</w>": 7106,
  "o ak</w>": 7107,
  "asha med</w>": 7108,
  "assa ult</w>": 7109,
  "guar an": 7110,
  "par ties</w>": 7111,
  "d ates</w>": 7112,
  "sel fish</w>": 7113,
  "fortun ate</w>": 7114,
  "increa sed</w>": 7115,
  "out fit</w>": 7116,
  "gui ded</w>": 7117,
  "along side</w>": 7118,
  "con ference</w>": 7119,
  "pla yer</w>": 7120,
  "estab li": 7121,
  "jon as</w>": 7122,
  "sour ces</w>": 7123,
  "di shes</w>": 7124,
  "uni on</w>": 7125,
  "comfor ting</w>": 7126,
  "shou ts</w>": 7127,
  "3 0</w>": 7128,
  "whir led</w>": 7129,
  "su peri": 7130,
  "avoi ded</w>": 7131,
  "ad ding</w>": 7132,
  "tou ri": 7133,
  "nich olas</w>": 7134,
  "an ce": 7135,
  "continu ing</w>": 7136,
  "du l": 7137,
  "de ter": 7138,
  "flu sh</w>": 7139,
  "irri tated</w>": 7140,
  "eli se</w>": 7141,
  "vagu ely</w>": 7142,
  "v ated</w>": 7143,
  "tu g</w>": 7144,
  "cu shi": 7145,
  "see mingly</w>": 7146,
  "shir ts</w>": 7147,
  "gri tted</w>": 7148,
  "pi ll": 7149,
  "vic tory</w>": 7150,
  "fa ding</w>": 7151,
  "embarra ssment</w>": 7152,
  "ran ch</w>": 7153,
  "sho e</w>": 7154,
  "ste am</w>": 7155,
  "rai ling</w>": 7156,
  "ou ter</w>": 7157,
  "e ce</w>": 7158,
  "c ine</w>": 7159,
  "colon el</w>": 7160,
  "panic ked</w>": 7161,
  "ju ice</w>": 7162,
  "san g</w>": 7163,
  "spo ts</w>": 7164,
  "bu shes</w>": 7165,
  "speci fic</w>": 7166,
  "r ant</w>": 7167,
  "genu ine</w>": 7168,
  "doll ar</w>": 7169,
  "ex p": 7170,
  "ga zing</w>": 7171,
  "fr anti": 7172,
  "maje sty</w>": 7173,
  "limi ted</w>": 7174,
  "lang don</w>": 7175,
  "pri e": 7176,
  "lu mp</w>": 7177,
  "ph s</w>": 7178,
  "vic tims</w>": 7179,
  "electri c</w>": 7180,
  "ga sping</w>": 7181,
  "ac compli": 7182,
  "ta p</w>": 7183,
  "suspici on</w>": 7184,
  "b an</w>": 7185,
  "savan nah</w>": 7186,
  "x i</w>": 7187,
  "tu gging</w>": 7188,
  "assu ming</w>": 7189,
  "gg ling</w>": 7190,
  "je an</w>": 7191,
  "ty pical</w>": 7192,
  "en ne</w>": 7193,
  "g ur": 7194,
  "wit ches</w>": 7195,
  "oun ce</w>": 7196,
  "basi cally</w>": 7197,
  "w ha": 7198,
  "kir a</w>": 7199,
  "ag gre": 7200,
  "con du": 7201,
  "al o": 7202,
  "gu st</w>": 7203,
  "bb er</w>": 7204,
  "sli ck</w>": 7205,
  "oper ation</w>": 7206,
  "plan ts</w>": 7207,
  "ag ement</w>": 7208,
  "gre en": 7209,
  "pro pped</w>": 7210,
  "be am</w>": 7211,
  "ne at": 7212,
  "i o</w>": 7213,
  "determin ation</w>": 7214,
  "d ling</w>": 7215,
  "coun ts</w>": 7216,
  "nor a</w>": 7217,
  "ss er": 7218,
  "qu ality</w>": 7219,
  "com men": 7220,
  "reali zation</w>": 7221,
  "m ing": 7222,
  "ac ade": 7223,
  "ac cur": 7224,
  "el i</w>": 7225,
  "sh re": 7226,
  "fa v": 7227,
  "ere ction</w>": 7228,
  "an ch": 7229,
  "ling ering</w>": 7230,
  "instin ctively</w>": 7231,
  "ste ering</w>": 7232,
  "serv ation</w>": 7233,
  "e e</w>": 7234,
  "th ur": 7235,
  "sna pping</w>": 7236,
  "repor ted</w>": 7237,
  "gre g</w>": 7238,
  "ha unted</w>": 7239,
  "cur ed</w>": 7240,
  "ama zed</w>": 7241,
  "cl er": 7242,
  "bo x": 7243,
  "pe ering</w>": 7244,
  "ele gant</w>": 7245,
  "ca h</w>": 7246,
  "exa sper": 7247,
  "cam pus</w>": 7248,
  "sum mon": 7249,
  "di sh": 7250,
  "occa sion</w>": 7251,
  "ro d</w>": 7252,
  "sub tle</w>": 7253,
  "do ll</w>": 7254,
  "fire place</w>": 7255,
  "ro om": 7256,
  "fan t": 7257,
  "noti cing</w>": 7258,
  "na k</w>": 7259,
  "pas sion": 7260,
  "cur l</w>": 7261,
  "ro cking</w>": 7262,
  "au </w>": 7263,
  "mi ty</w>": 7264,
  "li on</w>": 7265,
  "cabin et</w>": 7266,
  "blu sh</w>": 7267,
  "ad ult</w>": 7268,
  "stu di": 7269,
  "colle ct</w>": 7270,
  "ad a</w>": 7271,
  "e sti": 7272,
  "pi pe</w>": 7273,
  "gigg le</w>": 7274,
  "bu ying</w>": 7275,
  "te ll": 7276,
  "im mortal</w>": 7277,
  "ici de</w>": 7278,
  "sha llow</w>": 7279,
  "day light</w>": 7280,
  "ang rily</w>": 7281,
  "ad en</w>": 7282,
  "argu ing</w>": 7283,
  "ve y</w>": 7284,
  "j uni": 7285,
  "tu be</w>": 7286,
  "toi let</w>": 7287,
  "i ties</w>": 7288,
  "franti cally</w>": 7289,
  "bl ur</w>": 7290,
  "li ber": 7291,
  "ti a</w>": 7292,
  "po ked</w>": 7293,
  "stagg ered</w>": 7294,
  "p ine</w>": 7295,
  "lea ped</w>": 7296,
  "any time</w>": 7297,
  "h an</w>": 7298,
  "fol ding</w>": 7299,
  "blan kets</w>": 7300,
  "spor ts</w>": 7301,
  "san ity</w>": 7302,
  "diamon d</w>": 7303,
  "se v": 7304,
  "ig n</w>": 7305,
  "j ar</w>": 7306,
  "some time</w>": 7307,
  "brea ks</w>": 7308,
  "gh ing</w>": 7309,
  "el der</w>": 7310,
  "cho ices</w>": 7311,
  "fl inched</w>": 7312,
  "fri dge</w>": 7313,
  "goo dness</w>": 7314,
  "en de": 7315,
  "soo thing</w>": 7316,
  "he m</w>": 7317,
  "in ting</w>": 7318,
  "compe ti": 7319,
  "bo thering</w>": 7320,
  "mar ched</w>": 7321,
  "pra yer</w>": 7322,
  "hom es</w>": 7323,
  "ati cally</w>": 7324,
  "re spe": 7325,
  "pack age</w>": 7326,
  "eye lids</w>": 7327,
  "su l": 7328,
  "al pha</w>": 7329,
  "mi ster</w>": 7330,
  "grand pa</w>": 7331,
  "gentle men</w>": 7332,
  "stal ked</w>": 7333,
  "inten d</w>": 7334,
  "surr oun": 7335,
  "pain fully</w>": 7336,
  "luc kily</w>": 7337,
  "in ity</w>": 7338,
  "la shes</w>": 7339,
  "ja i": 7340,
  "swir ling</w>": 7341,
  "pa thetic</w>": 7342,
  "lan a</w>": 7343,
  "fil m</w>": 7344,
  "popu lar</w>": 7345,
  "ex citing</w>": 7346,
  "r he": 7347,
  "un ks</w>": 7348,
  "p aced</w>": 7349,
  "zz le</w>": 7350,
  "fant asy</w>": 7351,
  "brea thless</w>": 7352,
  "guar dian</w>": 7353,
  "surroun dings</w>": 7354,
  "e house</w>": 7355,
  "tra vis</w>": 7356,
  "c ers</w>": 7357,
  "de struction</w>": 7358,
  "cand les</w>": 7359,
  "strang ers</w>": 7360,
  "tan ner</w>": 7361,
  "sli ghtest</w>": 7362,
  "spi ke</w>": 7363,
  "si pped</w>": 7364,
  "pit ch</w>": 7365,
  "cor pse</w>": 7366,
  "statu e</w>": 7367,
  "a war": 7368,
  "sma shed</w>": 7369,
  "n es</w>": 7370,
  "ri son</w>": 7371,
  "at mo": 7372,
  "gho sts</w>": 7373,
  "mon i": 7374,
  "ir a</w>": 7375,
  "as sure</w>": 7376,
  "si ly</w>": 7377,
  "ja h</w>": 7378,
  "ev </w>": 7379,
  "blo cking</w>": 7380,
  "attemp ting</w>": 7381,
  "horri fied</w>": 7382,
  "blu shed</w>": 7383,
  "pra y</w>": 7384,
  "se aled</w>": 7385,
  "con gr": 7386,
  "ke y": 7387,
  "a we</w>": 7388,
  "ho pped</w>": 7389,
  "we stern</w>": 7390,
  "mar es</w>": 7391,
  "gre gor": 7392,
  "an th": 7393,
  "el yn</w>": 7394,
  "in f": 7395,
  "sc hi": 7396,
  "i er</w>": 7397,
  "fran tic</w>": 7398,
  "se i": 7399,
  "car a</w>": 7400,
  "ach ers</w>": 7401,
  "pen etr": 7402,
  "ac u": 7403,
  "moment arily</w>": 7404,
  "thro bbing</w>": 7405,
  "you th</w>": 7406,
  "occasion al</w>": 7407,
  "spra y</w>": 7408,
  "x a": 7409,
  "gran ted</w>": 7410,
  "gr in": 7411,
  "secre tary</w>": 7412,
  "lea p</w>": 7413,
  "instru cted</w>": 7414,
  "jo sie</w>": 7415,
  "cand le</w>": 7416,
  "lieuten ant</w>": 7417,
  "consu med</w>": 7418,
  "bri tish</w>": 7419,
  "isa bella</w>": 7420,
  "lun ged</w>": 7421,
  "guit ar</w>": 7422,
  "du mped</w>": 7423,
  "a ks</w>": 7424,
  "neat ly</w>": 7425,
  "stea dily</w>": 7426,
  "om in": 7427,
  "re len": 7428,
  "do ve</w>": 7429,
  "li cking</w>": 7430,
  "bro ad": 7431,
  "r and": 7432,
  "man sion</w>": 7433,
  "b id</w>": 7434,
  "sli m</w>": 7435,
  "p ound</w>": 7436,
  "visi ting</w>": 7437,
  "poli shed</w>": 7438,
  "be aten</w>": 7439,
  "fo cu": 7440,
  "reali sed</w>": 7441,
  "shif ter</w>": 7442,
  "s kill</w>": 7443,
  "stic ks</w>": 7444,
  "fi ona</w>": 7445,
  "supp or": 7446,
  "man eu": 7447,
  "el ding</w>": 7448,
  "a very</w>": 7449,
  "ti tle</w>": 7450,
  "m oo": 7451,
  "land sca": 7452,
  "co a": 7453,
  "ban ds</w>": 7454,
  "he aled</w>": 7455,
  "od ds</w>": 7456,
  "colle cted</w>": 7457,
  "in her": 7458,
  "hesit ate</w>": 7459,
  "tion less</w>": 7460,
  "pe aceful</w>": 7461,
  "dep ths</w>": 7462,
  "preci sely</w>": 7463,
  "g st</w>": 7464,
  "cli t</w>": 7465,
  "affe ction</w>": 7466,
  "gen e": 7467,
  "ll on</w>": 7468,
  "comp ound</w>": 7469,
  "natali e</w>": 7470,
  "sti ly</w>": 7471,
  "wa sted</w>": 7472,
  "amon gst</w>": 7473,
  "ve st</w>": 7474,
  "com mitted</w>": 7475,
  "fa e</w>": 7476,
  "overwhel med</w>": 7477,
  "re mark": 7478,
  "br aced</w>": 7479,
  "benef it</w>": 7480,
  "di vi": 7481,
  "gro cer": 7482,
  "distr action</w>": 7483,
  "do zens</w>": 7484,
  "appro val</w>": 7485,
  "sof tened</w>": 7486,
  "mi ller</w>": 7487,
  "m our": 7488,
  "d al</w>": 7489,
  "i ley</w>": 7490,
  "so b</w>": 7491,
  "russi an</w>": 7492,
  "mp y</w>": 7493,
  "st atus</w>": 7494,
  "pic k": 7495,
  "sur ance</w>": 7496,
  "to ss</w>": 7497,
  "attrac ted</w>": 7498,
  "meas ure</w>": 7499,
  "mu se": 7500,
  "mo l": 7501,
  "cro ss": 7502,
  "f in</w>": 7503,
  "ho p": 7504,
  "u ttered</w>": 7505,
  "blur ted</w>": 7506,
  "mir r": 7507,
  "sa mu": 7508,
  "zz ie</w>": 7509,
  "h h</w>": 7510,
  "poli tely</w>": 7511,
  "gr ac": 7512,
  "con trac": 7513,
  "wi shes</w>": 7514,
  "pit ched</w>": 7515,
  "temper ature</w>": 7516,
  "stab bed</w>": 7517,
  "inter net</w>": 7518,
  "de va": 7519,
  "z ack</w>": 7520,
  "rebe cca</w>": 7521,
  "hy ster": 7522,
  "mar shall</w>": 7523,
  "deli ver</w>": 7524,
  "mid st</w>": 7525,
  "ff le</w>": 7526,
  "helico pter</w>": 7527,
  "ill e": 7528,
  "ti te</w>": 7529,
  "wa shing</w>": 7530,
  "t to</w>": 7531,
  "al an</w>": 7532,
  "p her</w>": 7533,
  "ag ers</w>": 7534,
  "dre sser</w>": 7535,
  "clar i": 7536,
  "fi shing</w>": 7537,
  "y ton</w>": 7538,
  "z el</w>": 7539,
  "bur ns</w>": 7540,
  "comb ination</w>": 7541,
  "a a": 7542,
  "str ands</w>": 7543,
  "ou ri": 7544,
  "head ache</w>": 7545,
  "pu shes</w>": 7546,
  "wi zard</w>": 7547,
  "skir ts</w>": 7548,
  "hau led</w>": 7549,
  "ga p</w>": 7550,
  "m el</w>": 7551,
  "ul ts</w>": 7552,
  "cou ghed</w>": 7553,
  "p our</w>": 7554,
  "hor n</w>": 7555,
  "electri city</w>": 7556,
  "gi fts</w>": 7557,
  "per for": 7558,
  "argu ed</w>": 7559,
  "w w": 7560,
  "al y</w>": 7561,
  "fi tting</w>": 7562,
  "are as</w>": 7563,
  "mou ths</w>": 7564,
  "au thor</w>": 7565,
  "ag ne</w>": 7566,
  "tre y</w>": 7567,
  "wash ington</w>": 7568,
  "e p": 7569,
  "sympa thy</w>": 7570,
  "jas mine</w>": 7571,
  "mu s</w>": 7572,
  "mo bile</w>": 7573,
  "war y</w>": 7574,
  "war ren</w>": 7575,
  "fra gi": 7576,
  "p lea": 7577,
  "cu p": 7578,
  "ho vering</w>": 7579,
  "jo king</w>": 7580,
  "jun gle</w>": 7581,
  "gu es</w>": 7582,
  "de fi": 7583,
  "pat ri": 7584,
  "for mal</w>": 7585,
  "ne ga": 7586,
  "tra tion</w>": 7587,
  "autom atically</w>": 7588,
  "ste aling</w>": 7589,
  "an cy</w>": 7590,
  "fa il": 7591,
  "ar es</w>": 7592,
  "wall et</w>": 7593,
  "p acing</w>": 7594,
  "t ings</w>": 7595,
  "esc ort</w>": 7596,
  "remin ding</w>": 7597,
  "medi a</w>": 7598,
  "r ac": 7599,
  "bo dy": 7600,
  "re covered</w>": 7601,
  "et ings</w>": 7602,
  "we b</w>": 7603,
  "nee dle</w>": 7604,
  "cur ling</w>": 7605,
  "any a</w>": 7606,
  "une asy</w>": 7607,
  "ad mi": 7608,
  "mi sty</w>": 7609,
  "a ven": 7610,
  "ma '": 7611,
  "craw ling</w>": 7612,
  "swi ft</w>": 7613,
  "cri mson</w>": 7614,
  "sp on": 7615,
  "domin ic</w>": 7616,
  "ca m</w>": 7617,
  "mi tri</w>": 7618,
  "w ink</w>": 7619,
  "anno ying</w>": 7620,
  "i zzy</w>": 7621,
  "fir ing</w>": 7622,
  "z one</w>": 7623,
  "b bling</w>": 7624,
  "si tion</w>": 7625,
  "ci ties</w>": 7626,
  "se ized</w>": 7627,
  "gr ins</w>": 7628,
  "tex as</w>": 7629,
  "gra ham</w>": 7630,
  "lat ter</w>": 7631,
  "spe ar</w>": 7632,
  "y i": 7633,
  "ear ned</w>": 7634,
  "monit or</w>": 7635,
  "su mm": 7636,
  "base ball</w>": 7637,
  "techno logy</w>": 7638,
  "r owing</w>": 7639,
  "li ck</w>": 7640,
  "i tali": 7641,
  "disappear ing</w>": 7642,
  "d na</w>": 7643,
  "z zed</w>": 7644,
  "appoin tment</w>": 7645,
  "flu ttered</w>": 7646,
  "go ti": 7647,
  "ma ll": 7648,
  "signific ant</w>": 7649,
  "be aring</w>": 7650,
  "poli tical</w>": 7651,
  "ba sic</w>": 7652,
  "sur ge</w>": 7653,
  "hel p": 7654,
  "fin anci": 7655,
  "swe eping</w>": 7656,
  "tom my</w>": 7657,
  "desper ation</w>": 7658,
  "cla pped</w>": 7659,
  "con tain": 7660,
  "ash ley</w>": 7661,
  "ral ph</w>": 7662,
  "ri ghts</w>": 7663,
  "o on</w>": 7664,
  "sigh s</w>": 7665,
  "pain ter</w>": 7666,
  "wh ere": 7667,
  "lo cking</w>": 7668,
  "whe els</w>": 7669,
  "th ur</w>": 7670,
  "to ast</w>": 7671,
  "absen ce</w>": 7672,
  "stri king</w>": 7673,
  "sla m</w>": 7674,
  "consequ ences</w>": 7675,
  "vac ation</w>": 7676,
  "tele phone</w>": 7677,
  "en sure</w>": 7678,
  "li c</w>": 7679,
  "2 0</w>": 7680,
  "ff ling</w>": 7681,
  "f on": 7682,
  "jo y": 7683,
  "ul ty</w>": 7684,
  "ka y": 7685,
  "squ ad</w>": 7686,
  "thri lled</w>": 7687,
  "e ff": 7688,
  "night mares</w>": 7689,
  "che lle</w>": 7690,
  "sho t": 7691,
  "b rai": 7692,
  "cott age</w>": 7693,
  "cro o": 7694,
  "steph en</w>": 7695,
  "in ven": 7696,
  "na i": 7697,
  "gre eting</w>": 7698,
  "psychi c</w>": 7699,
  "cru ci": 7700,
  "no ises</w>": 7701,
  "bra dy</w>": 7702,
  "en counter</w>": 7703,
  "gue ssing</w>": 7704,
  "wan dering</w>": 7705,
  "identi ty</w>": 7706,
  "dre sses</w>": 7707,
  "re vel": 7708,
  "temp ted</w>": 7709,
  "pr int</w>": 7710,
  "fra med</w>": 7711,
  "isa belle</w>": 7712,
  "me gan</w>": 7713,
  "o ke</w>": 7714,
  "el abor": 7715,
  "shu dder</w>": 7716,
  "je ep</w>": 7717,
  "di men": 7718,
  "na omi</w>": 7719,
  "mu sed</w>": 7720,
  "curi ously</w>": 7721,
  "d son</w>": 7722,
  "neighb ors</w>": 7723,
  "stand ard</w>": 7724,
  "lu c</w>": 7725,
  "eng ine": 7726,
  "ter ia</w>": 7727,
  "develop ed</w>": 7728,
  "jud gment</w>": 7729,
  "dri fting</w>": 7730,
  "mani pu": 7731,
  "sp rang</w>": 7732,
  "influ ence</w>": 7733,
  "u ses</w>": 7734,
  "vi ties</w>": 7735,
  "mu si": 7736,
  "min or</w>": 7737,
  "viol ently</w>": 7738,
  "tra iler</w>": 7739,
  "tro ops</w>": 7740,
  "v ic</w>": 7741,
  "af fair</w>": 7742,
  "b age</w>": 7743,
  "dri ft</w>": 7744,
  "equ al</w>": 7745,
  "regar ded</w>": 7746,
  "de x</w>": 7747,
  "tre ating</w>": 7748,
  "mar gar": 7749,
  "tw ink": 7750,
  "ou tra": 7751,
  "wh ore</w>": 7752,
  "apolo gy</w>": 7753,
  "ja se</w>": 7754,
  "si ded</w>": 7755,
  "lin da</w>": 7756,
  "ling ered</w>": 7757,
  "1 5</w>": 7758,
  "comb at</w>": 7759,
  "ad in</w>": 7760,
  "anno y": 7761,
  "su v</w>": 7762,
  "lon ging</w>": 7763,
  "ni k</w>": 7764,
  "bo ston</w>": 7765,
  "pe eked</w>": 7766,
  "ma' am</w>": 7767,
  "m ouse</w>": 7768,
  "be comes</w>": 7769,
  "ru mors</w>": 7770,
  "tou ches</w>": 7771,
  "mon k</w>": 7772,
  "con fli": 7773,
  "par ker</w>": 7774,
  "f bi</w>": 7775,
  "n ic</w>": 7776,
  "champ agne</w>": 7777,
  "ani sh</w>": 7778,
  "guar ded</w>": 7779,
  "hel ps</w>": 7780,
  "je ction</w>": 7781,
  "trea sure</w>": 7782,
  "rob in</w>": 7783,
  "re ception</w>": 7784,
  "mo i": 7785,
  "e den</w>": 7786,
  "ta pping</w>": 7787,
  "ur ged</w>": 7788,
  "ca sting</w>": 7789,
  "recei ve</w>": 7790,
  "chann el</w>": 7791,
  "instin cts</w>": 7792,
  "in ju": 7793,
  "moun t</w>": 7794,
  "see ming</w>": 7795,
  "atmo sphere</w>": 7796,
  "ac compani": 7797,
  "ear l</w>": 7798,
  "sk inny</w>": 7799,
  "r in</w>": 7800,
  "ga il</w>": 7801,
  "musc ular</w>": 7802,
  "jo ey</w>": 7803,
  "re sist": 7804,
  "spea ks</w>": 7805,
  "teen th</w>": 7806,
  "erup ted</w>": 7807,
  "appar ent</w>": 7808,
  "individu al</w>": 7809,
  "sle eves</w>": 7810,
  "n els</w>": 7811,
  "ne t": 7812,
  "e king</w>": 7813,
  "acci den": 7814,
  "e h</w>": 7815,
  "nu dged</w>": 7816,
  "ru sty</w>": 7817,
  "pier cing</w>": 7818,
  "comple ted</w>": 7819,
  "thu mbs</w>": 7820,
  "survi val</w>": 7821,
  "lea h</w>": 7822,
  "sli ced</w>": 7823,
  "ne at</w>": 7824,
  "pi ss</w>": 7825,
  "son gs</w>": 7826,
  "wi der</w>": 7827,
  "ch at</w>": 7828,
  "ten ta": 7829,
  "hi de": 7830,
  "dise ase</w>": 7831,
  "se al</w>": 7832,
  "a v": 7833,
  "pre ston</w>": 7834,
  "terri bly</w>": 7835,
  "fragi le</w>": 7836,
  "b bles</w>": 7837,
  "re tor": 7838,
  "cha l": 7839,
  "v om": 7840,
  "fif th</w>": 7841,
  "ri pping</w>": 7842,
  "bar rier</w>": 7843,
  "tu cker</w>": 7844,
  "ho vered</w>": 7845,
  "dest ination</w>": 7846,
  "ent ine</w>": 7847,
  "hu gging</w>": 7848,
  "effe cts</w>": 7849,
  "o id</w>": 7850,
  "sp er</w>": 7851,
  "car son</w>": 7852,
  "scrat ch</w>": 7853,
  "st oo": 7854,
  "desp air</w>": 7855,
  "lau rence</w>": 7856,
  "forear m</w>": 7857,
  "non sense</w>": 7858,
  "ti ous</w>": 7859,
  "1 4</w>": 7860,
  "phi lli": 7861,
  "shru gs</w>": 7862,
  "th under": 7863,
  "lou is</w>": 7864,
  "elec tr": 7865,
  "be ings</w>": 7866,
  "le a</w>": 7867,
  "fol k</w>": 7868,
  "soa p</w>": 7869,
  "ai m</w>": 7870,
  "bu cket</w>": 7871,
  "pi led</w>": 7872,
  "stor ed</w>": 7873,
  "gra vel</w>": 7874,
  "di zzy</w>": 7875,
  "c table</w>": 7876,
  "ac tive</w>": 7877,
  "ro man</w>": 7878,
  "te ddy</w>": 7879,
  "t ling</w>": 7880,
  "human ity</w>": 7881,
  "ari an</w>": 7882,
  "b acking</w>": 7883,
  "qu in": 7884,
  "ar thur</w>": 7885,
  "sc out</w>": 7886,
  "in spir": 7887,
  "pan el</w>": 7888,
  "n ick": 7889,
  "tu mbled</w>": 7890,
  "suit case</w>": 7891,
  "than ked</w>": 7892,
  "advan ced</w>": 7893,
  "distur bed</w>": 7894,
  "an gie</w>": 7895,
  "de ce": 7896,
  "ma u": 7897,
  "j en</w>": 7898,
  "l as</w>": 7899,
  "inv ite</w>": 7900,
  "m ated</w>": 7901,
  "tor so</w>": 7902,
  "pon y": 7903,
  "kni ghts</w>": 7904,
  "ho st</w>": 7905,
  "conver sations</w>": 7906,
  "gi a</w>": 7907,
  "glea ming</w>": 7908,
  "st or</w>": 7909,
  "hard ened</w>": 7910,
  "ci es</w>": 7911,
  "wi s": 7912,
  "wor ries</w>": 7913,
  "note book</w>": 7914,
  "zom bie</w>": 7915,
  "ma e</w>": 7916,
  "li fts</w>": 7917,
  "amb i": 7918,
  "a llie</w>": 7919,
  "as sig": 7920,
  "mp les</w>": 7921,
  "fre y</w>": 7922,
  "che wed</w>": 7923,
  "i ds</w>": 7924,
  "qu es</w>": 7925,
  "de clan</w>": 7926,
  "wa y": 7927,
  "chu ck</w>": 7928,
  "j ones</w>": 7929,
  "pi llows</w>": 7930,
  "x ture</w>": 7931,
  "ben ding</w>": 7932,
  "0 00</w>": 7933,
  "jeal ousy</w>": 7934,
  "bra tion</w>": 7935,
  "ri bb": 7936,
  "ro ses</w>": 7937,
  "ex hi": 7938,
  "kni ves</w>": 7939,
  "sli ce</w>": 7940,
  "with drew</w>": 7941,
  "hi stor": 7942,
  "swe ep</w>": 7943,
  "emp ire</w>": 7944,
  "har b": 7945,
  "distr act</w>": 7946,
  "free zing</w>": 7947,
  "treat ment</w>": 7948,
  "laun ched</w>": 7949,
  "san dy</w>": 7950,
  "ca sey</w>": 7951,
  "perman ent</w>": 7952,
  "bi lls</w>": 7953,
  "circ ling</w>": 7954,
  "posse ssion</w>": 7955,
  "woo d": 7956,
  "pr on": 7957,
  "san ctu": 7958,
  "me ssed</w>": 7959,
  "na vy</w>": 7960,
  "cu e</w>": 7961,
  ". s</w>": 7962,
  "jo shu": 7963,
  "re m": 7964,
  "pow der</w>": 7965,
  "re du": 7966,
  "bou l": 7967,
  "zer o</w>": 7968,
  "anth ony</w>": 7969,
  "di ce</w>": 7970,
  "fini shing</w>": 7971,
  "deser ted</w>": 7972,
  "te sting</w>": 7973,
  "gl ory</w>": 7974,
  "cap ture</w>": 7975,
  "ti cket</w>": 7976,
  "p acking</w>": 7977,
  "imag ining</w>": 7978,
  "ti p": 7979,
  "st in": 7980,
  "d g": 7981,
  "val entine</w>": 7982,
  "gener ally</w>": 7983,
  "c able</w>": 7984,
  "ve gas</w>": 7985,
  "hur ri": 7986,
  "ce lls</w>": 7987,
  "concentr ated</w>": 7988,
  "dra ma</w>": 7989,
  "ra m</w>": 7990,
  "g loo": 7991,
  "down town</w>": 7992,
  "k able</w>": 7993,
  "dest iny</w>": 7994,
  "licen se</w>": 7995,
  "g ated</w>": 7996,
  "differ ently</w>": 7997,
  "cur b</w>": 7998,
  "1 3</w>": 7999,
  "jun e</w>": 8000,
  "w es</w>": 8001,
  "cat s</w>": 8002,
  "smoo thed</w>": 8003,
  "ne goti": 8004,
  "main tain</w>": 8005,
  "qu ali": 8006,
  "hu gh</w>": 8007,
  "si es</w>": 8008,
  "pen ny</w>": 8009,
  "gan g</w>": 8010,
  "ma dness</w>": 8011,
  "corre cted</w>": 8012,
  "g ic</w>": 8013,
  "wor kers</w>": 8014,
  "uni que</w>": 8015,
  "ra tional</w>": 8016,
  "di sor": 8017,
  "pur chase</w>": 8018,
  "explo de</w>": 8019,
  "all e": 8020,
  "ev i": 8021,
  "pa vement</w>": 8022,
  "top ic</w>": 8023,
  "pin ched</w>": 8024,
  "mb er": 8025,
  "in clined</w>": 8026,
  "reco ver</w>": 8027,
  "mag nific": 8028,
  "crimin al</w>": 8029,
  "jud ging</w>": 8030,
  "u t</w>": 8031,
  "remin der</w>": 8032,
  "refu sing</w>": 8033,
  "war ehouse</w>": 8034,
  "boun cing</w>": 8035,
  "coun ty</w>": 8036,
  "t ine</w>": 8037,
  "tin a</w>": 8038,
  "mada me</w>": 8039,
  "scan ning</w>": 8040,
  "accompani ed</w>": 8041,
  "ss en": 8042,
  "poi son": 8043,
  "m at</w>": 8044,
  "c ans</w>": 8045,
  "te sts</w>": 8046,
  "medi cine</w>": 8047,
  "as sho": 8048,
  "emp er": 8049,
  "sm acked</w>": 8050,
  "mo ck</w>": 8051,
  "la yer</w>": 8052,
  "s man</w>": 8053,
  "se cu": 8054,
  "bor der</w>": 8055,
  "smoo thly</w>": 8056,
  "af ri": 8057,
  "sou p</w>": 8058,
  "d ors</w>": 8059,
  "expla ining</w>": 8060,
  "coun ter": 8061,
  "tra it": 8062,
  "be e": 8063,
  "buzz </w>": 8064,
  "vag ue</w>": 8065,
  "cli ents</w>": 8066,
  "chi p</w>": 8067,
  "fail ure</w>": 8068,
  "la zy</w>": 8069,
  "volu me</w>": 8070,
  "m ers</w>": 8071,
  "sc a</w>": 8072,
  "twi r": 8073,
  "miser y</w>": 8074,
  "regar ding</w>": 8075,
  "bo ats</w>": 8076,
  "trou bled</w>": 8077,
  "cre epy</w>": 8078,
  "wh oo": 8079,
  "zom bies</w>": 8080,
  "at tor": 8081,
  "d '": 8082,
  "por tal</w>": 8083,
  "so cks</w>": 8084,
  "te x</w>": 8085,
  "bu d": 8086,
  "ru by</w>": 8087,
  "st it": 8088,
  "swir led</w>": 8089,
  "mi ssi": 8090,
  "we ary</w>": 8091,
  "dau ghters</w>": 8092,
  "deca des</w>": 8093,
  "ru m": 8094,
  "cor n</w>": 8095,
  "gre gor</w>": 8096,
  "landsca pe</w>": 8097,
  "valu able</w>": 8098,
  "impati ent</w>": 8099,
  "cla mped</w>": 8100,
  "itali an</w>": 8101,
  "ger man</w>": 8102,
  "se lling</w>": 8103,
  "ate dly</w>": 8104,
  "con cen": 8105,
  "sa w": 8106,
  "ca ss": 8107,
  "b on</w>": 8108,
  "bal an": 8109,
  "gradu ally</w>": 8110,
  "vie ws</w>": 8111,
  "ne tte</w>": 8112,
  "mar co</w>": 8113,
  "con vic": 8114,
  "whi p</w>": 8115,
  "stri de</w>": 8116,
  ". com</w>": 8117,
  "sugge stion</w>": 8118,
  "in sides</w>": 8119,
  "be cky</w>": 8120,
  "ser vices</w>": 8121,
  "an ni": 8122,
  "faci lity</w>": 8123,
  "po sure</w>": 8124,
  "on e": 8125,
  "tr ous": 8126,
  "pony tail</w>": 8127,
  "be ck": 8128,
  "mad die</w>": 8129,
  "me chan": 8130,
  "plun ged</w>": 8131,
  "ine se</w>": 8132,
  "witne ssed</w>": 8133,
  "pi es</w>": 8134,
  "k an": 8135,
  "da maged</w>": 8136,
  "bu cks</w>": 8137,
  "cu ffs</w>": 8138,
  "dr un": 8139,
  "v o</w>": 8140,
  "bl ouse</w>": 8141,
  "rep lies</w>": 8142,
  "sur g": 8143,
  "eye ing</w>": 8144,
  "tor tured</w>": 8145,
  "ke llan</w>": 8146,
  "eli jah</w>": 8147,
  "te ase</w>": 8148,
  "po le</w>": 8149,
  "sigh ing</w>": 8150,
  "spi lling</w>": 8151,
  "gossi p</w>": 8152,
  "ti er</w>": 8153,
  "cor d</w>": 8154,
  "sc ale</w>": 8155,
  "sa ddle</w>": 8156,
  "inju ries</w>": 8157,
  "tra iling</w>": 8158,
  "exper im": 8159,
  "ma di": 8160,
  "sti lled</w>": 8161,
  "en vir": 8162,
  "assass in</w>": 8163,
  "brea th": 8164,
  "ar rested</w>": 8165,
  "thor oughly</w>": 8166,
  "plea ded</w>": 8167,
  "an na": 8168,
  "per ched</w>": 8169,
  "in ely</w>": 8170,
  "itu te</w>": 8171,
  "cel er": 8172,
  "ch inese</w>": 8173,
  "sa il": 8174,
  "ban g</w>": 8175,
  "mista kes</w>": 8176,
  "ed ged</w>": 8177,
  "win ning</w>": 8178,
  "no ble</w>": 8179,
  "tempor ary</w>": 8180,
  "pas ses</w>": 8181,
  "ev a": 8182,
  "sun glasses</w>": 8183,
  "muse um</w>": 8184,
  "si m": 8185,
  "y son</w>": 8186,
  "ca vern</w>": 8187,
  "per ry</w>": 8188,
  "decor ated</w>": 8189,
  "custom ers</w>": 8190,
  "cl inging</w>": 8191,
  "shot gun</w>": 8192,
  "introdu ce</w>": 8193,
  "on y": 8194,
  "re scu": 8195,
  "cal cu": 8196,
  "sha des</w>": 8197,
  "samu el</w>": 8198,
  "for mation</w>": 8199,
  "gri ffin</w>": 8200,
  "exi ted</w>": 8201,
  "vehi cles</w>": 8202,
  "m ck": 8203,
  "po l": 8204,
  "di mitri</w>": 8205,
  "melo dy</w>": 8206,
  "ratt led</w>": 8207,
  "ab s</w>": 8208,
  "adven ture</w>": 8209,
  "ma del": 8210,
  "shif ters</w>": 8211,
  "ar ies</w>": 8212,
  "spar k</w>": 8213,
  "discu ssed</w>": 8214,
  "disp la": 8215,
  "weal th</w>": 8216,
  "fli cker</w>": 8217,
  "con tain</w>": 8218,
  "pra ying</w>": 8219,
  "joshu a</w>": 8220,
  "stor age</w>": 8221,
  "deal t</w>": 8222,
  "hand led</w>": 8223,
  "con stru": 8224,
  "person ality</w>": 8225,
  "sor row</w>": 8226,
  "disa ster</w>": 8227,
  "rab bit</w>": 8228,
  "en elle</w>": 8229,
  "bu g</w>": 8230,
  "shi vering</w>": 8231,
  "an a": 8232,
  "scow l</w>": 8233,
  "reg ard</w>": 8234,
  "v as</w>": 8235,
  "aver age</w>": 8236,
  "ac qua": 8237,
  "y o</w>": 8238,
  "mon t</w>": 8239,
  "ri gid</w>": 8240,
  "i i</w>": 8241,
  "tra di": 8242,
  "ic ed</w>": 8243,
  "lea ders</w>": 8244,
  "inter ro": 8245,
  "bo l": 8246,
  "as es</w>": 8247,
  "pur su": 8248,
  "promi ses</w>": 8249,
  "a ura</w>": 8250,
  "wai ter</w>": 8251,
  "co lli": 8252,
  "re quire</w>": 8253,
  "scar let</w>": 8254,
  "ha m": 8255,
  "were wolves</w>": 8256,
  "lo yal</w>": 8257,
  "kin da</w>": 8258,
  "tun e</w>": 8259,
  "rh ys</w>": 8260,
  "nu t</w>": 8261,
  "fo yer</w>": 8262,
  "ca kes</w>": 8263,
  "we b": 8264,
  "te aching</w>": 8265,
  "e z": 8266,
  "f oul</w>": 8267,
  "bea sts</w>": 8268,
  "posi tioned</w>": 8269,
  "deci ding</w>": 8270,
  "inde pen": 8271,
  "s worn</w>": 8272,
  "kne eling</w>": 8273,
  "whis key</w>": 8274,
  "exper t</w>": 8275,
  "regi ster</w>": 8276,
  "se p": 8277,
  "mom en": 8278,
  "re treat</w>": 8279,
  "bu ck</w>": 8280,
  "su icide</w>": 8281,
  "so m</w>": 8282,
  "p ru": 8283,
  "ro t</w>": 8284,
  "vic ious</w>": 8285,
  "ha stily</w>": 8286,
  "he ctor</w>": 8287,
  "thought ful</w>": 8288,
  "mac y</w>": 8289,
  "be ds</w>": 8290,
  "ad mini": 8291,
  "de er</w>": 8292,
  "intelli gent</w>": 8293,
  "lo yalty</w>": 8294,
  "e gg</w>": 8295,
  "pe cu": 8296,
  "ja enelle</w>": 8297,
  "wat ch": 8298,
  "appreci ated</w>": 8299,
  "nu mer": 8300,
  "1 8": 8301,
  "k or": 8302,
  "ann on</w>": 8303,
  "char ges</w>": 8304,
  "pro file</w>": 8305,
  "por tion</w>": 8306,
  "le vels</w>": 8307,
  "arti cle</w>": 8308,
  "spar ks</w>": 8309,
  "hea ved</w>": 8310,
  "terri fying</w>": 8311,
  "annoy ance</w>": 8312,
  "ssi vely</w>": 8313,
  "coo per": 8314,
  "too ls</w>": 8315,
  "echo ing</w>": 8316,
  "el o": 8317,
  "cre ek</w>": 8318,
  "win ding</w>": 8319,
  "mor tals</w>": 8320,
  "opp on": 8321,
  "y u": 8322,
  "co stu": 8323,
  "ha ze</w>": 8324,
  "dea ths</w>": 8325,
  "be loved</w>": 8326,
  "st all</w>": 8327,
  "surren der</w>": 8328,
  "fanta stic</w>": 8329,
  "juni or</w>": 8330,
  "cho king</w>": 8331,
  "awk wardly</w>": 8332,
  "bra ins</w>": 8333,
  "zz </w>": 8334,
  "assig nment</w>": 8335,
  "bur den</w>": 8336,
  "prison ers</w>": 8337,
  "he ck</w>": 8338,
  "g le": 8339,
  "pic ks</w>": 8340,
  "gar ath</w>": 8341,
  "awar eness</w>": 8342,
  "w ob": 8343,
  "sa int</w>": 8344,
  "the ater</w>": 8345,
  "gg le</w>": 8346,
  "who a</w>": 8347,
  "ma ker</w>": 8348,
  "bl ows</w>": 8349,
  "to y</w>": 8350,
  "re marked</w>": 8351,
  "st ened</w>": 8352,
  "sco pe</w>": 8353,
  "po l</w>": 8354,
  "re fri": 8355,
  "zz ling</w>": 8356,
  "bru ises</w>": 8357,
  "fro st</w>": 8358,
  "extre me</w>": 8359,
  "temp les</w>": 8360,
  "impati ently</w>": 8361,
  "com mo": 8362,
  "shu ffled</w>": 8363,
  "gener ous</w>": 8364,
  "studi o</w>": 8365,
  "mel anie</w>": 8366,
  "mo ther": 8367,
  "cal s</w>": 8368,
  "sal u": 8369,
  "dang ling</w>": 8370,
  "id a</w>": 8371,
  "mi t": 8372,
  "gi l": 8373,
  "ad dition</w>": 8374,
  "bel garath</w>": 8375,
  "w er</w>": 8376,
  "p leading</w>": 8377,
  "envir on": 8378,
  "virg in</w>": 8379,
  "in qui": 8380,
  "bru tal</w>": 8381,
  "awa k": 8382,
  "bla zing</w>": 8383,
  "la sted</w>": 8384,
  "sli des</w>": 8385,
  "ru th</w>": 8386,
  "thought fully</w>": 8387,
  "refri ger": 8388,
  "symbo l</w>": 8389,
  "war ming</w>": 8390,
  "ne ver": 8391,
  "exhau stion</w>": 8392,
  "fu el</w>": 8393,
  "har per</w>": 8394,
  "co ver": 8395,
  "bar tender</w>": 8396,
  "fri ghtening</w>": 8397,
  "arro gant</w>": 8398,
  "sp ill</w>": 8399,
  "tra ve": 8400,
  "que st</w>": 8401,
  "it ated</w>": 8402,
  "inten tions</w>": 8403,
  "gar bage</w>": 8404,
  "la h</w>": 8405,
  "app re": 8406,
  "cru mpled</w>": 8407,
  "un certain</w>": 8408,
  "tran sl": 8409,
  "es a</w>": 8410,
  "tun nels</w>": 8411,
  "be ats</w>": 8412,
  "mi chelle</w>": 8413,
  "si an</w>": 8414,
  "sc ur": 8415,
  "sa fer</w>": 8416,
  "sky la</w>": 8417,
  "car l</w>": 8418,
  "un ts</w>": 8419,
  "re cru": 8420,
  "luci var</w>": 8421,
  "repor ter</w>": 8422,
  "pi g</w>": 8423,
  "new ly</w>": 8424,
  "ph er": 8425,
  "pati ently</w>": 8426,
  "bu tter</w>": 8427,
  "dor ian</w>": 8428,
  "con struction</w>": 8429,
  "conne ct</w>": 8430,
  "w en": 8431,
  "low ering</w>": 8432,
  "cur ves</w>": 8433,
  "char ity</w>": 8434,
  "str ings</w>": 8435,
  "so il</w>": 8436,
  "emper or</w>": 8437,
  "be ll": 8438,
  "concen tration</w>": 8439,
  "ten d</w>": 8440,
  "ini tial</w>": 8441,
  "conclu sion</w>": 8442,
  "mor ti": 8443,
  "enthusi asm</w>": 8444,
  "less ons</w>": 8445,
  "car es</w>": 8446,
  "li zzie</w>": 8447,
  "off ended</w>": 8448,
  "ac cused</w>": 8449,
  "i cally</w>": 8450,
  "st ung</w>": 8451,
  "ch ant</w>": 8452,
  "insu lt</w>": 8453,
  "ste p": 8454,
  "divor ce</w>": 8455,
  "pau ses</w>": 8456,
  "ste lla</w>": 8457,
  "spark ling</w>": 8458,
  "ma th</w>": 8459,
  "wa yne</w>": 8460,
  "sweat y</w>": 8461,
  "thu d</w>": 8462,
  "tane ously</w>": 8463,
  "mou thed</w>": 8464,
  "trac king</w>": 8465,
  "c had</w>": 8466,
  "d ne": 8467,
  "in t": 8468,
  "bu bble</w>": 8469,
  "descri ption</w>": 8470,
  "lo g</w>": 8471,
  "re vol": 8472,
  "pi lls</w>": 8473,
  "bar k</w>": 8474,
  "cassi dy</w>": 8475,
  "bour ne</w>": 8476,
  "alli son</w>": 8477,
  "sin cer": 8478,
  "rele asing</w>": 8479,
  "stro lled</w>": 8480,
  "stra p</w>": 8481,
  "l ings</w>": 8482,
  "fi ery</w>": 8483,
  "ma xi": 8484,
  "a x</w>": 8485,
  "th a": 8486,
  "phi lo": 8487,
  "indu l": 8488,
  "xa vier</w>": 8489,
  "cha p": 8490,
  "ac celer": 8491,
  "on line</w>": 8492,
  "di um</w>": 8493,
  "visi tors</w>": 8494,
  "cla w</w>": 8495,
  "fol ds</w>": 8496,
  "ra ged</w>": 8497,
  "pri me</w>": 8498,
  "sa s</w>": 8499,
  "per fu": 8500,
  "fain tly</w>": 8501,
  "dra matic</w>": 8502,
  "discu ssing</w>": 8503,
  "popu lation</w>": 8504,
  "focu sing</w>": 8505,
  "slo pe</w>": 8506,
  "phi l</w>": 8507,
  "shri eked</w>": 8508,
  "cru shing</w>": 8509,
  "wat ches</w>": 8510,
  "har t</w>": 8511,
  "inj ury</w>": 8512,
  "fashi oned</w>": 8513,
  "vi k": 8514,
  "distin ct</w>": 8515,
  "wis dom</w>": 8516,
  "a while</w>": 8517,
  "wor d": 8518,
  "ar rest</w>": 8519,
  "jewel ry</w>": 8520,
  "lan ter": 8521,
  "jer ry</w>": 8522,
  "sto ve</w>": 8523,
  "hat ch</w>": 8524,
  "am bul": 8525,
  "t ack": 8526,
  "u res</w>": 8527,
  "jour nal</w>": 8528,
  "ju les</w>": 8529,
  "rea d": 8530,
  "co in</w>": 8531,
  "con fin": 8532,
  "ta xi</w>": 8533,
  "cen tre</w>": 8534,
  "floo d</w>": 8535,
  "re qui": 8536,
  "bu bb": 8537,
  "ambul ance</w>": 8538,
  "me ssy</w>": 8539,
  "mi cah</w>": 8540,
  "inev itable</w>": 8541,
  "offici ally</w>": 8542,
  "roo ts</w>": 8543,
  "re acted</w>": 8544,
  "free ze</w>": 8545,
  "pear l</w>": 8546,
  "ce me": 8547,
  "fier cely</w>": 8548,
  "as signed</w>": 8549,
  "bit es</w>": 8550,
  "chi ps</w>": 8551,
  "bar re": 8552,
  "m ack</w>": 8553,
  "ti ghtening</w>": 8554,
  "ti ck</w>": 8555,
  "ox y": 8556,
  "in da</w>": 8557,
  "sl ung</w>": 8558,
  "cal vin</w>": 8559,
  "al tar</w>": 8560,
  "a. m.</w>": 8561,
  "bo lted</w>": 8562,
  "di al</w>": 8563,
  "coo kies</w>": 8564,
  "inno c": 8565,
  "di spo": 8566,
  "su cks</w>": 8567,
  "shor ter</w>": 8568,
  "log ic</w>": 8569,
  "spo on</w>": 8570,
  "un believ": 8571,
  "re treated</w>": 8572,
  "ici al</w>": 8573,
  "tor ch</w>": 8574,
  "resist ance</w>": 8575,
  "che ss</w>": 8576,
  "cass andra</w>": 8577,
  "inter f": 8578,
  "r ack</w>": 8579,
  "irri tation</w>": 8580,
  "da shed</w>": 8581,
  "presen ted</w>": 8582,
  "men u</w>": 8583,
  "bar bar": 8584,
  "hu ddled</w>": 8585,
  "hun ched</w>": 8586,
  "stra pped</w>": 8587,
  "ro ber": 8588,
  "du ck</w>": 8589,
  "wra th</w>": 8590,
  "al together</w>": 8591,
  "cr acking</w>": 8592,
  "over come</w>": 8593,
  "ski pped</w>": 8594,
  "mal col": 8595,
  "s well</w>": 8596,
  "exerci se</w>": 8597,
  "bal d</w>": 8598,
  "stun ning</w>": 8599,
  "bo ld</w>": 8600,
  "ci an</w>": 8601,
  "fac e": 8602,
  "th read</w>": 8603,
  "t land</w>": 8604,
  "mi schi": 8605,
  "ze ke</w>": 8606,
  "pho eni": 8607,
  "paper work</w>": 8608,
  "ti re": 8609,
  "disapp ro": 8610,
  "cla iming</w>": 8611,
  "spea ker</w>": 8612,
  "a pri": 8613,
  "attemp ts</w>": 8614,
  "ye ar": 8615,
  "compla ined</w>": 8616,
  "embarra ssing</w>": 8617,
  "pier ced</w>": 8618,
  "strea ming</w>": 8619,
  "so bbing</w>": 8620,
  "a sp": 8621,
  "re ed</w>": 8622,
  "hu m</w>": 8623,
  "ro of": 8624,
  "be wil": 8625,
  "seven ty</w>": 8626,
  "thank ful</w>": 8627,
  "abo ard</w>": 8628,
  "sur ged</w>": 8629,
  "cour te": 8630,
  "madi son</w>": 8631,
  "thu mp</w>": 8632,
  "com mented</w>": 8633,
  "ali zed</w>": 8634,
  "y na</w>": 8635,
  "an aly": 8636,
  "m elt</w>": 8637,
  "dismi ssed</w>": 8638,
  "sc o</w>": 8639,
  "f en": 8640,
  "croo ked</w>": 8641,
  "sk ye</w>": 8642,
  "ag ger": 8643,
  "fe min": 8644,
  "eag erly</w>": 8645,
  "limi ts</w>": 8646,
  "dr yly</w>": 8647,
  "raz or</w>": 8648,
  "j ar": 8649,
  "si mul": 8650,
  "fur rowed</w>": 8651,
  "el se": 8652,
  "multi ple</w>": 8653,
  "vi e</w>": 8654,
  "pre sses</w>": 8655,
  "sla ves</w>": 8656,
  "ur gent</w>": 8657,
  "an der": 8658,
  "regi stered</w>": 8659,
  "techni cally</w>": 8660,
  "ar cher</w>": 8661,
  "se ssion</w>": 8662,
  "sc an</w>": 8663,
  "lu ther</w>": 8664,
  "cher ry</w>": 8665,
  "ja de</w>": 8666,
  "gre et</w>": 8667,
  "f are</w>": 8668,
  "sha ken</w>": 8669,
  "te e": 8670,
  "ll ic</w>": 8671,
  "go s</w>": 8672,
  "swe ating</w>": 8673,
  "m ack": 8674,
  "tu es": 8675,
  "m ire</w>": 8676,
  "re moving</w>": 8677,
  "for getting</w>": 8678,
  "flick ering</w>": 8679,
  "de pu": 8680,
  "anton io</w>": 8681,
  "r and</w>": 8682,
  "ten ded</w>": 8683,
  "bru ised</w>": 8684,
  "sa b": 8685,
  "malcol m</w>": 8686,
  "apo llo</w>": 8687,
  "gen e</w>": 8688,
  "gi l</w>": 8689,
  "ro gue</w>": 8690,
  "f ever</w>": 8691,
  "ex agger": 8692,
  "pr ou": 8693,
  "fran ce": 8694,
  "der ness</w>": 8695,
  "an or</w>": 8696,
  "de ad": 8697,
  "cri sp</w>": 8698,
  "ky rian</w>": 8699,
  "fi cally</w>": 8700,
  "bi dden</w>": 8701,
  "ar ou": 8702,
  "incre dul": 8703,
  "len e</w>": 8704,
  "sp anish</w>": 8705,
  "parti ally</w>": 8706,
  "attrac tion</w>": 8707,
  "supp er</w>": 8708,
  "will ingly</w>": 8709,
  "ang les</w>": 8710,
  "sen ator</w>": 8711,
  "sh ops</w>": 8712,
  "stra y</w>": 8713,
  "coinci dence</w>": 8714,
  "gra vity</w>": 8715,
  "re sen": 8716,
  "cur sing</w>": 8717,
  "na vi": 8718,
  "m ar</w>": 8719,
  "mi xture</w>": 8720,
  "1 0": 8721,
  "un pleasant</w>": 8722,
  "le vi</w>": 8723,
  "disc om": 8724,
  "mir a</w>": 8725,
  "sa vor": 8726,
  "ho sti": 8727,
  "ll est</w>": 8728,
  "aw oke</w>": 8729,
  "christ op": 8730,
  "nor thern</w>": 8731,
  "ro th</w>": 8732,
  "communi cation</w>": 8733,
  "r ory</w>": 8734,
  "obli vious</w>": 8735,
  "dar ius</w>": 8736,
  "absen tly</w>": 8737,
  "trous ers</w>": 8738,
  "perfor mance</w>": 8739,
  "rai ses</w>": 8740,
  "re solve</w>": 8741,
  "back seat</w>": 8742,
  "t cher</w>": 8743,
  "fli pping</w>": 8744,
  "sha pes</w>": 8745,
  "can cer</w>": 8746,
  "inti mid": 8747,
  "fun c": 8748,
  "ca therine</w>": 8749,
  "ac knowledge</w>": 8750,
  "bi shop</w>": 8751,
  "ex ce": 8752,
  "black ness</w>": 8753,
  "mach ines</w>": 8754,
  "ton es</w>": 8755,
  "k it</w>": 8756,
  "car go</w>": 8757,
  "st ab</w>": 8758,
  "ga ining</w>": 8759,
  "na dia</w>": 8760,
  "w are</w>": 8761,
  "no tion</w>": 8762,
  "n oo": 8763,
  "j agged</w>": 8764,
  "smu g</w>": 8765,
  "broo ke</w>": 8766,
  "stra w</w>": 8767,
  "cat ches</w>": 8768,
  "sun set</w>": 8769,
  "distur bing</w>": 8770,
  "car los</w>": 8771,
  "con spir": 8772,
  "inter nal</w>": 8773,
  "phoeni x</w>": 8774,
  "mean while</w>": 8775,
  "per form</w>": 8776,
  "je ff": 8777,
  "financi al</w>": 8778,
  "ru bber</w>": 8779,
  "sanctu ary</w>": 8780,
  "sen sing</w>": 8781,
  "comb ined</w>": 8782,
  "sa un": 8783,
  "in fin": 8784,
  "appre hen": 8785,
  "ch a</w>": 8786,
  "che ek": 8787,
  "ou tw": 8788,
  "sa sha</w>": 8789,
  "du mb": 8790,
  "sor cer": 8791,
  "zi pped</w>": 8792,
  "mon o": 8793,
  "passion ate</w>": 8794,
  "genu inely</w>": 8795,
  "re x</w>": 8796,
  "back yard</w>": 8797,
  "re ce": 8798,
  "clo ses</w>": 8799,
  "ma ll</w>": 8800,
  "tu m</w>": 8801,
  "reluc tant</w>": 8802,
  "att acks</w>": 8803,
  "mean ing": 8804,
  "sn ick": 8805,
  "loun ge</w>": 8806,
  "i ge</w>": 8807,
  "doub ts</w>": 8808,
  "pic tured</w>": 8809,
  "ra m": 8810,
  "ck ers</w>": 8811,
  "arti st</w>": 8812,
  "ap y</w>": 8813,
  "del u": 8814,
  "swa llowing</w>": 8815,
  "bon nie</w>": 8816,
  "ev ol": 8817,
  "swa yed</w>": 8818,
  "illu sion</w>": 8819,
  "t ac": 8820,
  "elabor ate</w>": 8821,
  "dri vers</w>": 8822,
  "c it": 8823,
  "imag in": 8824,
  "s ly</w>": 8825,
  "l ining</w>": 8826,
  "ett es</w>": 8827,
  "at t</w>": 8828,
  "fr ance</w>": 8829,
  "compani ons</w>": 8830,
  "sur real</w>": 8831,
  "down ward</w>": 8832,
  "help ful</w>": 8833,
  "star ving</w>": 8834,
  "por tra": 8835,
  "ra pid</w>": 8836,
  "inv iting</w>": 8837,
  "au tu": 8838,
  "r ats</w>": 8839,
  "hi ss</w>": 8840,
  "v ation</w>": 8841,
  "win ds</w>": 8842,
  "disa gre": 8843,
  "spe lls</w>": 8844,
  "bu mps</w>": 8845,
  "nap kin</w>": 8846,
  "disc i": 8847,
  "ti res</w>": 8848,
  "li lly</w>": 8849,
  "ser ena</w>": 8850,
  "sk ele": 8851,
  "dal ton</w>": 8852,
  "te sted</w>": 8853,
  "ceme tery</w>": 8854,
  "gy p": 8855,
  "el ded</w>": 8856,
  "fla shes</w>": 8857,
  "magnific ent</w>": 8858,
  "care ssed</w>": 8859,
  "vin ce</w>": 8860,
  "com ments</w>": 8861,
  "murmur </w>": 8862,
  "in se": 8863,
  "c el</w>": 8864,
  "pa using</w>": 8865,
  "o ts</w>": 8866,
  "citi zens</w>": 8867,
  "kal adin</w>": 8868,
  "y l</w>": 8869,
  "ol dest</w>": 8870,
  "p el": 8871,
  "se cured</w>": 8872,
  "bu mped</w>": 8873,
  "stra in</w>": 8874,
  "gre ek</w>": 8875,
  "laun dry</w>": 8876,
  "pen cil</w>": 8877,
  "ele anor</w>": 8878,
  "ig ni": 8879,
  "pro vo": 8880,
  "ro pes</w>": 8881,
  "deli ghted</w>": 8882,
  "spraw led</w>": 8883,
  "cla d</w>": 8884,
  "tre mble</w>": 8885,
  "accep ting</w>": 8886,
  "5 0</w>": 8887,
  "fil thy</w>": 8888,
  "sp ur": 8889,
  "di ana</w>": 8890,
  "vivi an</w>": 8891,
  "che er</w>": 8892,
  "sen ti": 8893,
  "ille gal</w>": 8894,
  "go in</w>": 8895,
  "ra pha": 8896,
  "fun ction</w>": 8897,
  "st ir</w>": 8898,
  "arri ving</w>": 8899,
  "refriger ator</w>": 8900,
  "pu </w>": 8901,
  "ca ss</w>": 8902,
  "expl ore</w>": 8903,
  "lon ged</w>": 8904,
  "un likely</w>": 8905,
  "fi ghter</w>": 8906,
  "si e": 8907,
  "whi stle</w>": 8908,
  "ken ne": 8909,
  "arr ows</w>": 8910,
  "bla sted</w>": 8911,
  "fea thers</w>": 8912,
  "al u": 8913,
  "batt le": 8914,
  "de sig": 8915,
  "pregn ancy</w>": 8916,
  "cau tion</w>": 8917,
  "drea d": 8918,
  "ven ge": 8919,
  ". a</w>": 8920,
  "na p</w>": 8921,
  "ad ri": 8922,
  "ach eron</w>": 8923,
  "lo vers</w>": 8924,
  "att acking</w>": 8925,
  "cler k</w>": 8926,
  "disgu sted</w>": 8927,
  "lea k</w>": 8928,
  "op e</w>": 8929,
  "ac ity</w>": 8930,
  "arr ange</w>": 8931,
  "im men": 8932,
  "f ond</w>": 8933,
  "shu tting</w>": 8934,
  "fo x</w>": 8935,
  "wei ghed</w>": 8936,
  "scen ari": 8937,
  "mp er</w>": 8938,
  "teen ager</w>": 8939,
  "ser va": 8940,
  "k ur": 8941,
  "feli x</w>": 8942,
  "posi tions</w>": 8943,
  "y d</w>": 8944,
  "in surance</w>": 8945,
  "va mp</w>": 8946,
  "lu is</w>": 8947,
  "el a</w>": 8948,
  "ch ina</w>": 8949,
  "superi or</w>": 8950,
  "deni ed</w>": 8951,
  "kar a</w>": 8952,
  "au dre": 8953,
  "clau de</w>": 8954,
  "un happy</w>": 8955,
  "me etings</w>": 8956,
  "ti ff": 8957,
  "ha l</w>": 8958,
  "dar y</w>": 8959,
  "re served</w>": 8960,
  "goo se</w>": 8961,
  "sav age</w>": 8962,
  "scoo ped</w>": 8963,
  "beth any</w>": 8964,
  "fli ck</w>": 8965,
  "retri eve</w>": 8966,
  "da sh</w>": 8967,
  "eu rope</w>": 8968,
  "so bs</w>": 8969,
  "jon ah</w>": 8970,
  "tal es</w>": 8971,
  "gu ts</w>": 8972,
  "ce ssi": 8973,
  "fre sh": 8974,
  "apri l</w>": 8975,
  "enthusi a": 8976,
  "sac red</w>": 8977,
  "fac tory</w>": 8978,
  "re turns</w>": 8979,
  "vari ety</w>": 8980,
  "photogra ph</w>": 8981,
  "cr acks</w>": 8982,
  "repe atedly</w>": 8983,
  "mom my</w>": 8984,
  "buzz ing</w>": 8985,
  "fe males</w>": 8986,
  "tues day</w>": 8987,
  "pp les</w>": 8988,
  "st ure</w>": 8989,
  "sta tic</w>": 8990,
  "ty pes</w>": 8991,
  "tal ks</w>": 8992,
  "ro y</w>": 8993,
  "bi zar": 8994,
  "sta in</w>": 8995,
  "we dne": 8996,
  "addi tional</w>": 8997,
  "sen sual</w>": 8998,
  "sme lling</w>": 8999,
  "clai ms</w>": 9000,
  "cow boy</w>": 9001,
  "edu cation</w>": 9002,
  "r ounds</w>": 9003,
  "ex clu": 9004,
  "deman ds</w>": 9005,
  "an ked</w>": 9006,
  "pri ze</w>": 9007,
  "ho arse</w>": 9008,
  "ob jects</w>": 9009,
  "att ack": 9010,
  "ca llie</w>": 9011,
  "stu mbling</w>": 9012,
  "sco ffed</w>": 9013,
  "milli ons</w>": 9014,
  "exa mine</w>": 9015,
  "bu zzed</w>": 9016,
  "e o</w>": 9017,
  "o a": 9018,
  "che wing</w>": 9019,
  "betra yal</w>": 9020,
  "pp ling</w>": 9021,
  "f ling</w>": 9022,
  "disgu sting</w>": 9023,
  "sun ny</w>": 9024,
  "assho le</w>": 9025,
  "spe cu": 9026,
  "may a</w>": 9027,
  "ban ks</w>": 9028,
  "do me</w>": 9029,
  "de par": 9030,
  "eigh ty</w>": 9031,
  "un dead</w>": 9032,
  "spe cts</w>": 9033,
  "x ie</w>": 9034,
  "mo ti": 9035,
  "proce eded</w>": 9036,
  "ba star": 9037,
  "u i": 9038,
  "app lau": 9039,
  "ke st</w>": 9040,
  "cr inged</w>": 9041,
  "ad ults</w>": 9042,
  "da zed</w>": 9043,
  "ro mance</w>": 9044,
  "pa ths</w>": 9045,
  "mo tionless</w>": 9046,
  "ri tual</w>": 9047,
  "bar ri": 9048,
  "pur sed</w>": 9049,
  "dwar f</w>": 9050,
  "identi fy</w>": 9051,
  "acciden tally</w>": 9052,
  "loa ding</w>": 9053,
  "remin ds</w>": 9054,
  "mo tel</w>": 9055,
  "hea vens</w>": 9056,
  "z ach": 9057,
  "as her</w>": 9058,
  "hu mming</w>": 9059,
  "aband on</w>": 9060,
  "summon ed</w>": 9061,
  "can vas</w>": 9062,
  "lur ched</w>": 9063,
  "indi an</w>": 9064,
  "di ans</w>": 9065,
  "sle epy</w>": 9066,
  "ke t": 9067,
  "mur phy</w>": 9068,
  "tru sting</w>": 9069,
  "du ties</w>": 9070,
  "bri s</w>": 9071,
  "le wi": 9072,
  "ac custom": 9073,
  "jo el</w>": 9074,
  "sil ky</w>": 9075,
  "gigg ling</w>": 9076,
  "no vel</w>": 9077,
  "s our</w>": 9078,
  "lin ked</w>": 9079,
  "le on": 9080,
  "accustom ed</w>": 9081,
  "st icky</w>": 9082,
  "syste ms</w>": 9083,
  "lor ds</w>": 9084,
  "gra ve": 9085,
  "blin ding</w>": 9086,
  "sc ore</w>": 9087,
  "sw oo": 9088,
  "madel ine</w>": 9089,
  "up side</w>": 9090,
  "concer ns</w>": 9091,
  "ex qui": 9092,
  "p re</w>": 9093,
  "ru mbled</w>": 9094,
  "et an</w>": 9095,
  "ki tten</w>": 9096,
  "bri ghter</w>": 9097,
  "ex ter": 9098,
  "d ous</w>": 9099,
  "wan der</w>": 9100,
  "refer ring</w>": 9101,
  "pa irs</w>": 9102,
  "reassur ing</w>": 9103,
  "super natural</w>": 9104,
  "ace fully</w>": 9105,
  "swa m</w>": 9106,
  "religi ous</w>": 9107,
  "de di": 9108,
  "infe cted</w>": 9109,
  "c key</w>": 9110,
  "ste ep</w>": 9111,
  "saw yer</w>": 9112,
  "gli ttering</w>": 9113,
  "di aled</w>": 9114,
  "ta iled</w>": 9115,
  "defen sive</w>": 9116,
  "ho t": 9117,
  "else where</w>": 9118,
  "con gre": 9119,
  "dra in</w>": 9120,
  "ab bed</w>": 9121,
  "en countered</w>": 9122,
  "fre ely</w>": 9123,
  "ti de</w>": 9124,
  "an gui": 9125,
  "y ment</w>": 9126,
  "l ena</w>": 9127,
  "expre ssions</w>": 9128,
  "lar gest</w>": 9129,
  "defe ated</w>": 9130,
  "ll e": 9131,
  "autu mn</w>": 9132,
  "foun tain</w>": 9133,
  "evid ently</w>": 9134,
  "gi ble</w>": 9135,
  "acti vities</w>": 9136,
  "promi sing</w>": 9137,
  "audre y</w>": 9138,
  "margar et</w>": 9139,
  "pla in": 9140,
  "furi ously</w>": 9141,
  "de t": 9142,
  "s ale</w>": 9143,
  "p ond</w>": 9144,
  "re place</w>": 9145,
  "cauti ous</w>": 9146,
  "rapha el</w>": 9147,
  "mer ry</w>": 9148,
  "whe el": 9149,
  "pe st</w>": 9150,
  "tran spor": 9151,
  "prou dly</w>": 9152,
  "li king</w>": 9153,
  "cal med</w>": 9154,
  "france sca</w>": 9155,
  "ga ping</w>": 9156,
  "tal on</w>": 9157,
  "ba sis</w>": 9158,
  "el et</w>": 9159,
  "par ent</w>": 9160,
  "coun tless</w>": 9161,
  "dan a</w>": 9162,
  "neighb or</w>": 9163,
  "femin ine</w>": 9164,
  "stre ssed</w>": 9165,
  "pi per</w>": 9166,
  "whi tney</w>": 9167,
  "nine teen</w>": 9168,
  "ob sc": 9169,
  "pu mping</w>": 9170,
  "mo tions</w>": 9171,
  "gr unt</w>": 9172,
  "spe ctive</w>": 9173,
  "a mm": 9174,
  "stom ped</w>": 9175,
  "or n</w>": 9176,
  "thur sday</w>": 9177,
  "andre a</w>": 9178,
  "un aware</w>": 9179,
  "convin cing</w>": 9180,
  "sha y</w>": 9181,
  "ous al</w>": 9182,
  "absor bed</w>": 9183,
  "fascin ated</w>": 9184,
  "affe ct</w>": 9185,
  "s qui": 9186,
  "vir us</w>": 9187,
  "as cen": 9188,
  "chi ck</w>": 9189,
  "ta g</w>": 9190,
  "ex ception</w>": 9191,
  "t ating</w>": 9192,
  "resi sted</w>": 9193,
  "ri c</w>": 9194,
  "stu art</w>": 9195,
  "pat rol</w>": 9196,
  "tiff any</w>": 9197,
  "el and</w>": 9198,
  "possi bilities</w>": 9199,
  "rest less</w>": 9200,
  "stor med</w>": 9201,
  "str and</w>": 9202,
  "m is</w>": 9203,
  "phra se</w>": 9204,
  "attor ney</w>": 9205,
  "for ce": 9206,
  "batt ered</w>": 9207,
  "pa th": 9208,
  "vie wed</w>": 9209,
  "pu pi": 9210,
  "identi cal</w>": 9211,
  "glor ious</w>": 9212,
  "cre eping</w>": 9213,
  "cle ar": 9214,
  "ax e</w>": 9215,
  "ab sur": 9216,
  "bea med</w>": 9217,
  "c tion": 9218,
  "play ers</w>": 9219,
  "i le</w>": 9220,
  "depen ds</w>": 9221,
  "par don</w>": 9222,
  "loo p</w>": 9223,
  "po e": 9224,
  "bed side</w>": 9225,
  "di se</w>": 9226,
  "f at": 9227,
  "mp tion</w>": 9228,
  "hope ful</w>": 9229,
  "le dge</w>": 9230,
  "dr owning</w>": 9231,
  "shi fts</w>": 9232,
  "congr atu": 9233,
  "oxy gen</w>": 9234,
  "ta d</w>": 9235,
  "luci an</w>": 9236,
  "au gust</w>": 9237,
  "produ ce</w>": 9238,
  "stro kes</w>": 9239,
  "bac on</w>": 9240,
  "te achers</w>": 9241,
  "li ca</w>": 9242,
  "apolo ge": 9243,
  "ma scul": 9244,
  "ste phan": 9245,
  "pain tings</w>": 9246,
  "retri eved</w>": 9247,
  "cli pped</w>": 9248,
  "zi o</w>": 9249,
  "stron gly</w>": 9250,
  "ske p": 9251,
  "pecu liar</w>": 9252,
  "pre ven": 9253,
  "scra ped</w>": 9254,
  "car ess</w>": 9255,
  "le on</w>": 9256,
  "tru cks</w>": 9257,
  "distri ct</w>": 9258,
  "lo dge</w>": 9259,
  "un familiar</w>": 9260,
  "ver on": 9261,
  "aven ue</w>": 9262,
  "h l</w>": 9263,
  "isa bel</w>": 9264,
  "fe sti": 9265,
  "assist ance</w>": 9266,
  "pu ppy</w>": 9267,
  "y el": 9268,
  "ra ging</w>": 9269,
  "obe y</w>": 9270,
  "choo sing</w>": 9271,
  "ti ming</w>": 9272,
  "sta ys</w>": 9273,
  "st ine</w>": 9274,
  "si enna</w>": 9275,
  "pa pa</w>": 9276,
  "pa ul": 9277,
  "twi tch</w>": 9278,
  "sa etan</w>": 9279,
  "happ ier</w>": 9280,
  "co dy</w>": 9281,
  "stir ring</w>": 9282,
  "pe eled</w>": 9283,
  "din er</w>": 9284,
  "le ment</w>": 9285,
  "mean time</w>": 9286,
  "lar ry</w>": 9287,
  "tri be</w>": 9288,
  "scar f</w>": 9289,
  "off ers</w>": 9290,
  "sarca sm</w>": 9291,
  "inde x</w>": 9292,
  "degre es</w>": 9293,
  "gul ped</w>": 9294,
  "secre tly</w>": 9295,
  "lo ve": 9296,
  "ar ousal</w>": 9297,
  "ad just</w>": 9298,
  "dr owned</w>": 9299,
  "di scre": 9300,
  "le ague</w>": 9301,
  "tr acked</w>": 9302,
  "ro aring</w>": 9303,
  "g in</w>": 9304,
  "stic s</w>": 9305,
  "speci fically</w>": 9306,
  "di sin": 9307,
  "confe ssed</w>": 9308,
  "re acher</w>": 9309,
  "scri pt</w>": 9310,
  "diffic ulty</w>": 9311,
  "gall ery</w>": 9312,
  "a like</w>": 9313,
  "li gh": 9314,
  "pati ents</w>": 9315,
  "pi ano</w>": 9316,
  "high est</w>": 9317,
  "compli ment</w>": 9318,
  "e con": 9319,
  "e erie</w>": 9320,
  "su ited</w>": 9321,
  "nine ty</w>": 9322,
  "del ay</w>": 9323,
  "gen ius</w>": 9324,
  "har m": 9325,
  "promp ted</w>": 9326,
  "fu mbled</w>": 9327,
  "st acked</w>": 9328,
  "necess arily</w>": 9329,
  "e e": 9330,
  "enz ie</w>": 9331,
  "sal ad</w>": 9332,
  "bastar ds</w>": 9333,
  "a ds</w>": 9334,
  "sun k</w>": 9335,
  "logi st</w>": 9336,
  "0 s</w>": 9337,
  "bea ms</w>": 9338,
  "gu lar</w>": 9339,
  "ob je": 9340,
  "hu sky</w>": 9341,
  "deli very</w>": 9342,
  "off ices</w>": 9343,
  "acknowle dged</w>": 9344,
  "gun ner</w>": 9345,
  "ne phe": 9346,
  "vo te</w>": 9347,
  "finger nails</w>": 9348,
  "wedne sday</w>": 9349,
  "elli ot</w>": 9350,
  "frank ly</w>": 9351,
  "tra u": 9352,
  "i est</w>": 9353,
  "ha lls</w>": 9354,
  "be lls</w>": 9355,
  "se mi</w>": 9356,
  "collap se</w>": 9357,
  "gest uring</w>": 9358,
  "wa sting</w>": 9359,
  "qu et</w>": 9360,
  "foll ows</w>": 9361,
  "wel com": 9362,
  "fo ster</w>": 9363,
  "relation ships</w>": 9364,
  "sten ch</w>": 9365,
  "suspici ously</w>": 9366,
  "de s": 9367,
  "poli ce": 9368,
  "lay la</w>": 9369,
  "blur red</w>": 9370,
  "co al</w>": 9371,
  "flu id</w>": 9372,
  "ha yden</w>": 9373,
  "ha zel</w>": 9374,
  "ou </w>": 9375,
  "ha tes</w>": 9376,
  "ab be": 9377,
  "practi cal</w>": 9378,
  "ma sters</w>": 9379,
  "s ened</w>": 9380,
  "ga ped</w>": 9381,
  "bu mp</w>": 9382,
  "bizar re</w>": 9383,
  "pro spect</w>": 9384,
  "stor es</w>": 9385,
  "run g</w>": 9386,
  "f ans</w>": 9387,
  "cou sins</w>": 9388,
  "re sources</w>": 9389,
  "offen se</w>": 9390,
  "tran smi": 9391,
  "tran sport</w>": 9392,
  "thre ats</w>": 9393,
  "br yn": 9394,
  "ha irs</w>": 9395,
  "mini ster</w>": 9396,
  "celebr ate</w>": 9397,
  "mista ken</w>": 9398,
  "ag ency</w>": 9399,
  "ama z": 9400,
  "s ers</w>": 9401,
  "ite m</w>": 9402,
  "grin ding</w>": 9403,
  "dis co": 9404,
  "thri ll</w>": 9405,
  "fe der": 9406,
  "the irs</w>": 9407,
  "employe es</w>": 9408,
  "pa ined</w>": 9409,
  "po pping</w>": 9410,
  "jer king</w>": 9411,
  "weak ly</w>": 9412,
  "co ats</w>": 9413,
  "de sser": 9414,
  "ght ness</w>": 9415,
  "br ow": 9416,
  "st es</w>": 9417,
  "out stretched</w>": 9418,
  "corre ctly</w>": 9419,
  "cy n": 9420,
  "motor cycle</w>": 9421,
  "reque sted</w>": 9422,
  "ea stern</w>": 9423,
  "re i": 9424,
  "snea king</w>": 9425,
  "ro ot</w>": 9426,
  "stra ining</w>": 9427,
  "me ad": 9428,
  "gra titude</w>": 9429,
  "coo ked</w>": 9430,
  "u sh": 9431,
  "tis sue</w>": 9432,
  "sev ere</w>": 9433,
  "app lied</w>": 9434,
  "alex ia</w>": 9435,
  "appear ing</w>": 9436,
  "dri pped</w>": 9437,
  "welcom ed</w>": 9438,
  "wai st": 9439,
  "pa ja": 9440,
  "tri pped</w>": 9441,
  "cho ke</w>": 9442,
  "hea p</w>": 9443,
  "par tly</w>": 9444,
  "x y</w>": 9445,
  "vo id</w>": 9446,
  "ll o": 9447,
  "tattoo s</w>": 9448,
  "m sy</w>": 9449,
  "ri ses</w>": 9450,
  "persu a": 9451,
  "effe ctive</w>": 9452,
  "swee tie</w>": 9453,
  "mo ist</w>": 9454,
  "gi es</w>": 9455,
  "recogni tion</w>": 9456,
  "nega tive</w>": 9457,
  "w ren</w>": 9458,
  "fi tted</w>": 9459,
  "min i</w>": 9460,
  "lac ey</w>": 9461,
  "dru m</w>": 9462,
  "ad vance</w>": 9463,
  "c rai": 9464,
  "confi d": 9465,
  "de bris</w>": 9466,
  "stu dies</w>": 9467,
  "ar te": 9468,
  "ro se": 9469,
  "ski p</w>": 9470,
  "row an</w>": 9471,
  "di ve</w>": 9472,
  "ad ds</w>": 9473,
  "numer ous</w>": 9474,
  "clen ching</w>": 9475,
  "ra ys</w>": 9476,
  "mu ttering</w>": 9477,
  "di ver": 9478,
  "sh ea": 9479,
  "ad dressed</w>": 9480,
  "el derly</w>": 9481,
  "hu ffed</w>": 9482,
  "ha y": 9483,
  "kin dly</w>": 9484,
  "rela xing</w>": 9485,
  "v ors</w>": 9486,
  "di ego</w>": 9487,
  "gar dens</w>": 9488,
  "ti ce</w>": 9489,
  "tri cks</w>": 9490,
  "ru mble</w>": 9491,
  "colu mn</w>": 9492,
  "con ner</w>": 9493,
  "tt on</w>": 9494,
  "consc iously</w>": 9495,
  "origin ally</w>": 9496,
  "le cture</w>": 9497,
  "r ho": 9498,
  "cr ow</w>": 9499,
  "grow th</w>": 9500,
  "agu es</w>": 9501,
  "lu can</w>": 9502,
  "th ing": 9503,
  "cap ital</w>": 9504,
  "jo int</w>": 9505,
  "ama ze": 9506,
  "cl are</w>": 9507,
  "ess ence</w>": 9508,
  "lewi s</w>": 9509,
  "believ es</w>": 9510,
  "com plain</w>": 9511,
  "passen gers</w>": 9512,
  "sm ack</w>": 9513,
  "mel ting</w>": 9514,
  "thre sho": 9515,
  "gri mly</w>": 9516,
  "so ber</w>": 9517,
  "pe ek</w>": 9518,
  "esca ping</w>": 9519,
  "vi al</w>": 9520,
  "su san": 9521,
  "circu lar</w>": 9522,
  "stor s</w>": 9523,
  "app li": 9524,
  "swa ying</w>": 9525,
  "dep th</w>": 9526,
  "posse ss</w>": 9527,
  "night stand</w>": 9528,
  "bur nt</w>": 9529,
  "ele ssly</w>": 9530,
  "ble ssed</w>": 9531,
  "en ced</w>": 9532,
[...]
