{
  "!": 0,
  "#": 1,
  "$": 2,
  "%": 3,
  "&": 4,
  "'": 5,
  "(": 6,
  ")": 7,
  "*": 8,
  "+": 9,
  ",": 10,
  "-": 11,
  ".": 12,
  "/": 13,
  "0": 14,
  "1": 15,
  "2": 16,
  "3": 17,
  "4": 18,
  "5": 19,
  "6": 20,
  "7": 21,
  "8": 22,
  "9": 23,
  ":": 24,
  ";": 25,
  "<": 26,
  "</w>": 27,
  "=": 28,
  ">": 29,
  "?": 30,
  "@": 31,
  "[": 32,
  "\\": 33,
  "]": 34,
  "^": 35,
  "_": 36,
  "`": 37,
  "a": 38,
  "b": 39,
  "c": 40,
  "d": 41,
  "e": 42,
  "f": 43,
  "g": 44,
  "h": 45,
  "i": 46,
  "j": 47,
  "k": 48,
  "l": 49,
  "m": 50,
  "n": 51,
  "o": 52,
  "p": 53,
  "q": 54,
  "r": 55,
  "s": 56,
  "t": 57,
  "u": 58,
  "v": 59,
  "w": 60,
  "x": 61,
  "y": 62,
  "z": 63,
  "{": 64,
  "|": 65,
  "}": 66,
  "~": 67,
  "th": 68,
  "in": 69,
  "er": 70,
  "an": 71,
  "ed</w>": 72,
  "ou": 73,
  "the</w>": 74,
  "er</w>": 75,
  "ing</w>": 76,
  "ar": 77,
  "to</w>": 78,
  "or": 79,
  "he</w>": 80,
  "and</w>": 81,
  "ll": 82,
  "hi": 83,
  "at</w>": 84,
  "wa": 85,
  "re": 86,
  "on": 87,
  "st": 88,
  "en": 89,
  "ha": 90,
  "''</w>": 91,
  "of</w>": 92,
  "ow": 93,
  "in</w>": 94,
  "you": 95,
  "en</w>": 96,
  "li": 97,
  "on</w>": 98,
  "me</w>": 99,
  "ac": 100,
  "it</w>": 101,
  "was</w>": 102,
  "you</w>": 103,
  "ll</w>": 104,
  "her</w>": 105,
  "es</w>": 106,
  "ro": 107,
  "gh": 108,
  "ti": 109,
  "be": 110,
  "wh": 111,
  "she</w>": 112,
  "or</w>": 113,
  "his</w>": 114,
  "st</w>": 115,
  "el": 116,
  "wi": 117,
  "that</w>": 118,
  "th</w>": 119,
  "al": 120,
  "an</w>": 121,
  "ch": 122,
  "ri": 123,
  "ve</w>": 124,
  "ld</w>": 125,
  "oo": 126,
  "si": 127,
  "le": 128,
  "ere</w>": 129,
  "sa": 130,
  "ly</w>": 131,
  "di": 132,
  "sh": 133,
  "the": 134,
  "my</w>": 135,
  "ur": 136,
  "ow</w>": 137,
  "le</w>": 138,
  "at": 139,
  "is</w>": 140,
  "bu": 141,
  "se</w>": 142,
  "ir": 143,
  "ne": 144,
  "ould</w>": 145,
  "out</w>": 146,
  "n'": 147,
  "n't</w>": 148,
  "om": 149,
  "no": 150,
  "as</w>": 151,
  "se": 152,
  "'s</w>": 153,
  "with</w>": 154,
  "had</w>": 155,
  "ma": 156,
  "ke</w>": 157,
  "ght</w>": 158,
  "ab": 159,
  "for</w>": 160,
  "un": 161,
  "one</w>": 162,
  "but</w>": 163,
  "la": 164,
  "ra": 165,
  "ca": 166,
  "de": 167,
  "ce</w>": 168,
  "him</w>": 169,
  "lo": 170,
  "he": 171,
  "ked</w>": 172,
  "ev": 173,
  "pp": 174,
  "mi": 175,
  "be</w>": 176,
  "id</w>": 177,
  "rea": 178,
  "tt": 179,
  "sp": 180,
  "do</w>": 181,
  "ther</w>": 182,
  "oun": 183,
  "et</w>": 184,
  "ss</w>": 185,
  "ts</w>": 186,
  "ted</w>": 187,
  "de</w>": 188,
  "ag": 189,
  "now</w>": 190,
  "not</w>": 191,
  "ent</w>": 192,
  "what</w>": 193,
  "for": 194,
  "ack</w>": 195,
  "mo": 196,
  "co": 197,
  "have</w>": 198,
  "fe": 199,
  "up</w>": 200,
  "ch</w>": 201,
  "said</w>": 202,
  "they</w>": 203,
  "loo": 204,
  "thing</w>": 205,
  "we</w>": 206,
  "al</w>": 207,
  "fro": 208,
  "ver</w>": 209,
  "as": 210,
  "king</w>": 211,
  "ds</w>": 212,
  "this</w>": 213,
  "to": 214,
  "so</w>": 215,
  "from</w>": 216,
  "did</w>": 217,
  "go": 218,
  "we": 219,
  "ar</w>": 220,
  "ta": 221,
  "ic": 222,
  "ru": 223,
  "su": 224,
  "con": 225,
  "te": 226,
  "all</w>": 227,
  "own</w>": 228,
  "gh</w>": 229,
  "ju": 230,
  "could</w>": 231,
  "me": 232,
  "ad</w>": 233,
  "sed</w>": 234,
  "way</w>": 235,
  "would</w>": 236,
  "were</w>": 237,
  "do": 238,
  "lly</w>": 239,
  "are</w>": 240,
  "ter</w>": 241,
  "bo": 242,
  "tion</w>": 243,
  "so": 244,
  "like</w>": 245,
  "if</w>": 246,
  "ers</w>": 247,
  "wor": 248,
  "back</w>": 249,
  "ir</w>": 250,
  "ound</w>": 251,
  "there</w>": 252,
  "ded</w>": 253,
  "ex": 254,
  "ough</w>": 255,
  "qu": 256,
  "da": 257,
  "no</w>": 258,
  "ard</w>": 259,
  "mor": 260,
  "fi": 261,
  "ho": 262,
  "ing": 263,
  "into</w>": 264,
  "just</w>": 265,
  "'d</w>": 266,
  "when</w>": 267,
  "pu": 268,
  "about</w>": 269,
  "it": 270,
  "po": 271,
  "wan": 272,
  "then</w>": 273,
  "yes</w>": 274,
  "ace</w>": 275,
  "mu": 276,
  "ver": 277,
  "ind</w>": 278,
  "fu": 279,
  "whi": 280,
  "fa": 281,
  "mp": 282,
  "sc": 283,
  "dy</w>": 284,
  "them</w>": 285,
  "ome": 286,
  "ding</w>": 287,
  "tur": 288,
  "know</w>": 289,
  "been</w>": 290,
  "com": 291,
  "gu": 292,
  "some": 293,
  "led</w>": 294,
  "gr": 295,
  "pa": 296,
  "your</w>": 297,
  "vi": 298,
  "sti": 299,
  "over</w>": 300,
  "of": 301,
  "by</w>": 302,
  "down</w>": 303,
  "sel": 304,
  "op": 305,
  "re</w>": 306,
  "aga": 307,
  "pro": 308,
  "ered</w>": 309,
  "ood</w>": 310,
  "ge</w>": 311,
  "ni": 312,
  "time</w>": 313,
  "tr": 314,
  "el</w>": 315,
  "nt</w>": 316,
  "lu": 317,
  "ck</w>": 318,
  "ys</w>": 319,
  "get</w>": 320,
  "pe": 321,
  "more</w>": 322,
  "ty</w>": 323,
  "mb": 324,
  "ned</w>": 325,
  "other</w>": 326,
  "ong</w>": 327,
  "der</w>": 328,
  "how</w>": 329,
  "sur": 330,
  "eyes</w>": 331,
  "side</w>": 332,
  "ci": 333,
  "par": 334,
  "pre": 335,
  "ks</w>": 336,
  "tly</w>": 337,
  "ine</w>": 338,
  "lea": 339,
  "head</w>": 340,
  "lled</w>": 341,
  "pl": 342,
  "pped</w>": 343,
  "gi": 344,
  "self</w>": 345,
  "ink</w>": 346,
  "ate</w>": 347,
  "ge": 348,
  "af": 349,
  "can</w>": 350,
  "ki": 351,
  "ke": 352,
  "ying</w>": 353,
  "us</w>": 354,
  "ga": 355,
  "who</w>": 356,
  "right</w>": 357,
  "thr": 358,
  "their</w>": 359,
  "fore</w>": 360,
  "per": 361,
  "han": 362,
  "ever": 363,
  "man</w>": 364,
  "before</w>": 365,
  "ter": 366,
  "even</w>": 367,
  "around</w>": 368,
  "ye": 369,
  "here</w>": 370,
  "cau": 371,
  "sh</w>": 372,
  "ought</w>": 373,
  "any</w>": 374,
  "..</w>": 375,
  "ste": 376,
  "new</w>": 377,
  "any": 378,
  "our</w>": 379,
  "star": 380,
  "going</w>": 381,
  "ely</w>": 382,
  "ting</w>": 383,
  "see</w>": 384,
  "...</w>": 385,
  "ook</w>": 386,
  "ss": 387,
  "na": 388,
  "clo": 389,
  "ved</w>": 390,
  "ps</w>": 391,
  "cu": 392,
  "go</w>": 393,
  "tw": 394,
  "ce": 395,
  "fir": 396,
  "om</w>": 397,
  "ving</w>": 398,
  "off</w>": 399,
  "only</w>": 400,
  "some</w>": 401,
  "want</w>": 402,
  "than</w>": 403,
  "'re</w>": 404,
  "able</w>": 405,
  "med</w>": 406,
  "hand</w>": 407,
  "where</w>": 408,
  "through</w>": 409,
  "looked</w>": 410,
  "te</w>": 411,
  "think</w>": 412,
  "ons</w>": 413,
  "ten": 414,
  "will</w>": 415,
  "face</w>": 416,
  "br": 417,
  "ous</w>": 418,
  "again</w>": 419,
  "shi": 420,
  "mar": 421,
  "vo": 422,
  "too</w>": 423,
  "ning</w>": 424,
  "bl": 425,
  "ad": 426,
  "away</w>": 427,
  "hel": 428,
  "ally</w>": 429,
  "ep</w>": 430,
  "still</w>": 431,
  "something</w>": 432,
  "che": 433,
  "room</w>": 434,
  "ft</w>": 435,
  "ever</w>": 436,
  "ssi": 437,
  "come</w>": 438,
  "jo": 439,
  "fe</w>": 440,
  "ms</w>": 441,
  "ings</w>": 442,
  "sta": 443,
  "tu": 444,
  "well</w>": 445,
  "ry</w>": 446,
  "never</w>": 447,
  "ant</w>": 448,
  "day</w>": 449,
  "cha": 450,
  "ttle</w>": 451,
  "der": 452,
  "car": 453,
  "smi": 454,
  "after</w>": 455,
  "bi": 456,
  "our": 457,
  "asked</w>": 458,
  "'ll</w>": 459,
  "thought</w>": 460,
  "gre": 461,
  "shed</w>": 462,
  "brea": 463,
  "spe": 464,
  "let</w>": 465,
  "cause</w>": 466,
  "good</w>": 467,
  "two</w>": 468,
  "ang": 469,
  "end</w>": 470,
  "ssed</w>": 471,
  "hu": 472,
  "look</w>": 473,
  "see": 474,
  "made</w>": 475,
  "ance</w>": 476,
  "ched</w>": 477,
  "son</w>": 478,
  "why</w>": 479,
  "ated</w>": 480,
  "tri": 481,
  "much</w>": 482,
  "min": 483,
  "got</w>": 484,
  "tting</w>": 485,
  "ment</w>": 486,
  "because</w>": 487,
  "gg": 488,
  "sha": 489,
  "ling</w>": 490,
  "fin": 491,
  "ice</w>": 492,
  "knew</w>": 493,
  "turned</w>": 494,
  "sto": 495,
  "fr": 496,
  "door</w>": 497,
  "ach</w>": 498,
  "ars</w>": 499,
  "little</w>": 500,
  "most</w>": 501,
  "du": 502,
  "ened</w>": 503,
  "pi": 504,
  "wal": 505,
  "ff": 506,
  "ck": 507,
  "sure</w>": 508,
  "man": 509,
  "its</w>": 510,
  "take</w>": 511,
  "happ": 512,
  "long</w>": 513,
  "make</w>": 514,
  "every": 515,
  "elt</w>": 516,
  "les</w>": 517,
  "tal": 518,
  "fo": 519,
  "ach": 520,
  "say</w>": 521,
  "first</w>": 522,
  "ful</w>": 523,
  "bed</w>": 524,
  "ba": 525,
  "dar": 526,
  "ced</w>": 527,
  "tra": 528,
  "mon": 529,
  "felt</w>": 530,
  "lling</w>": 531,
  "came</w>": 532,
  "tru": 533,
  "body</w>": 534,
  "pri": 535,
  "wanted</w>": 536,
  "ct</w>": 537,
  "took</w>": 538,
  "sen": 539,
  "fri": 540,
  "ree</w>": 541,
  "need</w>": 542,
  "ble</w>": 543,
  "ser": 544,
  "app": 545,
  "pla": 546,
  "dd": 547,
  "tell</w>": 548,
  "hands</w>": 549,
  "ves</w>": 550,
  "really</w>": 551,
  "stu": 552,
  "tow": 553,
  "very</w>": 554,
  "ca</w>": 555,
  "sli": 556,
  "ose</w>": 557,
  "sho": 558,
  "ear": 559,
  "war": 560,
  "red</w>": 561,
  "again": 562,
  "sin": 563,
  "against</w>": 564,
  "dre": 565,
  "sk": 566,
  "has</w>": 567,
  "should</w>": 568,
  "je": 569,
  "voice</w>": 570,
  "ze</w>": 571,
  "wat": 572,
  "night</w>": 573,
  "ence</w>": 574,
  "am</w>": 575,
  "que": 576,
  "though</w>": 577,
  "gl": 578,
  "str": 579,
  "with": 580,
  "peop": 581,
  "left</w>": 582,
  "pt</w>": 583,
  "while</w>": 584,
  "which</w>": 585,
  "owed</w>": 586,
  "ready</w>": 587,
  "told</w>": 588,
  "people</w>": 589,
  "last</w>": 590,
  "ph": 591,
  "another</w>": 592,
  "cor": 593,
  "chi": 594,
  "sing</w>": 595,
  "mom": 596,
  "age</w>": 597,
  "cont": 598,
  "bro": 599,
  "life</w>": 600,
  "wom": 601,
  "lau": 602,
  "ous": 603,
  "mat": 604,
  "sl": 605,
  "ic</w>": 606,
  "cked</w>": 607,
  "il": 608,
  "tter</w>": 609,
  "kn": 610,
  "mes</w>": 611,
  "few</w>": 612,
  "anything</w>": 613,
  "pe</w>": 614,
  "ways</w>": 615,
  "cre": 616,
  "ve": 617,
  "sor": 618,
  "ja": 619,
  "gra": 620,
  "ess</w>": 621,
  "sted</w>": 622,
  "hind</w>": 623,
  "may": 624,
  "nothing</w>": 625,
  "being</w>": 626,
  "behind</w>": 627,
  "ure</w>": 628,
  "enough</w>": 629,
  "ined</w>": 630,
  "sw": 631,
  "ka": 632,
  "went</w>": 633,
  "feel</w>": 634,
  "does</w>": 635,
  "ents</w>": 636,
  "shou": 637,
  "and": 638,
  "ah</w>": 639,
  "unti": 640,
  "lls</w>": 641,
  "might</w>": 642,
  "cr": 643,
  "saw</w>": 644,
  "gir": 645,
  "zed</w>": 646,
  "things</w>": 647,
  "ouse</w>": 648,
  "hear": 649,
  "bab": 650,
  "until</w>": 651,
  "cle": 652,
  "ick</w>": 653,
  "ple": 654,
  "light</w>": 655,
  "maybe</w>": 656,
  "those</w>": 657,
  "hea": 658,
  "put</w>": 659,
  "dra": 660,
  "owing</w>": 661,
  "xt</w>": 662,
  "ows</w>": 663,
  "au": 664,
  "ster</w>": 665,
  "find</w>": 666,
  "fing": 667,
  "cla": 668,
  "looking</w>": 669,
  "tre": 670,
  "fac": 671,
  "place</w>": 672,
  "under": 673,
  "every</w>": 674,
  "mind</w>": 675,
  "my": 676,
  "ity</w>": 677,
  "hun": 678,
  "once</w>": 679,
  "rai": 680,
  "fron": 681,
  "tions</w>": 682,
  "mou": 683,
  "ching</w>": 684,
  "hair</w>": 685,
  "love</w>": 686,
  "win": 687,
  "mer": 688,
  "im": 689,
  "moment</w>": 690,
  "both</w>": 691,
  "beg": 692,
  "mber</w>": 693,
  "house</w>": 694,
  "always</w>": 695,
  "ation</w>": 696,
  "sma": 697,
  "cur": 698,
  "har": 699,
  "sil": 700,
  "next</w>": 701,
  "ite</w>": 702,
  "bri": 703,
  "gen": 704,
  "ans</w>": 705,
  "dri": 706,
  "front</w>": 707,
  "ross</w>": 708,
  "inside</w>": 709,
  "lar": 710,
  "lat": 711,
  "less</w>": 712,
  "stre": 713,
  "ness</w>": 714,
  "stor": 715,
  "stan": 716,
  "oh</w>": 717,
  "hard</w>": 718,
  "bloo": 719,
  "ner</w>": 720,
  "her": 721,
  "ken</w>": 722,
  "help</w>": 723,
  "stood</w>": 724,
  "nee": 725,
  "found</w>": 726,
  "ger</w>": 727,
  "cer": 728,
  "without</w>": 729,
  "old</w>": 730,
  "bar": 731,
  "work</w>": 732,
  "mag": 733,
  "nor": 734,
  "lli": 735,
  "poin": 736,
  "give</w>": 737,
  "mouth</w>": 738,
  "tor": 739,
  "keep</w>": 740,
  "table</w>": 741,
  "ward</w>": 742,
  "him": 743,
  "ping</w>": 744,
  "same</w>": 745,
  "inter": 746,
  "ped</w>": 747,
  "shoul": 748,
  "everything</w>": 749,
  "someone</w>": 750,
  "himself</w>": 751,
  "arms</w>": 752,
  "heard</w>": 753,
  "il</w>": 754,
  "sion</w>": 755,
  "ating</w>": 756,
  "woman</w>": 757,
  "toward</w>": 758,
  "va": 759,
  "lie": 760,
  "bet": 761,
  "home</w>": 762,
  "open</w>": 763,
  "father</w>": 764,
  "gs</w>": 765,
  "dr": 766,
  "dro": 767,
  "flo": 768,
  "ack": 769,
  "trying</w>": 770,
  "swe": 771,
  "cour": 772,
  "cted</w>": 773,
  "better</w>": 774,
  "pulled</w>": 775,
  "ction</w>": 776,
  "men</w>": 777,
  "ol": 778,
  "ried</w>": 779,
  "ween</w>": 780,
  "each</w>": 781,
  "between</w>": 782,
  "ank</w>": 783,
  "mother</w>": 784,
  "arm</w>": 785,
  "dly</w>": 786,
  "bur": 787,
  "seemed</w>": 788,
  "ool</w>": 789,
  "kes</w>": 790,
  "secon": 791,
  "answ": 792,
  "sle": 793,
  "cra": 794,
  "ton": 795,
  "fl": 796,
  "smile</w>": 797,
  "yed</w>": 798,
  "ached</w>": 799,
  "coun": 800,
  "feel": 801,
  "dded</w>": 802,
  "across</w>": 803,
  "hur": 804,
  "pping</w>": 805,
  "qui": 806,
  "stand</w>": 807,
  "myself</w>": 808,
  "imp": 809,
  "three</w>": 810,
  "since</w>": 811,
  "ath</w>": 812,
  "pic": 813,
  "already</w>": 814,
  "enti": 815,
  "att": 816,
  "tou": 817,
  "ei": 818,
  "started</w>": 819,
  "small</w>": 820,
  "spo": 821,
  "reali": 822,
  "words</w>": 823,
  "gave</w>": 824,
  "almost</w>": 825,
  "laugh": 826,
  "ven</w>": 827,
  "under</w>": 828,
  "out": 829,
  "ses</w>": 830,
  "years</w>": 831,
  "dge</w>": 832,
  "set</w>": 833,
  "done</w>": 834,
  "fami": 835,
  "part</w>": 836,
  "mm": 837,
  "ering</w>": 838,
  "kay</w>": 839,
  "reme": 840,
  "heart</w>": 841,
  "ening</w>": 842,
  "used</w>": 843,
  "ob": 844,
  "pr": 845,
  "lips</w>": 846,
  "doing</w>": 847,
  "okay</w>": 848,
  "dark</w>": 849,
  "toge": 850,
  "fre": 851,
  "foll": 852,
  "hal": 853,
  "stop</w>": 854,
  "tried</w>": 855,
  "coming</w>": 856,
  "together</w>": 857,
  "gla": 858,
  "ared</w>": 859,
  "else</w>": 860,
  "walked</w>": 861,
  "ange</w>": 862,
  "lon": 863,
  "minu": 864,
  "ower</w>": 865,
  "ul": 866,
  "won": 867,
  "ary</w>": 868,
  "sts</w>": 869,
  "pan": 870,
  "up": 871,
  "ously</w>": 872,
  "world</w>": 873,
  "seen</w>": 874,
  "must</w>": 875,
  "cou": 876,
  "black</w>": 877,
  "nodded</w>": 878,
  "feet</w>": 879,
  "ins</w>": 880,
  "turn</w>": 881,
  "held</w>": 882,
  "mean</w>": 883,
  "res</w>": 884,
  "ick": 885,
  "blood</w>": 886,
  "many</w>": 887,
  "try</w>": 888,
  "est</w>": 889,
  "cl": 890,
  "girl</w>": 891,
  "diff": 892,
  "ek</w>": 893,
  "these</w>": 894,
  "tive</w>": 895,
  "off": 896,
  "gged</w>": 897,
  "ghts</w>": 898,
  "times</w>": 899,
  "sat</w>": 900,
  "rep": 901,
  "gar": 902,
  "pas": 903,
  "nu": 904,
  "supp": 905,
  "ali": 906,
  "far</w>": 907,
  "close</w>": 908,
  "lot</w>": 909,
  "call</w>": 910,
  "moved</w>": 911,
  "hear</w>": 912,
  "ey</w>": 913,
  "car</w>": 914,
  "ls</w>": 915,
  "tion": 916,
  "questi": 917,
  "hor": 918,
  "breath</w>": 919,
  "na</w>": 920,
  "ane</w>": 921,
  "yet</w>": 922,
  "dered</w>": 923,
  "says</w>": 924,
  "thers</w>": 925,
  "kind</w>": 926,
  "ssing</w>": 927,
  "fully</w>": 928,
  "ssion</w>": 929,
  "air</w>": 930,
  "leave</w>": 931,
  "ort</w>": 932,
  "cho": 933,
  "char": 934,
  "fla": 935,
  "per</w>": 936,
  "tes</w>": 937,
  "ged</w>": 938,
  "smiled</w>": 939,
  "gri": 940,
  "gone</w>": 941,
  "talk</w>": 942,
  "ders</w>": 943,
  "col": 944,
  "called</w>": 945,
  "cen": 946,
  "belie": 947,
  "sig": 948,
  "herself</w>": 949,
  "getting</w>": 950,
  "fingers</w>": 951,
  "water</w>": 952,
  "floor</w>": 953,
  "des</w>": 954,
  "bit</w>": 955,
  "ors</w>": 956,
  "ye</w>": 957,
  "clu": 958,
  "name</w>": 959,
  "needed</w>": 960,
  "began</w>": 961,
  "thin": 962,
  "whisp": 963,
  "also</w>": 964,
  "mur": 965,
  "phone</w>": 966,
  "deci": 967,
  "ming</w>": 968,
  "shing</w>": 969,
  "tain</w>": 970,
  "word</w>": 971,
  "shook</w>": 972,
  "den</w>": 973,
  "ak</w>": 974,
  "tually</w>": 975,
  "course</w>": 976,
  "yeah</w>": 977,
  "chest</w>": 978,
  "friend</w>": 979,
  "hell</w>": 980,
  "ide": 981,
  "probab": 982,
  "ture</w>": 983,
  "ask</w>": 984,
  "finally</w>": 985,
  "men": 986,
  "probably</w>": 987,
  "big</w>": 988,
  "second</w>": 989,
  "cli": 990,
  "ces</w>": 991,
  "such</w>": 992,
  "sudd": 993,
  "stru": 994,
  "ble": 995,
  "ious</w>": 996,
  "grab": 997,
  "possi": 998,
  "wr": 999,
  "deep</w>": 1000,
  "least</w>": 1001,
  "shu": 1002,
  "wind": 1003,
  "along</w>": 1004,
  "happened</w>": 1005,
  "ven": 1006,
  "ff</w>": 1007,
  "past</w>": 1008,
  "contin": 1009,
  "reached</w>": 1010,
  "dam": 1011,
  "sting</w>": 1012,
  "ten</w>": 1013,
  "ground</w>": 1014,
  "hol": 1015,
  "best</w>": 1016,
  "god</w>": 1017,
  "mine</w>": 1018,
  "aned</w>": 1019,
  "believe</w>": 1020,
  "sorry</w>": 1021,
  "ele": 1022,
  "iting</w>": 1023,
  "bra": 1024,
  "dis": 1025,
  "making</w>": 1026,
  "move</w>": 1027,
  "fle": 1028,
  "lease</w>": 1029,
  "blu": 1030,
  "continu": 1031,
  "later</w>": 1032,
  "stopped</w>": 1033,
  "half</w>": 1034,
  "dead</w>": 1035,
  "sound</w>": 1036,
  "feeling</w>": 1037,
  "ight</w>": 1038,
  "surpri": 1039,
  "ny</w>": 1040,
  "great</w>": 1041,
  "ards</w>": 1042,
  "temp": 1043,
  "soon</w>": 1044,
  "sy": 1045,
  "opened</w>": 1046,
  "white</w>": 1047,
  "ben": 1048,
  "wo</w>": 1049,
  "anyone</w>": 1050,
  "read</w>": 1051,
  "frien": 1052,
  "taking</w>": 1053,
  "days</w>": 1054,
  "ns</w>": 1055,
  "differ": 1056,
  "aring</w>": 1057,
  "ire</w>": 1058,
  "quick": 1059,
  "who": 1060,
  "fted</w>": 1061,
  "bad</w>": 1062,
  "ale</w>": 1063,
  "ining</w>": 1064,
  "everyone</w>": 1065,
  "family</w>": 1066,
  "rest</w>": 1067,
  "all": 1068,
  "top</w>": 1069,
  "act</w>": 1070,
  "ies</w>": 1071,
  "idea</w>": 1072,
  "vered</w>": 1073,
  "dire": 1074,
  "soun": 1075,
  "run": 1076,
  "wai": 1077,
  "shoulder</w>": 1078,
  "standing</w>": 1079,
  "cking</w>": 1080,
  "tty</w>": 1081,
  "foo": 1082,
  "skin</w>": 1083,
  "forward</w>": 1084,
  "glan": 1085,
  "ately</w>": 1086,
  "kept</w>": 1087,
  "tal</w>": 1088,
  "over": 1089,
  "comple": 1090,
  "ani": 1091,
  "morning</w>": 1092,
  "irs</w>": 1093,
  "care</w>": 1094,
  "aced</w>": 1095,
  "bor": 1096,
  "youn": 1097,
  "mp</w>": 1098,
  "thro": 1099,
  "tor</w>": 1100,
  "noti": 1101,
  "owly</w>": 1102,
  "quickly</w>": 1103,
  "bla": 1104,
  "cal": 1105,
  "ig": 1106,
  "use</w>": 1107,
  "stay</w>": 1108,
  "wall</w>": 1109,
  "enly</w>": 1110,
  "ran</w>": 1111,
  "boo": 1112,
  "lan": 1113,
  "alone</w>": 1114,
  "ea": 1115,
  "stri": 1116,
  "guy</w>": 1117,
  "slowly</w>": 1118,
  "closed</w>": 1119,
  "ones</w>": 1120,
  "dou": 1121,
  "wri": 1122,
  "onto</w>": 1123,
  "sla": 1124,
  "low</w>": 1125,
  "expe": 1126,
  "sk</w>": 1127,
  "having</w>": 1128,
  "uni": 1129,
  "rt</w>": 1130,
  "hold</w>": 1131,
  "beau": 1132,
  "remember</w>": 1133,
  "thinking</w>": 1134,
  "arly</w>": 1135,
  "ches</w>": 1136,
  "twi": 1137,
  "ber": 1138,
  "zz": 1139,
  "speci": 1140,
  "medi": 1141,
  "boy</w>": 1142,
  "son": 1143,
  "ond</w>": 1144,
  "ser</w>": 1145,
  "fli": 1146,
  "cal</w>": 1147,
  "please</w>": 1148,
  "list": 1149,
  "ths</w>": 1150,
  "lied</w>": 1151,
  "emp": 1152,
  "stared</w>": 1153,
  "row</w>": 1154,
  "wrong</w>": 1155,
  "cally</w>": 1156,
  "mir": 1157,
  "talking</w>": 1158,
  "neck</w>": 1159,
  "fire</w>": 1160,
  "real</w>": 1161,
  "buil": 1162,
  "ef": 1163,
  "watched</w>": 1164,
  "either</w>": 1165,
  "cro": 1166,
  "kill</w>": 1167,
  "sch": 1168,
  "ently</w>": 1169,
  "prote": 1170,
  "full</w>": 1171,
  "tic</w>": 1172,
  "hurt</w>": 1173,
  "point</w>": 1174,
  "fine</w>": 1175,
  "ties</w>": 1176,
  "minutes</w>": 1177,
  "tely</w>": 1178,
  "hat": 1179,
  "atten": 1180,
  "ghtly</w>": 1181,
  "mom</w>": 1182,
  "actually</w>": 1183,
  "run</w>": 1184,
  "high</w>": 1185,
  "ship</w>": 1186,
  "tten</w>": 1187,
  "stro": 1188,
  "outside</w>": 1189,
  "fact</w>": 1190,
  "matter</w>": 1191,
  "thre": 1192,
  "vel": 1193,
  "pain</w>": 1194,
  "resp": 1195,
  "disa": 1196,
  "pter</w>": 1197,
  "suddenly</w>": 1198,
  "cks</w>": 1199,
  "sses</w>": 1200,
  "stra": 1201,
  "lost</w>": 1202,
  "understand</w>": 1203,
  "line</w>": 1204,
  "plan": 1205,
  "wait</w>": 1206,
  "coll": 1207,
  "mr</w>": 1208,
  "vamp": 1209,
  "ging</w>": 1210,
  "ther": 1211,
  "aw": 1212,
  "cing</w>": 1213,
  "mon</w>": 1214,
  "hon": 1215,
  "pur": 1216,
  "gaze</w>": 1217,
  "cap": 1218,
  "dad</w>": 1219,
  "hand": 1220,
  "bru": 1221,
  "die</w>": 1222,
  "lie</w>": 1223,
  "waiting</w>": 1224,
  "fur": 1225,
  "ours</w>": 1226,
  "friends</w>": 1227,
  "ple</w>": 1228,
  "cat": 1229,
  "met</w>": 1230,
  "stead</w>": 1231,
  "drea": 1232,
  "ster": 1233,
  "pretty</w>": 1234,
  "caught</w>": 1235,
  "ago</w>": 1236,
  "walk</w>": 1237,
  "whole</w>": 1238,
  "ters</w>": 1239,
  "ens</w>": 1240,
  "tun": 1241,
  "your": 1242,
  "sent</w>": 1243,
  "poli": 1244,
  "instead</w>": 1245,
  "cy</w>": 1246,
  "fig": 1247,
  "answer</w>": 1248,
  "blue</w>": 1249,
  "laughed</w>": 1250,
  "five</w>": 1251,
  "nat": 1252,
  "eng": 1253,
  "wea": 1254,
  "chapter</w>": 1255,
  "may</w>": 1256,
  "ton</w>": 1257,
  "contro": 1258,
  "taken</w>": 1259,
  "different</w>": 1260,
  "what": 1261,
  "cold</w>": 1262,
  "rela": 1263,
  "others</w>": 1264,
  "stom": 1265,
  "tted</w>": 1266,
  "simp": 1267,
  "sit</w>": 1268,
  "care": 1269,
  "ia</w>": 1270,
  "lou": 1271,
  "four</w>": 1272,
  "ws</w>": 1273,
  "brother</w>": 1274,
  "zing</w>": 1275,
  "screa": 1276,
  "fast</w>": 1277,
  "eks</w>": 1278,
  "gue</w>": 1279,
  "din": 1280,
  "desp": 1281,
  "chang": 1282,
  "swi": 1283,
  "looks</w>": 1284,
  "legs</w>": 1285,
  "fini": 1286,
  "dist": 1287,
  "lor": 1288,
  "vy</w>": 1289,
  "pen": 1290,
  "ne</w>": 1291,
  "sou": 1292,
  "imag": 1293,
  "anger</w>": 1294,
  "als</w>": 1295,
  "whispered</w>": 1296,
  "perfe": 1297,
  "young</w>": 1298,
  "glanced</w>": 1299,
  "hit</w>": 1300,
  "int</w>": 1301,
  "tom": 1302,
  "strai": 1303,
  "case</w>": 1304,
  "eared</w>": 1305,
  "ner": 1306,
  "fell</w>": 1307,
  "happy</w>": 1308,
  "eping</w>": 1309,
  "whatever</w>": 1310,
  "reason</w>": 1311,
  "brought</w>": 1312,
  "shit</w>": 1313,
  "throat</w>": 1314,
  "tin": 1315,
  "possible</w>": 1316,
  "comp": 1317,
  "question</w>": 1318,
  "sense</w>": 1319,
  "window</w>": 1320,
  "start</w>": 1321,
  "death</w>": 1322,
  "pleas": 1323,
  "stepped</w>": 1324,
  "holding</w>": 1325,
  "sever": 1326,
  "ren": 1327,
  "thir": 1328,
  "exac": 1329,
  "meant</w>": 1330,
  "llow</w>": 1331,
  "consi": 1332,
  "sna": 1333,
  "enty</w>": 1334,
  "pat": 1335,
  "es": 1336,
  "school</w>": 1337,
  "kiss</w>": 1338,
  "shot</w>": 1339,
  "kne": 1340,
  "cle</w>": 1341,
  "exactly</w>": 1342,
  "inten": 1343,
  "shirt</w>": 1344,
  "sof": 1345,
  "acked</w>": 1346,
  "she": 1347,
  "chair</w>": 1348,
  "mped</w>": 1349,
  "sol": 1350,
  "quite</w>": 1351,
  "sitting</w>": 1352,
  "than": 1353,
  "leaned</w>": 1354,
  "large</w>": 1355,
  "am": 1356,
  "id": 1357,
  "story</w>": 1358,
  "damn</w>": 1359,
  "disapp": 1360,
  "watching</w>": 1361,
  "ty": 1362,
  "change</w>": 1363,
  "power</w>": 1364,
  "died</w>": 1365,
  "wra": 1366,
  "thank</w>": 1367,
  "show</w>": 1368,
  "hope</w>": 1369,
  "realized</w>": 1370,
  "ring</w>": 1371,
  "chri": 1372,
  "cru": 1373,
  "human</w>": 1374,
  "touch</w>": 1375,
  "ill</w>": 1376,
  "beauti": 1377,
  "known</w>": 1378,
  "moving</w>": 1379,
  "covered</w>": 1380,
  "sme": 1381,
  "city</w>": 1382,
  "person</w>": 1383,
  "hot</w>": 1384,
  "mbled</w>": 1385,
  "expla": 1386,
  "running</w>": 1387,
  "ear</w>": 1388,
  "dan": 1389,
  "por": 1390,
  "followed</w>": 1391,
  "vic": 1392,
  "guess</w>": 1393,
  "watch</w>": 1394,
  "ran": 1395,
  "lin": 1396,
  "tered</w>": 1397,
  "deli": 1398,
  "abo": 1399,
  "respon": 1400,
  "hours</w>": 1401,
  "sing": 1402,
  "promi": 1403,
  "fice</w>": 1404,
  "closer</w>": 1405,
  "glass</w>": 1406,
  "several</w>": 1407,
  "true</w>": 1408,
  "cir": 1409,
  "continued</w>": 1410,
  "grabbed</w>": 1411,
  "shru": 1412,
  "ker</w>": 1413,
  "tch</w>": 1414,
  "appro": 1415,
  "sleep</w>": 1416,
  "replied</w>": 1417,
  "loved</w>": 1418,
  "lity</w>": 1419,
  "whe": 1420,
  "eye</w>": 1421,
  "ght": 1422,
  "beautiful</w>": 1423,
  "comfor": 1424,
  "attention</w>": 1425,
  "town</w>": 1426,
  "squ": 1427,
  "den": 1428,
  "peri": 1429,
  "stairs</w>": 1430,
  "tment</w>": 1431,
  "rema": 1432,
  "nar": 1433,
  "pushed</w>": 1434,
  "expre": 1435,
  "eas": 1436,
  "cut</w>": 1437,
  "year</w>": 1438,
  "fer": 1439,
  "ari": 1440,
  "step</w>": 1441,
  "nice</w>": 1442,
  "longer</w>": 1443,
  "usu": 1444,
  "late</w>": 1445,
  "cept</w>": 1446,
  "beside</w>": 1447,
  "ttered</w>": 1448,
  "sub": 1449,
  "ghter</w>": 1450,
  "saying</w>": 1451,
  "swa": 1452,
  "lle</w>": 1453,
  "chen</w>": 1454,
  "chance</w>": 1455,
  "shoulders</w>": 1456,
  "given</w>": 1457,
  "tonight</w>": 1458,
  "sear": 1459,
  "baby</w>": 1460,
  "thou": 1461,
  "da</w>": 1462,
  "live</w>": 1463,
  "scre": 1464,
  "living</w>": 1465,
  "lear": 1466,
  "lun": 1467,
  "seat</w>": 1468,
  "sy</w>": 1469,
  "kit": 1470,
  "um</w>": 1471,
  "sigh": 1472,
  "ie</w>": 1473,
  "ghten": 1474,
  "els</w>": 1475,
  "haps</w>": 1476,
  "gun</w>": 1477,
  "kno": 1478,
  "perhaps</w>": 1479,
  "cri": 1480,
  "today</w>": 1481,
  "dering</w>": 1482,
  "back": 1483,
  "proble": 1484,
  "oc": 1485,
  "turning</w>": 1486,
  "money</w>": 1487,
  "ed": 1488,
  "chil": 1489,
  "shar": 1490,
  "pie": 1491,
  "fear</w>": 1492,
  "land</w>": 1493,
  "book</w>": 1494,
  "tears</w>": 1495,
  "job</w>": 1496,
  "control</w>": 1497,
  "jack</w>": 1498,
  "jer": 1499,
  "ments</w>": 1500,
  "pal": 1501,
  "dropped</w>": 1502,
  "teen</w>": 1503,
  "bb": 1504,
  "tt</w>": 1505,
  "doub": 1506,
  "sation</w>": 1507,
  "ddle</w>": 1508,
  "dent</w>": 1509,
  "leaving</w>": 1510,
  "ley</w>": 1511,
  "filled</w>": 1512,
  "couple</w>": 1513,
  "shut</w>": 1514,
  "free</w>": 1515,
  "vin": 1516,
  "rose</w>": 1517,
  "clear</w>": 1518,
  "ured</w>": 1519,
  "fight</w>": 1520,
  "office</w>": 1521,
  "vely</w>": 1522,
  "kitchen</w>": 1523,
  "sun": 1524,
  "near</w>": 1525,
  "women</w>": 1526,
  "above</w>": 1527,
  "short</w>": 1528,
  "how": 1529,
  "gro": 1530,
  "meet</w>": 1531,
  "sister</w>": 1532,
  "vie": 1533,
  "sar": 1534,
  "lar</w>": 1535,
  "busin": 1536,
  "uring</w>": 1537,
  "decided</w>": 1538,
  "curi": 1539,
  "vel</w>": 1540,
  "soft</w>": 1541,
  "sides</w>": 1542,
  "lt</w>": 1543,
  "parents</w>": 1544,
  "gotten</w>": 1545,
  "lay</w>": 1546,
  "memor": 1547,
  "alex": 1548,
  "acti": 1549,
  "zy</w>": 1550,
  "can": 1551,
  "passed</w>": 1552,
  "oned</w>": 1553,
  "sky</w>": 1554,
  "form</w>": 1555,
  "ates</w>": 1556,
  "raised</w>": 1557,
  "eth</w>": 1558,
  "obvi": 1559,
  "conver": 1560,
  "posi": 1561,
  "secre": 1562,
  "anyway</w>": 1563,
  "spoke</w>": 1564,
  "killed</w>": 1565,
  "arri": 1566,
  "seeing</w>": 1567,
  "gy</w>": 1568,
  "working</w>": 1569,
  "shad": 1570,
  "lifted</w>": 1571,
  "tched</w>": 1572,
  "bring</w>": 1573,
  "gry</w>": 1574,
  "fied</w>": 1575,
  "ult</w>": 1576,
  "completely</w>": 1577,
  "sort</w>": 1578,
  "pow": 1579,
  "street</w>": 1580,
  "aged</w>": 1581,
  "flu": 1582,
  "spi": 1583,
  "thu": 1584,
  "silence</w>": 1585,
  "dress</w>": 1586,
  "safe</w>": 1587,
  "drew</w>": 1588,
  "road</w>": 1589,
  "stomach</w>": 1590,
  "gan</w>": 1591,
  "cei": 1592,
  "truth</w>": 1593,
  "ort": 1594,
  "twenty</w>": 1595,
  "giving</w>": 1596,
  "suppo": 1597,
  "steps</w>": 1598,
  "trac": 1599,
  "lla</w>": 1600,
  "walking</w>": 1601,
  "warm</w>": 1602,
  "tran": 1603,
  "wol": 1604,
  "rather</w>": 1605,
  "corner</w>": 1606,
  "child</w>": 1607,
  "staring</w>": 1608,
  "strong</w>": 1609,
  "guys</w>": 1610,
  "dark": 1611,
  "cent</w>": 1612,
  "business</w>": 1613,
  "pull</w>": 1614,
  "visi": 1615,
  "thes</w>": 1616,
  "ror</w>": 1617,
  "ctor</w>": 1618,
  "tro": 1619,
  "bene": 1620,
  "fall</w>": 1621,
  "reco": 1622,
  "sque": 1623,
  "infor": 1624,
  "straight</w>": 1625,
  "phi": 1626,
  "green</w>": 1627,
  "shes</w>": 1628,
  "immedi": 1629,
  "ass</w>": 1630,
  "raid</w>": 1631,
  "stone</w>": 1632,
  "van": 1633,
  "band</w>": 1634,
  "fun": 1635,
  "edge</w>": 1636,
  "within</w>": 1637,
  "pressed</w>": 1638,
  "ici": 1639,
  "tain": 1640,
  "iled</w>": 1641,
  "bir": 1642,
  "liev": 1643,
  "speak</w>": 1644,
  "building</w>": 1645,
  "picked</w>": 1646,
  "inning</w>": 1647,
  "happen</w>": 1648,
  "changed</w>": 1649,
  "draw": 1650,
  "tan": 1651,
  "expression</w>": 1652,
  "terri": 1653,
  "prin": 1654,
  "ignor": 1655,
  "teeth</w>": 1656,
  "ingly</w>": 1657,
  "noticed</w>": 1658,
  "nearly</w>": 1659,
  "ctly</w>": 1660,
  "ffe": 1661,
  "is": 1662,
  "finger</w>": 1663,
  "waited</w>": 1664,
  "food</w>": 1665,
  "crow": 1666,
  "dding</w>": 1667,
  "aning</w>": 1668,
  "are": 1669,
  "rememb": 1670,
  "dies</w>": 1671,
  "rolled</w>": 1672,
  "sighed</w>": 1673,
  "yourself</w>": 1674,
  "knowing</w>": 1675,
  "miss</w>": 1676,
  "girls</w>": 1677,
  "cket</w>": 1678,
  "gon</w>": 1679,
  "afraid</w>": 1680,
  "ina</w>": 1681,
  "upon</w>": 1682,
  "tation</w>": 1683,
  "makes</w>": 1684,
  "quiet</w>": 1685,
  "supposed</w>": 1686,
  "wide</w>": 1687,
  "entire</w>": 1688,
  "ller</w>": 1689,
  "hour</w>": 1690,
  "disc": 1691,
  "thoughts</w>": 1692,
  "towards</w>": 1693,
  "break</w>": 1694,
  "clothes</w>": 1695,
  "concer": 1696,
  "agre": 1697,
  "easi": 1698,
  "enjo": 1699,
  "nei": 1700,
  "grou": 1701,
  "trou": 1702,
  "ma</w>": 1703,
  "woo": 1704,
  "grand": 1705,
  "pain": 1706,
  "deal</w>": 1707,
  "returned</w>": 1708,
  "bly</w>": 1709,
  "sun</w>": 1710,
  "seem</w>": 1711,
  "six</w>": 1712,
  "cep": 1713,
  "gging</w>": 1714,
  "easy</w>": 1715,
  "eld</w>": 1716,
  "dee": 1717,
  "week</w>": 1718,
  "sty</w>": 1719,
  "worked</w>": 1720,
  "ise</w>": 1721,
  "cess</w>": 1722,
  "crea": 1723,
  "joh": 1724,
  "kissed</w>": 1725,
  "sal": 1726,
  "opp": 1727,
  "ils</w>": 1728,
  "childre": 1729,
  "worry</w>": 1730,
  "perfect</w>": 1731,
  "eye": 1732,
  "bag</w>": 1733,
  "mal</w>": 1734,
  "telling</w>": 1735,
  "beneath</w>": 1736,
  "xed</w>": 1737,
  "trust</w>": 1738,
  "minute</w>": 1739,
  "ats</w>": 1740,
  "thanks</w>": 1741,
  "vampire</w>": 1742,
  "import": 1743,
  "become</w>": 1744,
  "sam</w>": 1745,
  "mb</w>": 1746,
  "bed": 1747,
  "coffe": 1748,
  "shrugged</w>": 1749,
  "sight</w>": 1750,
  "blo": 1751,
  "thi": 1752,
  "tight</w>": 1753,
  "ate": 1754,
  "barely</w>": 1755,
  "ung</w>": 1756,
  "wife</w>": 1757,
  "ef</w>": 1758,
  "placed</w>": 1759,
  "bs</w>": 1760,
  "children</w>": 1761,
  "mation</w>": 1762,
  "answered</w>": 1763,
  "colle": 1764,
  "foot</w>": 1765,
  "ounded</w>": 1766,
  "blin": 1767,
  "lord</w>": 1768,
  "sometimes</w>": 1769,
  "hey</w>": 1770,
  "gge": 1771,
  "emo": 1772,
  "tongue</w>": 1773,
  "surprised</w>": 1774,
  "wondered</w>": 1775,
  "empty</w>": 1776,
  "yer</w>": 1777,
  "fol": 1778,
  "laugh</w>": 1779,
  "play</w>": 1780,
  "cky</w>": 1781,
  "figure</w>": 1782,
  "cting</w>": 1783,
  "fore": 1784,
  "owned</w>": 1785,
  "immediately</w>": 1786,
  "thy</w>": 1787,
  "coo": 1788,
  "during</w>": 1789,
  "desk</w>": 1790,
  "fra": 1791,
  "knows</w>": 1792,
  "ank": 1793,
  "pointed</w>": 1794,
  "slid</w>": 1795,
  "ste</w>": 1796,
  "coffee</w>": 1797,
  "dred</w>": 1798,
  "emb": 1799,
  "sm": 1800,
  "pid</w>": 1801,
  "ets</w>": 1802,
  "ator</w>": 1803,
  "rely</w>": 1804,
  "problem</w>": 1805,
  "quie": 1806,
  "inging</w>": 1807,
  "bal": 1808,
  "scen": 1809,
  "certain</w>": 1810,
  "mmed</w>": 1811,
  "ghtened</w>": 1812,
  "plan</w>": 1813,
  "dau": 1814,
  "yn</w>": 1815,
  "action</w>": 1816,
  "middle</w>": 1817,
  "tar": 1818,
  "selves</w>": 1819,
  "ball</w>": 1820,
  "eli": 1821,
  "heavy</w>": 1822,
  "san": 1823,
  "appeared</w>": 1824,
  "hall</w>": 1825,
  "aching</w>": 1826,
  "gener": 1827,
  "eting</w>": 1828,
  "comm": 1829,
  "moun": 1830,
  "inst": 1831,
  "after": 1832,
  "although</w>": 1833,
  "atu": 1834,
  "la</w>": 1835,
  "finished</w>": 1836,
  "months</w>": 1837,
  "sett": 1838,
  "wearing</w>": 1839,
  "smo": 1840,
  "chu": 1841,
  "kni": 1842,
  "drink</w>": 1843,
  "lady</w>": 1844,
  "quick</w>": 1845,
  "val": 1846,
  "nose</w>": 1847,
  "ased</w>": 1848,
  "pulling</w>": 1849,
  "bott": 1850,
  "however</w>": 1851,
  "fused</w>": 1852,
  "headed</w>": 1853,
  "ian</w>": 1854,
  "anymore</w>": 1855,
  "partment</w>": 1856,
  "intere": 1857,
  "gni": 1858,
  "simply</w>": 1859,
  "thed</w>": 1860,
  "liked</w>": 1861,
  "bar</w>": 1862,
  "order</w>": 1863,
  "key</w>": 1864,
  "gray</w>": 1865,
  "number</w>": 1866,
  "sounded</w>": 1867,
  "wish</w>": 1868,
  "ann": 1869,
  "tte</w>": 1870,
  "famili": 1871,
  "bre": 1872,
  "hers</w>": 1873,
  "stly</w>": 1874,
  "inned</w>": 1875,
  "esca": 1876,
  "view</w>": 1877,
  "gently</w>": 1878,
  "conversation</w>": 1879,
  "hundred</w>": 1880,
  "indi": 1881,
  "ler</w>": 1882,
  "slightly</w>": 1883,
  "sir</w>": 1884,
  "except</w>": 1885,
  "--</w>": 1886,
  "comes</w>": 1887,
  "knees</w>": 1888,
  "ctive</w>": 1889,
  "became</w>": 1890,
  "tiny</w>": 1891,
  "eri": 1892,
  "touched</w>": 1893,
  "important</w>": 1894,
  "space</w>": 1895,
  "return</w>": 1896,
  "plo": 1897,
  "alive</w>": 1898,
  "cheek</w>": 1899,
  "vor": 1900,
  "presen": 1901,
  "lying</w>": 1902,
  "sweet</w>": 1903,
  "ges</w>": 1904,
  "fif": 1905,
  "softly</w>": 1906,
  "plac": 1907,
  "experi": 1908,
  "spar": 1909,
  "ky</w>": 1910,
  "tone</w>": 1911,
  "ta</w>": 1912,
  "strange</w>": 1913,
  "spent</w>": 1914,
  "musc": 1915,
  "thick</w>": 1916,
  "wind</w>": 1917,
  "wake</w>": 1918,
  "direction</w>": 1919,
  "sounds</w>": 1920,
  "sex</w>": 1921,
  "abi": 1922,
  "hesi": 1923,
  "none</w>": 1924,
  "recogni": 1925,
  "broken</w>": 1926,
  "sped</w>": 1927,
  "butt": 1928,
  "added</w>": 1929,
  "group</w>": 1930,
  "ahead</w>": 1931,
  "mmer</w>": 1932,
  "tomor": 1933,
  "pho": 1934,
  "ears</w>": 1935,
  "ry": 1936,
  "doors</w>": 1937,
  "parti": 1938,
  "lights</w>": 1939,
  "surprise</w>": 1940,
  "sign</w>": 1941,
  "somehow</w>": 1942,
  "weeks</w>": 1943,
  "specially</w>": 1944,
  "batt": 1945,
  "hen": 1946,
  "stupid</w>": 1947,
  "wrapped</w>": 1948,
  "wants</w>": 1949,
  "aling</w>": 1950,
  "tomorrow</w>": 1951,
  "rs</w>": 1952,
  "reach</w>": 1953,
  "dinner</w>": 1954,
  "ery</w>": 1955,
  "worse</w>": 1956,
  "crazy</w>": 1957,
  "earth</w>": 1958,
  "male</w>": 1959,
  "quietly</w>": 1960,
  "conne": 1961,
  "ney</w>": 1962,
  "somewhere</w>": 1963,
  "piece</w>": 1964,
  "vol": 1965,
  "dang": 1966,
  "deser": 1967,
  "kids</w>": 1968,
  "slow</w>": 1969,
  "certain": 1970,
  "cus</w>": 1971,
  "mel": 1972,
  "stuff</w>": 1973,
  "person": 1974,
  "tional</w>": 1975,
  "stic</w>": 1976,
  "daughter</w>": 1977,
  "sage</w>": 1978,
  "especially</w>": 1979,
  "seconds</w>": 1980,
  "box</w>": 1981,
  "guard</w>": 1982,
  "trouble</w>": 1983,
  "locked</w>": 1984,
  "broke</w>": 1985,
  "drive</w>": 1986,
  "ddy</w>": 1987,
  "single</w>": 1988,
  "hy": 1989,
  "wel": 1990,
  "cab": 1991,
  "remin": 1992,
  "darkness</w>": 1993,
  "lit</w>": 1994,
  "ject</w>": 1995,
  "rup": 1996,
  "ssa</w>": 1997,
  "mage</w>": 1998,
  "eat</w>": 1999,
  "clai": 2000,
  "llen</w>": 2001,
  "bey": 2002,
  "bedroom</w>": 2003,
  "remembered</w>": 2004,
  "squee": 2005,
  "nor</w>": 2006,
  "spea": 2007,
  "force</w>": 2008,
  "area</w>": 2009,
  "wore</w>": 2010,
  "weap": 2011,
  "luc": 2012,
  "beyond</w>": 2013,
  "practi": 2014,
  "mans</w>": 2015,
  "pul": 2016,
  "lip</w>": 2017,
  "ky": 2018,
  "beat</w>": 2019,
  "silent</w>": 2020,
  "don</w>": 2021,
  "managed</w>": 2022,
  "worried</w>": 2023,
  "cation</w>": 2024,
  "wonder</w>": 2025,
  "paper</w>": 2026,
  "exi": 2027,
  "questions</w>": 2028,
  "cover</w>": 2029,
  "threw</w>": 2030,
  "trees</w>": 2031,
  "paused</w>": 2032,
  "bea": 2033,
  "ion</w>": 2034,
  "believ": 2035,
  "walls</w>": 2036,
  "situ": 2037,
  "mrs</w>": 2038,
  "check</w>": 2039,
  "means</w>": 2040,
  "tired</w>": 2041,
  "sive</w>": 2042,
  "cts</w>": 2043,
  "using</w>": 2044,
  "ski": 2045,
  "bbed</w>": 2046,
  "aled</w>": 2047,
  "own": 2048,
  "ended</w>": 2049,
  "iously</w>": 2050,
  "dru": 2051,
  "seems</w>": 2052,
  "information</w>": 2053,
  "dressed</w>": 2054,
  "heat</w>": 2055,
  "follow</w>": 2056,
  "unk</w>": 2057,
  "ital</w>": 2058,
  "bright</w>": 2059,
  "sugge": 2060,
  "expected</w>": 2061,
  "juli": 2062,
  "huge</w>": 2063,
  "game</w>": 2064,
  "mbling</w>": 2065,
  "ghting</w>": 2066,
  "dom</w>": 2067,
  "defin": 2068,
  "kin": 2069,
  "tree</w>": 2070,
  "distance</w>": 2071,
  "oud</w>": 2072,
  "promise</w>": 2073,
  "shor": 2074,
  "shaking</w>": 2075,
  "angry</w>": 2076,
  "doubt</w>": 2077,
  "clar": 2078,
  "ical</w>": 2079,
  "jen": 2080,
  "bli": 2081,
  "meeting</w>": 2082,
  "unt</w>": 2083,
  "jack": 2084,
  "tally</w>": 2085,
  "grow": 2086,
  "ama": 2087,
  "cool</w>": 2088,
  "mate</w>": 2089,
  "brown</w>": 2090,
  "tle</w>": 2091,
  "thor": 2092,
  "vice</w>": 2093,
  "goo": 2094,
  "hall": 2095,
  "state</w>": 2096,
  "early</w>": 2097,
  "catch</w>": 2098,
  "cess": 2099,
  "sic</w>": 2100,
  "police</w>": 2101,
  "od": 2102,
  "os</w>": 2103,
  "lier</w>": 2104,
  "party</w>": 2105,
  "gor": 2106,
  "plu": 2107,
  "crowd</w>": 2108,
  "board</w>": 2109,
  "smiling</w>": 2110,
  "forced</w>": 2111,
  "listen</w>": 2112,
  "exci": 2113,
  "wood</w>": 2114,
  "less": 2115,
  "loud</w>": 2116,
  "wolf</w>": 2117,
  "mes": 2118,
  "fan": 2119,
  "pick</w>": 2120,
  "def": 2121,
  "smell</w>": 2122,
  "magic</w>": 2123,
  "serious</w>": 2124,
  "thered</w>": 2125,
  "mac": 2126,
  "scent</w>": 2127,
  "grin</w>": 2128,
  "scri": 2129,
  "glad</w>": 2130,
  "hus": 2131,
  "news</w>": 2132,
  "ana</w>": 2133,
  "door": 2134,
  "forget</w>": 2135,
  "keeping</w>": 2136,
  "thous": 2137,
  "sword</w>": 2138,
  "murmur": 2139,
  "pocket</w>": 2140,
  "solu": 2141,
  "clearly</w>": 2142,
  "shoo": 2143,
  "surr": 2144,
  "nerv": 2145,
  "repe": 2146,
  "agreed</w>": 2147,
  "pack</w>": 2148,
  "strugg": 2149,
  "snapped</w>": 2150,
  "desper": 2151,
  "ng": 2152,
  "boys</w>": 2153,
  "apo": 2154,
  "ena</w>": 2155,
  "save</w>": 2156,
  "site</w>": 2157,
  "chin</w>": 2158,
  "playing</w>": 2159,
  "often</w>": 2160,
  "desi": 2161,
  "acks</w>": 2162,
  "sco": 2163,
  "war</w>": 2164,
  "nick</w>": 2165,
  "comfortable</w>": 2166,
  "vering</w>": 2167,
  "jas": 2168,
  "tall</w>": 2169,
  "survi": 2170,
  "ra</w>": 2171,
  "tab": 2172,
  "choice</w>": 2173,
  "ai": 2174,
  "thin</w>": 2175,
  "assu": 2176,
  "bath": 2177,
  "whether</w>": 2178,
  "below</w>": 2179,
  "tel</w>": 2180,
  "sist": 2181,
  "rock</w>": 2182,
  "position</w>": 2183,
  "gli": 2184,
  "anim": 2185,
  "hung</w>": 2186,
  "takes</w>": 2187,
  "beth</w>": 2188,
  "mly</w>": 2189,
  "know": 2190,
  "fru": 2191,
  "pay</w>": 2192,
  "val</w>": 2193,
  "hau": 2194,
  "pes</w>": 2195,
  "pleasure</w>": 2196,
  "streng": 2197,
  "vid</w>": 2198,
  "attemp": 2199,
  "earlier</w>": 2200,
  "sex": 2201,
  "calm</w>": 2202,
  "stea": 2203,
  "alex</w>": 2204,
  "mark</w>": 2205,
  "ysi": 2206,
  "appar": 2207,
  "asking</w>": 2208,
  "date</w>": 2209,
  "dream</w>": 2210,
  "down": 2211,
  "fun</w>": 2212,
  "lik": 2213,
  "low": 2214,
  "noon</w>": 2215,
  "certainly</w>": 2216,
  "gun": 2217,
  "spect</w>": 2218,
  "lived</w>": 2219,
  "vers</w>": 2220,
  "crossed</w>": 2221,
  "slipped</w>": 2222,
  "grinned</w>": 2223,
  "obviously</w>": 2224,
  "dness</w>": 2225,
  "eve</w>": 2226,
  "hate</w>": 2227,
  "tis": 2228,
  "spir": 2229,
  "ssive</w>": 2230,
  "tie</w>": 2231,
  "letting</w>": 2232,
  "evening</w>": 2233,
  "bottom</w>": 2234,
  "dog</w>": 2235,
  "gets</w>": 2236,
  "further</w>": 2237,
  "dden</w>": 2238,
  "john</w>": 2239,
  "brow</w>": 2240,
  "anti": 2241,
  "kid</w>": 2242,
  "handed</w>": 2243,
  "situation</w>": 2244,
  "bit": 2245,
  "normal</w>": 2246,
  "arrived</w>": 2247,
  "natur": 2248,
  "pair</w>": 2249,
  "fit</w>": 2250,
  "mit</w>": 2251,
  "itely</w>": 2252,
  "emi": 2253,
  "zen</w>": 2254,
  "jumped</w>": 2255,
  "usual</w>": 2256,
  "ger": 2257,
  "reading</w>": 2258,
  "priv": 2259,
  "soldi": 2260,
  "deman": 2261,
  "them": 2262,
  "far": 2263,
  "familiar</w>": 2264,
  "apartment</w>": 2265,
  "ries</w>": 2266,
  "ken": 2267,
  "husband</w>": 2268,
  "pper</w>": 2269,
  "frowned</w>": 2270,
  "smoo": 2271,
  "usually</w>": 2272,
  "cul": 2273,
  "cheeks</w>": 2274,
  "kic": 2275,
  "field</w>": 2276,
  "bathroom</w>": 2277,
  "waist</w>": 2278,
  "del": 2279,
  "carefully</w>": 2280,
  "hoping</w>": 2281,
  "explain</w>": 2282,
  "sharp</w>": 2283,
  "muttered</w>": 2284,
  "sci": 2285,
  "lose</w>": 2286,
  "ly": 2287,
  "clean</w>": 2288,
  "climb": 2289,
  "showed</w>": 2290,
  "dom": 2291,
  "realize</w>": 2292,
  "born</w>": 2293,
  "ener": 2294,
  "path</w>": 2295,
  "mista": 2296,
  "hoped</w>": 2297,
  "strea": 2298,
  "ill": 2299,
  "breathing</w>": 2300,
  "emer": 2301,
  "spot</w>": 2302,
  "pun": 2303,
  "glance</w>": 2304,
  "wet</w>": 2305,
  "center</w>": 2306,
  "jake</w>": 2307,
  "avo": 2308,
  "themselves</w>": 2309,
  "grew</w>": 2310,
  "imagine</w>": 2311,
  "ue</w>": 2312,
  "fortun": 2313,
  "picture</w>": 2314,
  "ban": 2315,
  "definitely</w>": 2316,
  "ctions</w>": 2317,
  "secret</w>": 2318,
  "company</w>": 2319,
  "explo": 2320,
  "test</w>": 2321,
  "laughing</w>": 2322,
  "cell</w>": 2323,
  "rying</w>": 2324,
  "scra": 2325,
  "chan": 2326,
  "lish</w>": 2327,
  "mma</w>": 2328,
  "sely</w>": 2329,
  "fuck</w>": 2330,
  "turns</w>": 2331,
  "bun": 2332,
  "despite</w>": 2333,
  "suc": 2334,
  "leg</w>": 2335,
  "hide</w>": 2336,
  "strength</w>": 2337,
  "soul</w>": 2338,
  "lives</w>": 2339,
  "likely</w>": 2340,
  "inde": 2341,
  "ere": 2342,
  "ja</w>": 2343,
  "dr</w>": 2344,
  "james</w>": 2345,
  "llowed</w>": 2346,
  "prepar": 2347,
  "ature</w>": 2348,
  "offered</w>": 2349,
  "scared</w>": 2350,
  "sick</w>": 2351,
  "soci": 2352,
  "queen</w>": 2353,
  "attack</w>": 2354,
  "talked</w>": 2355,
  "mbers</w>": 2356,
  "fair</w>": 2357,
  "anna</w>": 2358,
  "future</w>": 2359,
  "lets</w>": 2360,
  "vampi": 2361,
  "besides</w>": 2362,
  "entered</w>": 2363,
  "jaw</w>": 2364,
  "ap": 2365,
  "weight</w>": 2366,
  "elev": 2367,
  "stian</w>": 2368,
  "chuck": 2369,
  "knowle": 2370,
  "ben</w>": 2371,
  "knife</w>": 2372,
  "doctor</w>": 2373,
  "nie</w>": 2374,
  "near": 2375,
  "ages</w>": 2376,
  "pass</w>": 2377,
  "easily</w>": 2378,
  "bow</w>": 2379,
  "drop</w>": 2380,
  "fighting</w>": 2381,
  "round</w>": 2382,
  "cry</w>": 2383,
  "termin": 2384,
  "handle</w>": 2385,
  "shouted</w>": 2386,
  "asks</w>": 2387,
  "rage</w>": 2388,
  "counter</w>": 2389,
  "helped</w>": 2390,
  "stare</w>": 2391,
  "memory</w>": 2392,
  "stayed</w>": 2393,
  "suit</w>": 2394,
  "thirty</w>": 2395,
  "ren</w>": 2396,
  "send</w>": 2397,
  "grace</w>": 2398,
  "pra": 2399,
  "allowed</w>": 2400,
  "dying</w>": 2401,
  "aware</w>": 2402,
  "remained</w>": 2403,
  "atures</w>": 2404,
  "forever</w>": 2405,
  "ffed</w>": 2406,
  "metal</w>": 2407,
  "tary</w>": 2408,
  "mid": 2409,
  "llie</w>": 2410,
  "ory</w>": 2411,
  "gold</w>": 2412,
  "ounds</w>": 2413,
  "even": 2414,
  "itself</w>": 2415,
  "mal": 2416,
  "aside</w>": 2417,
  "danger": 2418,
  "ada": 2419,
  "power": 2420,
  "invol": 2421,
  "wo": 2422,
  "forehead</w>": 2423,
  "cs</w>": 2424,
  "music</w>": 2425,
  "dry</w>": 2426,
  "ethan</w>": 2427,
  "beginning</w>": 2428,
  "neither</w>": 2429,
  "silver</w>": 2430,
  "cker</w>": 2431,
  "hosp": 2432,
  "needs</w>": 2433,
  "search</w>": 2434,
  "ya</w>": 2435,
  "worth</w>": 2436,
  "sea</w>": 2437,
  "truck</w>": 2438,
  "mer</w>": 2439,
  "hesit": 2440,
  "exa": 2441,
  "convin": 2442,
  "physi": 2443,
  "simple</w>": 2444,
  "preten": 2445,
  "brain</w>": 2446,
  "vampires</w>": 2447,
  "cried</w>": 2448,
  "micha": 2449,
  "relie": 2450,
  "pati": 2451,
  "missed</w>": 2452,
  "ired</w>": 2453,
  "effor": 2454,
  "gn": 2455,
  "ices</w>": 2456,
  "brows</w>": 2457,
  "sse": 2458,
  "bing</w>": 2459,
  "fting</w>": 2460,
  "sons</w>": 2461,
  "shall</w>": 2462,
  "disp": 2463,
  "ored</w>": 2464,
  "sity</w>": 2465,
  "kets</w>": 2466,
  "bull": 2467,
  "new": 2468,
  "married</w>": 2469,
  "diffic": 2470,
  "wil": 2471,
  "stantly</w>": 2472,
  "suff": 2473,
  "spread</w>": 2474,
  "falling</w>": 2475,
  "destro": 2476,
  "apart</w>": 2477,
  "ply</w>": 2478,
  "captain</w>": 2479,
  "impre": 2480,
  "shake</w>": 2481,
  "art</w>": 2482,
  "protect</w>": 2483,
  "class</w>": 2484,
  "pale</w>": 2485,
  "head": 2486,
  "foot": 2487,
  "relation": 2488,
  "energy</w>": 2489,
  "older</w>": 2490,
  "rele": 2491,
  "ounding</w>": 2492,
  "reci": 2493,
  "don": 2494,
  "settled</w>": 2495,
  "cused</w>": 2496,
  "oin": 2497,
  "dance</w>": 2498,
  "notice</w>": 2499,
  "vir": 2500,
  "master</w>": 2501,
  "guil": 2502,
  "wear</w>": 2503,
  "pants</w>": 2504,
  "sigh</w>": 2505,
  "jeans</w>": 2506,
  "afternoon</w>": 2507,
  "amu": 2508,
  "tail</w>": 2509,
  "flesh</w>": 2510,
  "resi": 2511,
  "high": 2512,
  "gui": 2513,
  "van</w>": 2514,
  "llo</w>": 2515,
  "calling</w>": 2516,
  "wise</w>": 2517,
  "team</w>": 2518,
  "mble</w>": 2519,
  "explained</w>": 2520,
  "vor</w>": 2521,
  "cin": 2522,
  "seven</w>": 2523,
  "cated</w>": 2524,
  "bbing</w>": 2525,
  "reve": 2526,
  "push</w>": 2527,
  "ot</w>": 2528,
  "following</w>": 2529,
  "mission</w>": 2530,
  "za": 2531,
  "fer</w>": 2532,
  "abri": 2533,
  "drin": 2534,
  "max</w>": 2535,
  "screen</w>": 2536,
  "hated</w>": 2537,
  "wanting</w>": 2538,
  "night": 2539,
  "gue": 2540,
  "une": 2541,
  "shock</w>": 2542,
  "chur": 2543,
  "dor": 2544,
  "main</w>": 2545,
  "moments</w>": 2546,
  "putting</w>": 2547,
  "eight</w>": 2548,
  "learned</w>": 2549,
  "understood</w>": 2550,
  "lock</w>": 2551,
  "david</w>": 2552,
  "couch</w>": 2553,
  "hood</w>": 2554,
  "apparently</w>": 2555,
  "mary</w>": 2556,
  "confi": 2557,
  "gate</w>": 2558,
  "hospital</w>": 2559,
  "particu": 2560,
  "camer": 2561,
  "publi": 2562,
  "goes</w>": 2563,
  "opening</w>": 2564,
  "zi": 2565,
  "relief</w>": 2566,
  "arra": 2567,
  "hanging</w>": 2568,
  "discu": 2569,
  "drove</w>": 2570,
  "move": 2571,
  "hoo": 2572,
  "pau": 2573,
  "securi": 2574,
  "un</w>": 2575,
  "radi": 2576,
  "hunter</w>": 2577,
  "vision</w>": 2578,
  "cole</w>": 2579,
  "wondering</w>": 2580,
  "gest": 2581,
  "ride</w>": 2582,
  "wn</w>": 2583,
  "tures</w>": 2584,
  "gger</w>": 2585,
  "dani": 2586,
  "rowed</w>": 2587,
  "rain</w>": 2588,
  "stuck</w>": 2589,
  "lies</w>": 2590,
  "dangerous</w>": 2591,
  "noise</w>": 2592,
  "willing</w>": 2593,
  "kar": 2594,
  "horse</w>": 2595,
  "vin</w>": 2596,
  "figured</w>": 2597,
  "starting</w>": 2598,
  "third</w>": 2599,
  "battle</w>": 2600,
  "lted</w>": 2601,
  "carried</w>": 2602,
  "lead</w>": 2603,
  "ze": 2604,
  "busy</w>": 2605,
  "sudden</w>": 2606,
  "michael</w>": 2607,
  "guards</w>": 2608,
  "jason</w>": 2609,
  "cup</w>": 2610,
  "clen": 2611,
  "special</w>": 2612,
  "inclu": 2613,
  "escape</w>": 2614,
  "hole</w>": 2615,
  "screamed</w>": 2616,
  "bottle</w>": 2617,
  "hips</w>": 2618,
  "disappeared</w>": 2619,
  "break": 2620,
  "ka</w>": 2621,
  "tively</w>": 2622,
  "oms</w>": 2623,
  "mike</w>": 2624,
  "lower</w>": 2625,
  "store</w>": 2626,
  "ough": 2627,
  "ine": 2628,
  "absolu": 2629,
  "books</w>": 2630,
  "wed</w>": 2631,
  "shifted</w>": 2632,
  "demon</w>": 2633,
  "bodies</w>": 2634,
  "len": 2635,
  "shel": 2636,
  "security</w>": 2637,
  "anci": 2638,
  "horri": 2639,
  "listening</w>": 2640,
  "powerful</w>": 2641,
  "jac": 2642,
  "chase</w>": 2643,
  "shower</w>": 2644,
  "oli": 2645,
  "ssie</w>": 2646,
  "unless</w>": 2647,
  "cer</w>": 2648,
  "free": 2649,
  "dem": 2650,
  "wing</w>": 2651,
  "grip</w>": 2652,
  "contact</w>": 2653,
  "gol": 2654,
  "org": 2655,
  "satis": 2656,
  "missing</w>": 2657,
  "expect</w>": 2658,
  "compu": 2659,
  "happening</w>": 2660,
  "ines</w>": 2661,
  "va</w>": 2662,
  "recei": 2663,
  "weir": 2664,
  "murmured</w>": 2665,
  "pose</w>": 2666,
  "speaking</w>": 2667,
  "sn": 2668,
  "profe": 2669,
  "careful</w>": 2670,
  "susp": 2671,
  "hallway</w>": 2672,
  "mming</w>": 2673,
  "kin</w>": 2674,
  "lucky</w>": 2675,
  "learn</w>": 2676,
  "ur</w>": 2677,
  "frey": 2678,
  "bran": 2679,
  "eventually</w>": 2680,
  "summer</w>": 2681,
  "count</w>": 2682,
  "cy": 2683,
  "windows</w>": 2684,
  "effe": 2685,
  "level</w>": 2686,
  "eless</w>": 2687,
  "zane</w>": 2688,
  "tent</w>": 2689,
  "mirror</w>": 2690,
  "mping</w>": 2691,
  "truly</w>": 2692,
  "thousand</w>": 2693,
  "apolo": 2694,
  "twisted</w>": 2695,
  "freyja</w>": 2696,
  "color</w>": 2697,
  "laid</w>": 2698,
  "amer": 2699,
  "humans</w>": 2700,
  "adly</w>": 2701,
  "harder</w>": 2702,
  "gie</w>": 2703,
  "viol": 2704,
  "achel</w>": 2705,
  "acking</w>": 2706,
  "sleeping</w>": 2707,
  "scar": 2708,
  "shop</w>": 2709,
  "taste</w>": 2710,
  "desire</w>": 2711,
  "acted</w>": 2712,
  "burst</w>": 2713,
  "stle</w>": 2714,
  "river</w>": 2715,
  "ations</w>": 2716,
  "stron": 2717,
  "dear</w>": 2718,
  "bent</w>": 2719,
  "wit": 2720,
  "rachel</w>": 2721,
  "offer</w>": 2722,
  "relationship</w>": 2723,
  "yours</w>": 2724,
  "syste": 2725,
  "yelled</w>": 2726,
  "places</w>": 2727,
  "jon": 2728,
  "coat</w>": 2729,
  "peter</w>": 2730,
  "ssy</w>": 2731,
  "isl": 2732,
  "emy</w>": 2733,
  "rubbed</w>": 2734,
  "tors</w>": 2735,
  "race</w>": 2736,
  "ston</w>": 2737,
  "ater</w>": 2738,
  "dence</w>": 2739,
  "mie</w>": 2740,
  "pushing</w>": 2741,
  "considered</w>": 2742,
  "ony</w>": 2743,
  "guar": 2744,
  "response</w>": 2745,
  "bul": 2746,
  "air": 2747,
  "thru": 2748,
  "offic": 2749,
  "swallowed</w>": 2750,
  "fresh</w>": 2751,
  "nal</w>": 2752,
  "christ": 2753,
  "growing</w>": 2754,
  "iness</w>": 2755,
  "que</w>": 2756,
  "focus</w>": 2757,
  "ably</w>": 2758,
  "ending</w>": 2759,
  "ph</w>": 2760,
  "grab</w>": 2761,
  "yl": 2762,
  "mitted</w>": 2763,
  "quar": 2764,
  "admit</w>": 2765,
  "smar": 2766,
  "asle": 2767,
  "mad</w>": 2768,
  "smoke</w>": 2769,
  "message</w>": 2770,
  "asleep</w>": 2771,
  "trance</w>": 2772,
  "wid": 2773,
  "oppo": 2774,
  "throw</w>": 2775,
  "end": 2776,
  "isa": 2777,
  "lid</w>": 2778,
  "difficult</w>": 2779,
  "spend</w>": 2780,
  "nah</w>": 2781,
  "nod</w>": 2782,
  "burned</w>": 2783,
  "tom</w>": 2784,
  "finding</w>": 2785,
  "among</w>": 2786,
  "sa</w>": 2787,
  "poor</w>": 2788,
  "tory</w>": 2789,
  "cate</w>": 2790,
  "station</w>": 2791,
  "bby</w>": 2792,
  "snow</w>": 2793,
  "seriously</w>": 2794,
  "resu": 2795,
  "waved</w>": 2796,
  "gru": 2797,
  "funny</w>": 2798,
  "leaning</w>": 2799,
  "comman": 2800,
  "burning</w>": 2801,
  "ab</w>": 2802,
  "wave</w>": 2803,
  "via</w>": 2804,
  "blinked</w>": 2805,
  "miles</w>": 2806,
  "uncle</w>": 2807,
  "laughter</w>": 2808,
  "inch</w>": 2809,
  "distr": 2810,
  "obvious</w>": 2811,
  "tured</w>": 2812,
  "feelings</w>": 2813,
  "begin</w>": 2814,
  "hotel</w>": 2815,
  "complete</w>": 2816,
  "frea": 2817,
  "confused</w>": 2818,
  "adam</w>": 2819,
  "craw": 2820,
  "movi": 2821,
  "swee": 2822,
  "sty": 2823,
  "wild</w>": 2824,
  "sen</w>": 2825,
  "presence</w>": 2826,
  "list</w>": 2827,
  "fas": 2828,
  "nervous</w>": 2829,
  "accep": 2830,
  "americ": 2831,
  "xi": 2832,
  "bare</w>": 2833,
  "leng": 2834,
  "whisper</w>": 2835,
  "ek": 2836,
  "anywhere</w>": 2837,
  "compli": 2838,
  "share</w>": 2839,
  "appreci": 2840,
  "ability</w>": 2841,
  "natural</w>": 2842,
  "fallen</w>": 2843,
  "wine</w>": 2844,
  "thom": 2845,
  "ore</w>": 2846,
  "possibly</w>": 2847,
  "embarra": 2848,
  "fic": 2849,
  "luci": 2850,
  "geor": 2851,
  "reminded</w>": 2852,
  "private</w>": 2853,
  "stretched</w>": 2854,
  "ji": 2855,
  "heads</w>": 2856,
  "flat</w>": 2857,
  "note</w>": 2858,
  "stick</w>": 2859,
  "eu": 2860,
  "argu": 2861,
  "god": 2862,
  "directly</w>": 2863,
  "emma</w>": 2864,
  "trip</w>": 2865,
  "refle": 2866,
  "faces</w>": 2867,
  "shadows</w>": 2868,
  "ager</w>": 2869,
  "hidden</w>": 2870,
  "recor": 2871,
  "mini": 2872,
  "leather</w>": 2873,
  "excu": 2874,
  "dan</w>": 2875,
  "elec": 2876,
  "inve": 2877,
  "impossible</w>": 2878,
  "bite</w>": 2879,
  "played</w>": 2880,
  "shadow</w>": 2881,
  "assa": 2882,
  "kers</w>": 2883,
  "suppose</w>": 2884,
  "llion</w>": 2885,
  "dged</w>": 2886,
  "slu": 2887,
  "personal</w>": 2888,
  "determin": 2889,
  "visit</w>": 2890,
  "rick</w>": 2891,
  "shoes</w>": 2892,
  "lines</w>": 2893,
  "palm</w>": 2894,
  "mess</w>": 2895,
  "win</w>": 2896,
  "tual</w>": 2897,
  "acing</w>": 2898,
  "believed</w>": 2899,
  "ily</w>": 2900,
  "size</w>": 2901,
  "necess": 2902,
  "ford</w>": 2903,
  "ink": 2904,
  "posse": 2905,
  "dings</w>": 2906,
  "pers</w>": 2907,
  "surface</w>": 2908,
  "feels</w>": 2909,
  "forest</w>": 2910,
  "circle</w>": 2911,
  "sarah</w>": 2912,
  "served</w>": 2913,
  "pink</w>": 2914,
  "velop": 2915,
  "evid": 2916,
  "lap</w>": 2917,
  "club</w>": 2918,
  "shoved</w>": 2919,
  "jacket</w>": 2920,
  "pour": 2921,
  "ounced</w>": 2922,
  "join</w>": 2923,
  "bility</w>": 2924,
  "country</w>": 2925,
  "experience</w>": 2926,
  "bones</w>": 2927,
  "mili": 2928,
  "doorway</w>": 2929,
  "ok</w>": 2930,
  "claimed</w>": 2931,
  "present</w>": 2932,
  "tra</w>": 2933,
  "demanded</w>": 2934,
  "fish</w>": 2935,
  "speed</w>": 2936,
  "insi": 2937,
  "mas</w>": 2938,
  "instru": 2939,
  "ati": 2940,
  "seth</w>": 2941,
  "evil</w>": 2942,
  "lin</w>": 2943,
  "tains</w>": 2944,
  "produ": 2945,
  "knowledge</w>": 2946,
  "mor</w>": 2947,
  "uh</w>": 2948,
  "west</w>": 2949,
  "climbed</w>": 2950,
  "warri": 2951,
  "focused</w>": 2952,
  "weird</w>": 2953,
  "lia</w>": 2954,
  "corre": 2955,
  "finish</w>": 2956,
  "side": 2957,
  "moon</w>": 2958,
  "threat": 2959,
  "eding</w>": 2960,
  "crying</w>": 2961,
  "fought</w>": 2962,
  "gho": 2963,
  "ners</w>": 2964,
  "clock</w>": 2965,
  "memories</w>": 2966,
  "arti": 2967,
  "kee": 2968,
  "cat</w>": 2969,
  "mach": 2970,
  "entrance</w>": 2971,
  "part": 2972,
  "approached</w>": 2973,
  "wished</w>": 2974,
  "forth</w>": 2975,
  "driving</w>": 2976,
  "scream</w>": 2977,
  "rang</w>": 2978,
  "co</w>": 2979,
  "faster</w>": 2980,
  "hearing</w>": 2981,
  "allow</w>": 2982,
  "totally</w>": 2983,
  "breathe</w>": 2984,
  "boy": 2985,
  "reaching</w>": 2986,
  "final</w>": 2987,
  "checked</w>": 2988,
  "mps</w>": 2989,
  "promised</w>": 2990,
  "ops</w>": 2991,
  "leading</w>": 2992,
  "decision</w>": 2993,
  "tching</w>": 2994,
  "slammed</w>": 2995,
  "interrup": 2996,
  "favor": 2997,
  "boat</w>": 2998,
  "involved</w>": 2999,
  "lowered</w>": 3000,
  "rat": 3001,
  "surely</w>": 3002,
  "sophi": 3003,
  "interested</w>": 3004,
  "lunch</w>": 3005,
  "weak</w>": 3006,
  "tossed</w>": 3007,
  "bon": 3008,
  "dor</w>": 3009,
  "hardly</w>": 3010,
  "aunt</w>": 3011,
  "sion": 3012,
  "ination</w>": 3013,
  "fil": 3014,
  "centr": 3015,
  "muscles</w>": 3016,
  "fai": 3017,
  "mil": 3018,
  "beer</w>": 3019,
  "dir": 3020,
  "sne": 3021,
  "inno": 3022,
  "vill": 3023,
  "cleared</w>": 3024,
  "unable</w>": 3025,
  "sions</w>": 3026,
  "interest</w>": 3027,
  "cious</w>": 3028,
  "sni": 3029,
  "nobody</w>": 3030,
  "welcome</w>": 3031,
  "ko": 3032,
  "glasses</w>": 3033,
  "perfectly</w>": 3034,
  "storm</w>": 3035,
  "bet</w>": 3036,
  "formed</w>": 3037,
  "bear</w>": 3038,
  "struck</w>": 3039,
  "circ": 3040,
  "ement</w>": 3041,
  "computer</w>": 3042,
  "py</w>": 3043,
  "fran": 3044,
  "mostly</w>": 3045,
  "concerned</w>": 3046,
  "ceiling</w>": 3047,
  "dition</w>": 3048,
  "stage</w>": 3049,
  "danger</w>": 3050,
  "continue</w>": 3051,
  "compan": 3052,
  "dete": 3053,
  "paul</w>": 3054,
  "paid</w>": 3055,
  "regre": 3056,
  "hone": 3057,
  "occa": 3058,
  "driver</w>": 3059,
  "heading</w>": 3060,
  "ety</w>": 3061,
  "bow": 3062,
  "riage</w>": 3063,
  "image</w>": 3064,
  "mous</w>": 3065,
  "incre": 3066,
  "sand": 3067,
  "rush</w>": 3068,
  "killing</w>": 3069,
  "nur": 3070,
  "brief": 3071,
  "cross</w>": 3072,
  "ordered</w>": 3073,
  "gasped</w>": 3074,
  "kicked</w>": 3075,
  "hiding</w>": 3076,
  "law</w>": 3077,
  "nine</w>": 3078,
  "odd</w>": 3079,
  "scene</w>": 3080,
  "brothers</w>": 3081,
  "twice</w>": 3082,
  "sters</w>": 3083,
  "arr": 3084,
  "yard</w>": 3085,
  "forgotten</w>": 3086,
  "pier": 3087,
  "instantly</w>": 3088,
  "ttering</w>": 3089,
  "logan</w>": 3090,
  "yan": 3091,
  "naked</w>": 3092,
  "jour": 3093,
  "loa": 3094,
  "blade</w>": 3095,
  "ash": 3096,
  "tering</w>": 3097,
  "general</w>": 3098,
  "acci": 3099,
  "oper": 3100,
  "wound</w>": 3101,
  "army</w>": 3102,
  "brushed</w>": 3103,
  "swung</w>": 3104,
  "anno": 3105,
  "gigg": 3106,
  "consc": 3107,
  "snor": 3108,
  "advan": 3109,
  "faced</w>": 3110,
  "effort</w>": 3111,
  "non": 3112,
  "elle</w>": 3113,
  "panic</w>": 3114,
  "cast</w>": 3115,
  "squeezed</w>": 3116,
  "provi": 3117,
  "wrist</w>": 3118,
  "llen": 3119,
  "issu": 3120,
  "burn</w>": 3121,
  "separ": 3122,
  "joined</w>": 3123,
  "history</w>": 3124,
  "terrible</w>": 3125,
  "mc": 3126,
  "wonder": 3127,
  "risk</w>": 3128,
  "repor": 3129,
  "vani": 3130,
  "roll</w>": 3131,
  "ignored</w>": 3132,
  "signed</w>": 3133,
  "ache</w>": 3134,
  "system</w>": 3135,
  "woods</w>": 3136,
  "soldiers</w>": 3137,
  "breaking</w>": 3138,
  "buy</w>": 3139,
  "ale": 3140,
  "listened</w>": 3141,
  "pieces</w>": 3142,
  "sad</w>": 3143,
  "island</w>": 3144,
  "fist</w>": 3145,
  "female</w>": 3146,
  "thomas</w>": 3147,
  "ast</w>": 3148,
  "rested</w>": 3149,
  "flew</w>": 3150,
  "cher</w>": 3151,
  "simon</w>": 3152,
  "built</w>": 3153,
  "enjoy</w>": 3154,
  "neigh": 3155,
  "bert</w>": 3156,
  "park</w>": 3157,
  "var": 3158,
  "henry</w>": 3159,
  "flying</w>": 3160,
  "yellow</w>": 3161,
  "church</w>": 3162,
  "sp</w>": 3163,
  "warning</w>": 3164,
  "wards</w>": 3165,
  "boots</w>": 3166,
  "fy</w>": 3167,
  "amazing</w>": 3168,
  "skir": 3169,
  "rising</w>": 3170,
  "acy</w>": 3171,
  "breakfast</w>": 3172,
  "photo": 3173,
  "univer": 3174,
  "folded</w>": 3175,
  "affe": 3176,
  "hello</w>": 3177,
  "other": 3178,
  "bitch</w>": 3179,
  "claire</w>": 3180,
  "descri": 3181,
  "rushed</w>": 3182,
  "mul": 3183,
  "north</w>": 3184,
  "owers</w>": 3185,
  "stic": 3186,
  "cand": 3187,
  "nate</w>": 3188,
  "absolutely</w>": 3189,
  "rent</w>": 3190,
  "responsi": 3191,
  "steady</w>": 3192,
  "heal": 3193,
  "tin</w>": 3194,
  "worst</w>": 3195,
  "weapon</w>": 3196,
  "dev": 3197,
  "sis</w>": 3198,
  "circu": 3199,
  "joe</w>": 3200,
  "loose</w>": 3201,
  "bloody</w>": 3202,
  "sweat</w>": 3203,
  "em</w>": 3204,
  "hang</w>": 3205,
  "prepared</w>": 3206,
  "bag": 3207,
  "wedding</w>": 3208,
  "mention</w>": 3209,
  "fair": 3210,
  "gover": 3211,
  "tioned</w>": 3212,
  "super": 3213,
  "tightly</w>": 3214,
  "trans": 3215,
  "parking</w>": 3216,
  "opposite</w>": 3217,
  "blow</w>": 3218,
  "type</w>": 3219,
  "sour": 3220,
  "fly</w>": 3221,
  "dreams</w>": 3222,
  "lake</w>": 3223,
  "jerked</w>": 3224,
  "luke</w>": 3225,
  "tters</w>": 3226,
  "fault</w>": 3227,
  "grown</w>": 3228,
  "excuse</w>": 3229,
  "defen": 3230,
  "leaves</w>": 3231,
  "daniel</w>": 3232,
  "fucking</w>": 3233,
  "cry": 3234,
  "button</w>": 3235,
  "choo": 3236,
  "sey</w>": 3237,
  "eyed</w>": 3238,
  "wooden</w>": 3239,
  "instin": 3240,
  "beach</w>": 3241,
  "motion</w>": 3242,
  "indeed</w>": 3243,
  "disgu": 3244,
  "press</w>": 3245,
  "six": 3246,
  "curled</w>": 3247,
  "ai</w>": 3248,
  "plate</w>": 3249,
  "tails</w>": 3250,
  "kate</w>": 3251,
  "stab": 3252,
  "ron": 3253,
  "screaming</w>": 3254,
  "eating</w>": 3255,
  "psy": 3256,
  "gentle</w>": 3257,
  "grass</w>": 3258,
  "length</w>": 3259,
  "hi</w>": 3260,
  "willi": 3261,
  "kissing</w>": 3262,
  "ini": 3263,
  "sus</w>": 3264,
  "mental</w>": 3265,
  "exhau": 3266,
  "excite": 3267,
  "lation</w>": 3268,
  "tied</w>": 3269,
  "plans</w>": 3270,
  "huh</w>": 3271,
  "nature</w>": 3272,
  "sm</w>": 3273,
  "gods</w>": 3274,
  "disappoin": 3275,
  "tip</w>": 3276,
  "movement</w>": 3277,
  "ssure</w>": 3278,
  "slept</w>": 3279,
  "cil</w>": 3280,
  "identi": 3281,
  "glo": 3282,
  "studied</w>": 3283,
  "refu": 3284,
  "necessary</w>": 3285,
  "touching</w>": 3286,
  "visible</w>": 3287,
  "dun": 3288,
  "month</w>": 3289,
  "tled</w>": 3290,
  "exten": 3291,
  "fire": 3292,
  "song</w>": 3293,
  "golden</w>": 3294,
  "interesting</w>": 3295,
  "kie</w>": 3296,
  "ct": 3297,
  "emotions</w>": 3298,
  "hungry</w>": 3299,
  "gar</w>": 3300,
  "yester": 3301,
  "happens</w>": 3302,
  "upset</w>": 3303,
  "dents</w>": 3304,
  "searching</w>": 3305,
  "acting</w>": 3306,
  "creature</w>": 3307,
  "easier</w>": 3308,
  "nel</w>": 3309,
  "losing</w>": 3310,
  "travel": 3311,
  "arily</w>": 3312,
  "rise</w>": 3313,
  "reaction</w>": 3314,
  "released</w>": 3315,
  "rolling</w>": 3316,
  "maj": 3317,
  "card</w>": 3318,
  "eric</w>": 3319,
  "eled</w>": 3320,
  "slo": 3321,
  "echo": 3322,
  "confu": 3323,
  "caused</w>": 3324,
  "ands</w>": 3325,
  "concern</w>": 3326,
  "narrowed</w>": 3327,
  "attrac": 3328,
  "law": 3329,
  "finger": 3330,
  "stard</w>": 3331,
  "ac</w>": 3332,
  "deeper</w>": 3333,
  "flashed</w>": 3334,
  "safe": 3335,
  "whose</w>": 3336,
  "luck</w>": 3337,
  "mistake</w>": 3338,
  "clenched</w>": 3339,
  "bill</w>": 3340,
  "clou": 3341,
  "pool</w>": 3342,
  "tech": 3343,
  "carry</w>": 3344,
  "growled</w>": 3345,
  "public</w>": 3346,
  "black": 3347,
  "bringing</w>": 3348,
  "firm</w>": 3349,
  "menti": 3350,
  "thinks</w>": 3351,
  "smooth</w>": 3352,
  "erly</w>": 3353,
  "proper": 3354,
  "yesterday</w>": 3355,
  "shift</w>": 3356,
  "gran": 3357,
  "haw": 3358,
  "fren": 3359,
  "south</w>": 3360,
  "decide</w>": 3361,
  "fts</w>": 3362,
  "jamie</w>": 3363,
  "tea</w>": 3364,
  "strang": 3365,
  "staying</w>": 3366,
  "fortunately</w>": 3367,
  "agree</w>": 3368,
  "ryan</w>": 3369,
  "dirt</w>": 3370,
  "bone</w>": 3371,
  "repeated</w>": 3372,
  "fifteen</w>": 3373,
  "invi": 3374,
  "prince</w>": 3375,
  "hesitated</w>": 3376,
  "woke</w>": 3377,
  "angel</w>": 3378,
  "casu": 3379,
  "favorite</w>": 3380,
  "wings</w>": 3381,
  "stun": 3382,
  "spun</w>": 3383,
  "staf": 3384,
  "smiles</w>": 3385,
  "yal</w>": 3386,
  "court</w>": 3387,
  "posed</w>": 3388,
  "tightened</w>": 3389,
  "planned</w>": 3390,
  "shape</w>": 3391,
  "shocked</w>": 3392,
  "scrat": 3393,
  "landed</w>": 3394,
  "sement</w>": 3395,
  "weapons</w>": 3396,
  "iling</w>": 3397,
  "stan</w>": 3398,
  "works</w>": 3399,
  "drawn</w>": 3400,
  "bridge</w>": 3401,
  "removed</w>": 3402,
  "college</w>": 3403,
  "eyebrows</w>": 3404,
  "dirty</w>": 3405,
  "jump</w>": 3406,
  "rich": 3407,
  "subject</w>": 3408,
  "19": 3409,
  "entirely</w>": 3410,
  "grey</w>": 3411,
  "spected</w>": 3412,
  "refused</w>": 3413,
  "blank": 3414,
  "keys</w>": 3415,
  "chuckled</w>": 3416,
  "carrying</w>": 3417,
  "stories</w>": 3418,
  "et": 3419,
  "smart</w>": 3420,
  "rich</w>": 3421,
  "orig": 3422,
  "wonderful</w>": 3423,
  "peace</w>": 3424,
  "hill</w>": 3425,
  "hou": 3426,
  "nearby</w>": 3427,
  "bye</w>": 3428,
  "closing</w>": 3429,
  "recognized</w>": 3430,
  "awk": 3431,
  "warm": 3432,
  "showing</w>": 3433,
  "rooms</w>": 3434,
  "gives</w>": 3435,
  "lessly</w>": 3436,
  "mood</w>": 3437,
  "regi": 3438,
  "calls</w>": 3439,
  "consu": 3440,
  "belly</w>": 3441,
  "knocked</w>": 3442,
  "narrow</w>": 3443,
  "track</w>": 3444,
  "matt</w>": 3445,
  "accept</w>": 3446,
  "breathed</w>": 3447,
  "worn</w>": 3448,
  "ace": 3449,
  "mean": 3450,
  "inte": 3451,
  "gas</w>": 3452,
  "idi": 3453,
  "shared</w>": 3454,
  "everywhere</w>": 3455,
  "bastard</w>": 3456,
  "suggested</w>": 3457,
  "ghs</w>": 3458,
  "sha</w>": 3459,
  "saved</w>": 3460,
  "animal</w>": 3461,
  "tage</w>": 3462,
  "vul": 3463,
  "charlie</w>": 3464,
  "smir": 3465,
  "gly</w>": 3466,
  "desperate</w>": 3467,
  "mark": 3468,
  "gathered</w>": 3469,
  "inn</w>": 3470,
  "charge</w>": 3471,
  "libr": 3472,
  "roof</w>": 3473,
  "ckets</w>": 3474,
  "warmth</w>": 3475,
  "heavi": 3476,
  "knee</w>": 3477,
  "fal": 3478,
  "cele": 3479,
  "gift</w>": 3480,
  "fill</w>": 3481,
  "double</w>": 3482,
  "answers</w>": 3483,
  "ase</w>": 3484,
  "port</w>": 3485,
  "thering</w>": 3486,
  "bought</w>": 3487,
  "otherwise</w>": 3488,
  "log": 3489,
  "sending</w>": 3490,
  "spoken</w>": 3491,
  "regar": 3492,
  "pregn": 3493,
  "avoid</w>": 3494,
  "sexy</w>": 3495,
  "plane</w>": 3496,
  "comb": 3497,
  "sucked</w>": 3498,
  "thumb</w>": 3499,
  "base</w>": 3500,
  "sca": 3501,
  "rough</w>": 3502,
  "shoot</w>": 3503,
  "drunk</w>": 3504,
  "buried</w>": 3505,
  "deeply</w>": 3506,
  "resta": 3507,
  "star</w>": 3508,
  "giant</w>": 3509,
  "ling": 3510,
  "restaur": 3511,
  "mail</w>": 3512,
  "bie</w>": 3513,
  "nment</w>": 3514,
  "oni": 3515,
  "bother</w>": 3516,
  "devi": 3517,
  "proce": 3518,
  "groaned</w>": 3519,
  "tex": 3520,
  "tau": 3521,
  "cars</w>": 3522,
  "ality</w>": 3523,
  "drawing</w>": 3524,
  "pressing</w>": 3525,
  "san</w>": 3526,
  "train</w>": 3527,
  "pleased</w>": 3528,
  "pit": 3529,
  "faint</w>": 3530,
  "conscious</w>": 3531,
  "passing</w>": 3532,
  "reality</w>": 3533,
  "silently</w>": 3534,
  "doll": 3535,
  "oning</w>": 3536,
  "intro": 3537,
  "helping</w>": 3538,
  "awake</w>": 3539,
  "investi": 3540,
  "hug</w>": 3541,
  "challen": 3542,
  "belon": 3543,
  "amoun": 3544,
  "dragged</w>": 3545,
  "written</w>": 3546,
  "aches</w>": 3547,
  "inti": 3548,
  "emily</w>": 3549,
  "sured</w>": 3550,
  "dust</w>": 3551,
  "bus</w>": 3552,
  "cel": 3553,
  "tha</w>": 3554,
  "swear</w>": 3555,
  "excited</w>": 3556,
  "myster": 3557,
  "spr": 3558,
  "mi</w>": 3559,
  "edi": 3560,
  "reply</w>": 3561,
  "rob": 3562,
  "unted</w>": 3563,
  "pin": 3564,
  "names</w>": 3565,
  "gher</w>": 3566,
  "bree": 3567,
  "heart": 3568,
  "xes</w>": 3569,
  "surrounded</w>": 3570,
  "faded</w>": 3571,
  "fifty</w>": 3572,
  "ships</w>": 3573,
  "belt</w>": 3574,
  "beauty</w>": 3575,
  "instant</w>": 3576,
  "inted</w>": 3577,
  "flight</w>": 3578,
  "extra</w>": 3579,
  "regu": 3580,
  "training</w>": 3581,
  "imagined</w>": 3582,
  "teen": 3583,
  "zzy</w>": 3584,
  "pulls</w>": 3585,
  "sand</w>": 3586,
  "steel</w>": 3587,
  "draw</w>": 3588,
  "pause</w>": 3589,
  "equ": 3590,
  "support</w>": 3591,
  "pictures</w>": 3592,
  "attempt</w>": 3593,
  "soo": 3594,
  "waves</w>": 3595,
  "cell": 3596,
  "yor": 3597,
  "apologi": 3598,
  "honey</w>": 3599,
  "larly</w>": 3600,
  "experien": 3601,
  "admitted</w>": 3602,
  "purpose</w>": 3603,
  "consider</w>": 3604,
  "mentioned</w>": 3605,
  "gabri": 3606,
  "stal": 3607,
  "lities</w>": 3608,
  "gy": 3609,
  "ortun": 3610,
  "play": 3611,
  "discovered</w>": 3612,
  "dest</w>": 3613,
  "tude</w>": 3614,
  "lean</w>": 3615,
  "ash</w>": 3616,
  "ior</w>": 3617,
  "ordin": 3618,
  "opportun": 3619,
  "appear": 3620,
  "letter</w>": 3621,
  "tele": 3622,
  "inci": 3623,
  "horses</w>": 3624,
  "introdu": 3625,
  "setting</w>": 3626,
  "knock</w>": 3627,
  "flash</w>": 3628,
  "spra": 3629,
  "noah</w>": 3630,
  "stration</w>": 3631,
  "wiped</w>": 3632,
  "00</w>": 3633,
  "soa": 3634,
  "ber</w>": 3635,
  "proud</w>": 3636,
  "jun": 3637,
  "tial</w>": 3638,
  "grow</w>": 3639,
  "pointing</w>": 3640,
  "voices</w>": 3641,
  "occur": 3642,
  "brush</w>": 3643,
  "stress</w>": 3644,
  "ancient</w>": 3645,
  "holy</w>": 3646,
  "considering</w>": 3647,
  "sliding</w>": 3648,
  "plenty</w>": 3649,
  "drinking</w>": 3650,
  "sche": 3651,
  "officer</w>": 3652,
  "bas": 3653,
  "physical</w>": 3654,
  "process</w>": 3655,
  "sac": 3656,
  "lily</w>": 3657,
  "kick</w>": 3658,
  "boun": 3659,
  "study</w>": 3660,
  "expecting</w>": 3661,
  "movie</w>": 3662,
  "service</w>": 3663,
  "ura</w>": 3664,
  "now": 3665,
  "dare</w>": 3666,
  "vag": 3667,
  "younger</w>": 3668,
  "determined</w>": 3669,
  "tips</w>": 3670,
  "shri": 3671,
  "sink</w>": 3672,
  "streets</w>": 3673,
  "opportunity</w>": 3674,
  "corri": 3675,
  "aband": 3676,
  "serve</w>": 3677,
  "stern</w>": 3678,
  "trail</w>": 3679,
  "named</w>": 3680,
  "anne</w>": 3681,
  "heels</w>": 3682,
  "incredi": 3683,
  "mountain</w>": 3684,
  "glared</w>": 3685,
  "dozen</w>": 3686,
  "curious</w>": 3687,
  "excitement</w>": 3688,
  "vious</w>": 3689,
  "details</w>": 3690,
  "ham</w>": 3691,
  "ette</w>": 3692,
  "local</w>": 3693,
  "horror</w>": 3694,
  "interrupted</w>": 3695,
  "honest</w>": 3696,
  "problems</w>": 3697,
  "pon": 3698,
  "lay": 3699,
  "throwing</w>": 3700,
  "crap</w>": 3701,
  "stin</w>": 3702,
  "lightly</w>": 3703,
  "common</w>": 3704,
  "stars</w>": 3705,
  "difference</w>": 3706,
  "bound</w>": 3707,
  "pressure</w>": 3708,
  "brief</w>": 3709,
  "blame</w>": 3710,
  "bastian</w>": 3711,
  "slip</w>": 3712,
  "william</w>": 3713,
  "tear</w>": 3714,
  "scan": 3715,
  "badly</w>": 3716,
  "collap": 3717,
  "enemy</w>": 3718,
  "rever": 3719,
  "beast</w>": 3720,
  "relaxed</w>": 3721,
  "langu": 3722,
  "ade</w>": 3723,
  "four": 3724,
  "spell</w>": 3725,
  "boyfriend</w>": 3726,
  "grate": 3727,
  "girl": 3728,
  "eigh": 3729,
  "acher</w>": 3730,
  "square</w>": 3731,
  "iron</w>": 3732,
  "hom": 3733,
  "camp</w>": 3734,
  "flowers</w>": 3735,
  "safety</w>": 3736,
  "respond</w>": 3737,
  "mally</w>": 3738,
  "domin": 3739,
  "dragon</w>": 3740,
  "jud": 3741,
  "vi</w>": 3742,
  "extre": 3743,
  "dle</w>": 3744,
  "stronger</w>": 3745,
  "week": 3746,
  "staff</w>": 3747,
  "mid</w>": 3748,
  "jared</w>": 3749,
  "tim</w>": 3750,
  "ants</w>": 3751,
  "stands</w>": 3752,
  "illu": 3753,
  "particular</w>": 3754,
  "swept</w>": 3755,
  "tical</w>": 3756,
  "cassie</w>": 3757,
  "comfort</w>": 3758,
  "bell</w>": 3759,
  "glow</w>": 3760,
  "land": 3761,
  "orders</w>": 3762,
  "emotion</w>": 3763,
  "quired</w>": 3764,
  "audi": 3765,
  "murder</w>": 3766,
  "ridi": 3767,
  "kisses</w>": 3768,
  "zes</w>": 3769,
  "blond</w>": 3770,
  "lift</w>": 3771,
  "file</w>": 3772,
  "gal</w>": 3773,
  "lucas</w>": 3774,
  "christmas</w>": 3775,
  "boss</w>": 3776,
  "vehi": 3777,
  "stered</w>": 3778,
  "pissed</w>": 3779,
  "tained</w>": 3780,
  "dra</w>": 3781,
  "twel": 3782,
  "tucked</w>": 3783,
  "writing</w>": 3784,
  "deck</w>": 3785,
  "becoming</w>": 3786,
  "wre": 3787,
  "features</w>": 3788,
  "richard</w>": 3789,
  "thighs</w>": 3790,
  "increa": 3791,
  "hurry</w>": 3792,
  "failed</w>": 3793,
  "jesus</w>": 3794,
  "elevator</w>": 3795,
  "block</w>": 3796,
  "snar": 3797,
  "simi": 3798,
  "reli": 3799,
  "tle": 3800,
  "good": 3801,
  "vity</w>": 3802,
  "plain</w>": 3803,
  "kylie</w>": 3804,
  "irri": 3805,
  "olivia</w>": 3806,
  "command</w>": 3807,
  "dder</w>": 3808,
  "pulse</w>": 3809,
  "sky": 3810,
  "york</w>": 3811,
  "cabin</w>": 3812,
  "tv</w>": 3813,
  "rope</w>": 3814,
  "aten</w>": 3815,
  "ent": 3816,
  "materi": 3817,
  "electri": 3818,
  "loss</w>": 3819,
  "george</w>": 3820,
  "due</w>": 3821,
  "facing</w>": 3822,
  "nowhere</w>": 3823,
  "respect</w>": 3824,
  "bel": 3825,
  "furi": 3826,
  "dest": 3827,
  "flames</w>": 3828,
  "br</w>": 3829,
  "bel</w>": 3830,
  "evidence</w>": 3831,
  "floo": 3832,
  "tony</w>": 3833,
  "ting": 3834,
  "laun": 3835,
  "responded</w>": 3836,
  "ial</w>": 3837,
  "poured</w>": 3838,
  "release</w>": 3839,
  "firmly</w>": 3840,
  "eling</w>": 3841,
  "crew</w>": 3842,
  "thrust</w>": 3843,
  "smelled</w>": 3844,
  "commun": 3845,
  "abby</w>": 3846,
  "puni": 3847,
  "cow": 3848,
  "including</w>": 3849,
  "forty</w>": 3850,
  "tless</w>": 3851,
  "betra": 3852,
  "bank</w>": 3853,
  "asy</w>": 3854,
  "sebastian</w>": 3855,
  "scu": 3856,
  "origin": 3857,
  "porch</w>": 3858,
  "members</w>": 3859,
  "leader</w>": 3860,
  "ese</w>": 3861,
  "scow": 3862,
  "threat</w>": 3863,
  "report</w>": 3864,
  "eyebrow</w>": 3865,
  "restaurant</w>": 3866,
  "frame</w>": 3867,
  "prove</w>": 3868,
  "bigger</w>": 3869,
  "lots</w>": 3870,
  "solid</w>": 3871,
  "nic": 3872,
  "hurried</w>": 3873,
  "jor": 3874,
  "ander</w>": 3875,
  "inha": 3876,
  "bat": 3877,
  "iny</w>": 3878,
  "starts</w>": 3879,
  "spirit</w>": 3880,
  "fixed</w>": 3881,
  "castle</w>": 3882,
  "compe": 3883,
  "obli": 3884,
  "rif": 3885,
  "reliev": 3886,
  "text</w>": 3887,
  "silk</w>": 3888,
  "mbs</w>": 3889,
  "backed</w>": 3890,
  "cared</w>": 3891,
  "cave</w>": 3892,
  "page</w>": 3893,
  "raced</w>": 3894,
  "mortal</w>": 3895,
  "mmy</w>": 3896,
  "pace</w>": 3897,
  "asing</w>": 3898,
  "neath</w>": 3899,
  "anged</w>": 3900,
  "struggled</w>": 3901,
  "planning</w>": 3902,
  "when": 3903,
  "gall": 3904,
  "wheel</w>": 3905,
  "amount</w>": 3906,
  "dag": 3907,
  "geous</w>": 3908,
  "village</w>": 3909,
  "massive</w>": 3910,
  "fool</w>": 3911,
  "tho": 3912,
  "ignore</w>": 3913,
  "custom": 3914,
  "jeal": 3915,
  "spee": 3916,
  "gest</w>": 3917,
  "twelve</w>": 3918,
  "serv": 3919,
  "scoo": 3920,
  "ppy</w>": 3921,
  "parts</w>": 3922,
  "lovely</w>": 3923,
  "upstairs</w>": 3924,
  "fan</w>": 3925,
  "vac": 3926,
  "main": 3927,
  "esc": 3928,
  "ivy</w>": 3929,
  "jan": 3930,
  "blanket</w>": 3931,
  "julian</w>": 3932,
  "yn": 3933,
  "powers</w>": 3934,
  "vis</w>": 3935,
  "fed</w>": 3936,
  "ath": 3937,
  "slide</w>": 3938,
  "damned</w>": 3939,
  "higher</w>": 3940,
  "gripped</w>": 3941,
  "ffled</w>": 3942,
  "lee</w>": 3943,
  "titude</w>": 3944,
  "too": 3945,
  "match</w>": 3946,
  "marked</w>": 3947,
  "widened</w>": 3948,
  "ripped</w>": 3949,
  "remain</w>": 3950,
  "sie</w>": 3951,
  "pa</w>": 3952,
  "council</w>": 3953,
  "machine</w>": 3954,
  "ssions</w>": 3955,
  "understanding</w>": 3956,
  "chief</w>": 3957,
  "whenever</w>": 3958,
  "inj": 3959,
  "blur": 3960,
  "shield</w>": 3961,
  "marriage</w>": 3962,
  "thri": 3963,
  "intense</w>": 3964,
  "parked</w>": 3965,
  "papers</w>": 3966,
  "oner</w>": 3967,
  "concentr": 3968,
  "christian</w>": 3969,
  "guilt</w>": 3970,
  "mia</w>": 3971,
  "uncomfortable</w>": 3972,
  "occu": 3973,
  "oce": 3974,
  "amon": 3975,
  "antly</w>": 3976,
  "victor": 3977,
  "reque": 3978,
  "demons</w>": 3979,
  "flat": 3980,
  "ridicul": 3981,
  "urge</w>": 3982,
  "gage</w>": 3983,
  "whom</w>": 3984,
  "kal": 3985,
  "eliza": 3986,
  "purse</w>": 3987,
  "reasons</w>": 3988,
  "nights</w>": 3989,
  "briefly</w>": 3990,
  "million</w>": 3991,
  "inches</w>": 3992,
  "tension</w>": 3993,
  "underneath</w>": 3994,
  "insisted</w>": 3995,
  "relieved</w>": 3996,
  "write</w>": 3997,
  "enjoyed</w>": 3998,
  "capable</w>": 3999,
  "choose</w>": 4000,
  "wolves</w>": 4001,
  "practically</w>": 4002,
  "ouses</w>": 4003,
  "covering</w>": 4004,
  "expen": 4005,
  "john": 4006,
  "english</w>": 4007,
  "warned</w>": 4008,
  "slight</w>": 4009,
  "monster</w>": 4010,
  "cure</w>": 4011,
  "accor": 4012,
  "survive</w>": 4013,
  "antici": 4014,
  "startled</w>": 4015,
  "major</w>": 4016,
  "bird</w>": 4017,
  "tically</w>": 4018,
  "whel": 4019,
  "heavily</w>": 4020,
  "mpa": 4021,
  "mm</w>": 4022,
  "relax</w>": 4023,
  "rubbing</w>": 4024,
  "jane</w>": 4025,
  "zation</w>": 4026,
  "rou": 4027,
  "dia</w>": 4028,
  "confusion</w>": 4029,
  "rian</w>": 4030,
  "dancing</w>": 4031,
  "raise</w>": 4032,
  "ica</w>": 4033,
  "tables</w>": 4034,
  "ease</w>": 4035,
  "plastic</w>": 4036,
  "hat</w>": 4037,
  "gas": 4038,
  "liam</w>": 4039,
  "ona</w>": 4040,
  "stopping</w>": 4041,
  "fier": 4042,
  "engine</w>": 4043,
  "balls</w>": 4044,
  "lined</w>": 4045,
  "library</w>": 4046,
  "poi": 4047,
  "witch</w>": 4048,
  "garden</w>": 4049,
  "reg": 4050,
  "blake</w>": 4051,
  "spor": 4052,
  "blew</w>": 4053,
  "hawk</w>": 4054,
  "camera</w>": 4055,
  "net</w>": 4056,
  "chris</w>": 4057,
  "gers</w>": 4058,
  "wow</w>": 4059,
  "connection</w>": 4060,
  "marry</w>": 4061,
  "innocent</w>": 4062,
  "cture</w>": 4063,
  "angle</w>": 4064,
  "light": 4065,
  "state": 4066,
  "pure</w>": 4067,
  "travel</w>": 4068,
  "tali": 4069,
  "grateful</w>": 4070,
  "merely</w>": 4071,
  "birth": 4072,
  "aler": 4073,
  "normally</w>": 4074,
  "nails</w>": 4075,
  "rules</w>": 4076,
  "resting</w>": 4077,
  "elizabeth</w>": 4078,
  "accident</w>": 4079,
  "connor</w>": 4080,
  "hope": 4081,
  "ald</w>": 4082,
  "gation</w>": 4083,
  "convinced</w>": 4084,
  "planet</w>": 4085,
  "offici": 4086,
  "signs</w>": 4087,
  "forgot</w>": 4088,
  "meal</w>": 4089,
  "handsome</w>": 4090,
  "fic</w>": 4091,
  "emplo": 4092,
  "cho</w>": 4093,
  "liqu": 4094,
  "gain</w>": 4095,
  "ized</w>": 4096,
  "admir": 4097,
  "xing</w>": 4098,
  "appear</w>": 4099,
  "agent</w>": 4100,
  "swir": 4101,
  "half": 4102,
  "fix</w>": 4103,
  "charac": 4104,
  "thrown</w>": 4105,
  "dropping</w>": 4106,
  "julia</w>": 4107,
  "pet</w>": 4108,
  "tells</w>": 4109,
  "hint</w>": 4110,
  "fying</w>": 4111,
  "pounding</w>": 4112,
  "winter</w>": 4113,
  "lack</w>": 4114,
  "created</w>": 4115,
  "froze</w>": 4116,
  "horrible</w>": 4117,
  "angs</w>": 4118,
  "sank</w>": 4119,
  "tan</w>": 4120,
  "honestly</w>": 4121,
  "picking</w>": 4122,
  "pile</w>": 4123,
  "enter</w>": 4124,
  "spring</w>": 4125,
  "profess": 4126,
  "split</w>": 4127,
  "creatures</w>": 4128,
  "girlfriend</w>": 4129,
  "gul": 4130,
  "belle</w>": 4131,
  "joy</w>": 4132,
  "shy</w>": 4133,
  "pleasant</w>": 4134,
  "assumed</w>": 4135,
  "miser": 4136,
  "seven": 4137,
  "tunnel</w>": 4138,
  "life": 4139,
  "glancing</w>": 4140,
  "nods</w>": 4141,
  "effect</w>": 4142,
  "actions</w>": 4143,
  "military</w>": 4144,
  "stumbled</w>": 4145,
  "sensi": 4146,
  "distur": 4147,
  "reluc": 4148,
  "princess</w>": 4149,
  "weekend</w>": 4150,
  "ffs</w>": 4151,
  "sean</w>": 4152,
  "tress</w>": 4153,
  "vio": 4154,
  "french</w>": 4155,
  "gradu": 4156,
  "connected</w>": 4157,
  "cute</w>": 4158,
  "overwhel": 4159,
  "jace</w>": 4160,
  "weak": 4161,
  "shment</w>": 4162,
  "fashi": 4163,
  "indu": 4164,
  "flipped</w>": 4165,
  "animals</w>": 4166,
  "jim</w>": 4167,
  "walks</w>": 4168,
  "unfortunately</w>": 4169,
  "fired</w>": 4170,
  "const": 4171,
  "ousness</w>": 4172,
  "bom": 4173,
  "owning</w>": 4174,
  "bble</w>": 4175,
  "aces</w>": 4176,
  "cently</w>": 4177,
  "fists</w>": 4178,
  "upper</w>": 4179,
  "deb": 4180,
  "ki</w>": 4181,
  "lungs</w>": 4182,
  "style</w>": 4183,
  "rid</w>": 4184,
  "ius</w>": 4185,
  "tat": 4186,
  "cash</w>": 4187,
  "appreciate</w>": 4188,
  "meaning</w>": 4189,
  "exper": 4190,
  "alli": 4191,
  "lts</w>": 4192,
  "nific": 4193,
  "cigar": 4194,
  "were": 4195,
  "ghtening</w>": 4196,
  "houses</w>": 4197,
  "pregnant</w>": 4198,
  "east</w>": 4199,
  "grabbing</w>": 4200,
  "ddled</w>": 4201,
  "gree": 4202,
  "orange</w>": 4203,
  "passion</w>": 4204,
  "thank": 4205,
  "changing</w>": 4206,
  "blon": 4207,
  "chairs</w>": 4208,
  "feed</w>": 4209,
  "za</w>": 4210,
  "hugged</w>": 4211,
  "closet</w>": 4212,
  "tantly</w>": 4213,
  "distant</w>": 4214,
  "armed</w>": 4215,
  "there": 4216,
  "crack</w>": 4217,
  "loudly</w>": 4218,
  "daddy</w>": 4219,
  "ences</w>": 4220,
  "bags</w>": 4221,
  "acle</w>": 4222,
  "eddie</w>": 4223,
  "spine</w>": 4224,
  "killer</w>": 4225,
  "passen": 4226,
  "josh</w>": 4227,
  "searched</w>": 4228,
  "asse": 4229,
  "ferred</w>": 4230,
  "ha</w>": 4231,
  "awful</w>": 4232,
  "ist</w>": 4233,
  "events</w>": 4234,
  "gw": 4235,
  "buildings</w>": 4236,
  "trembling</w>": 4237,
  "ssion": 4238,
  "kev": 4239,
  "stiff": 4240,
  "ghost</w>": 4241,
  "day": 4242,
  "taught</w>": 4243,
  "sku": 4244,
  "plus</w>": 4245,
  "honor</w>": 4246,
  "washed</w>": 4247,
  "cott": 4248,
  "practice</w>": 4249,
  "gentle": 4250,
  "op</w>": 4251,
  "wei": 4252,
  "equi": 4253,
  "cloud</w>": 4254,
  "zo": 4255,
  "tilted</w>": 4256,
  "recognize</w>": 4257,
  "confe": 4258,
  "fury</w>": 4259,
  "lace</w>": 4260,
  "treated</w>": 4261,
  "section</w>": 4262,
  "clouds</w>": 4263,
  "broo": 4264,
  "mely</w>": 4265,
  "ess": 4266,
  "hard": 4267,
  "asm</w>": 4268,
  "accepted</w>": 4269,
  "lissa</w>": 4270,
  "destroy</w>": 4271,
  "somebody</w>": 4272,
  "meas": 4273,
  "qua": 4274,
  "radio</w>": 4275,
  "treat</w>": 4276,
  "ris</w>": 4277,
  "sequ": 4278,
  "language</w>": 4279,
  "frozen</w>": 4280,
  "clothing</w>": 4281,
  "amy</w>": 4282,
  "shly</w>": 4283,
  "ception</w>": 4284,
  "riley</w>": 4285,
  "lo</w>": 4286,
  "kir": 4287,
  "chain</w>": 4288,
  "warrior</w>": 4289,
  "damage</w>": 4290,
  "sake</w>": 4291,
  "cryst": 4292,
  "fat</w>": 4293,
  "elbow</w>": 4294,
  "regret</w>": 4295,
  "current</w>": 4296,
  "belief</w>": 4297,
  "gorgeous</w>": 4298,
  "avoi": 4299,
  "american</w>": 4300,
  "addi": 4301,
  "tugged</w>": 4302,
  "ex</w>": 4303,
  "rel</w>": 4304,
  "frank</w>": 4305,
  "beating</w>": 4306,
  "stream</w>": 4307,
  "lab": 4308,
  "towel</w>": 4309,
  "stair": 4310,
  "crou": 4311,
  "angled</w>": 4312,
  "conten": 4313,
  "pit</w>": 4314,
  "cracked</w>": 4315,
  "ckles</w>": 4316,
  "chamber</w>": 4317,
  "organi": 4318,
  "ocean</w>": 4319,
  "ari</w>": 4320,
  "corridor</w>": 4321,
  "spotted</w>": 4322,
  "mple</w>": 4323,
  "rocks</w>": 4324,
  "stranger</w>": 4325,
  "intended</w>": 4326,
  "sexu": 4327,
  "sane</w>": 4328,
  "call": 4329,
  "cher": 4330,
  "joke</w>": 4331,
  "stled</w>": 4332,
  "lifting</w>": 4333,
  "logy</w>": 4334,
  "toes</w>": 4335,
  "ignoring</w>": 4336,
  "tives</w>": 4337,
  "sensation</w>": 4338,
  "suspected</w>": 4339,
  "temple</w>": 4340,
  "idiot</w>": 4341,
  "chose</w>": 4342,
  "itu": 4343,
  "forgive</w>": 4344,
  "sal</w>": 4345,
  "dless</w>": 4346,
  "filling</w>": 4347,
  "frustration</w>": 4348,
  "llows</w>": 4349,
  "gan": 4350,
  "carol": 4351,
  "duty</w>": 4352,
  "balance</w>": 4353,
  "downstairs</w>": 4354,
  "bled</w>": 4355,
  "claim</w>": 4356,
  "stepping</w>": 4357,
  "jeff</w>": 4358,
  "spiri": 4359,
  "presi": 4360,
  "backward</w>": 4361,
  "guns</w>": 4362,
  "ckled</w>": 4363,
  "peered</w>": 4364,
  "bella</w>": 4365,
  "kat": 4366,
  "stir": 4367,
  "gent</w>": 4368,
  "defe": 4369,
  "pretend</w>": 4370,
  "epi": 4371,
  "breeze</w>": 4372,
  "escaped</w>": 4373,
  "causing</w>": 4374,
  "mbo": 4375,
  "skirt</w>": 4376,
  "smaller</w>": 4377,
  "prison</w>": 4378,
  "snu": 4379,
  "suspici": 4380,
  "puzz": 4381,
  "guilty</w>": 4382,
  "ast": 4383,
  "various</w>": 4384,
  "government</w>": 4385,
  "occasion": 4386,
  "leans</w>": 4387,
  "stunned</w>": 4388,
  "received</w>": 4389,
  "ference</w>": 4390,
  "gut</w>": 4391,
  "tender</w>": 4392,
  "desperately</w>": 4393,
  "examin": 4394,
  "whir": 4395,
  "progra": 4396,
  "derek</w>": 4397,
  "loe</w>": 4398,
  "whoever</w>": 4399,
  "secrets</w>": 4400,
  "phe": 4401,
  "inv": 4402,
  "tries</w>": 4403,
  "mani": 4404,
  "climb</w>": 4405,
  "abrup": 4406,
  "bui": 4407,
  "tore</w>": 4408,
  "gabriel</w>": 4409,
  "hissed</w>": 4410,
  "grant</w>": 4411,
  "popped</w>": 4412,
  "yne</w>": 4413,
  "build</w>": 4414,
  "moves</w>": 4415,
  "manage</w>": 4416,
  "exist": 4417,
  "add</w>": 4418,
  "ridiculous</w>": 4419,
  "enjoying</w>": 4420,
  "similar</w>": 4421,
  "amb": 4422,
  "phan": 4423,
  "harm</w>": 4424,
  "patter": 4425,
  "dug</w>": 4426,
  "farther</w>": 4427,
  "obe": 4428,
  "author": 4429,
  "grandmother</w>": 4430,
  "cles</w>": 4431,
  "trapped</w>": 4432,
  "parted</w>": 4433,
  "nia</w>": 4434,
  "attacked</w>": 4435,
  "dy": 4436,
  "sisters</w>": 4437,
  "stones</w>": 4438,
  "announced</w>": 4439,
  "begun</w>": 4440,
  "tower</w>": 4441,
  "notes</w>": 4442,
  "cock</w>": 4443,
  "points</w>": 4444,
  "chosen</w>": 4445,
  "palms</w>": 4446,
  "fate</w>": 4447,
  "statement</w>": 4448,
  "beha": 4449,
  "abruptly</w>": 4450,
  "mis": 4451,
  "compar": 4452,
  "intelli": 4453,
  "returning</w>": 4454,
  "ol</w>": 4455,
  "pen</w>": 4456,
  "bling</w>": 4457,
  "lley</w>": 4458,
  "gesture</w>": 4459,
  "mari": 4460,
  "awkward</w>": 4461,
  "make": 4462,
  "dawn</w>": 4463,
  "pillow</w>": 4464,
  "snat": 4465,
  "holi": 4466,
  "alarm</w>": 4467,
  "lated</w>": 4468,
  "partner</w>": 4469,
  "students</w>": 4470,
  "explan": 4471,
  "lex": 4472,
  "terrified</w>": 4473,
  "iz": 4474,
  "professor</w>": 4475,
  "drifted</w>": 4476,
  "roa": 4477,
  "stated</w>": 4478,
  "assured</w>": 4479,
  "anda</w>": 4480,
  "yanked</w>": 4481,
  "gency</w>": 4482,
  "hip</w>": 4483,
  "london</w>": 4484,
  "alright</w>": 4485,
  "soldier</w>": 4486,
  "cloth</w>": 4487,
  "deca": 4488,
  "ladies</w>": 4489,
  "landing</w>": 4490,
  "reason": 4491,
  "chloe</w>": 4492,
  "cream</w>": 4493,
  "bunch</w>": 4494,
  "painful</w>": 4495,
  "zar": 4496,
  "wro": 4497,
  "rule</w>": 4498,
  "sara</w>": 4499,
  "exhausted</w>": 4500,
  "waste</w>": 4501,
  "muscle</w>": 4502,
  "ctively</w>": 4503,
  "tedly</w>": 4504,
  "particularly</w>": 4505,
  "curse</w>": 4506,
  "holds</w>": 4507,
  "sensed</w>": 4508,
  "pride</w>": 4509,
  "dogs</w>": 4510,
  "unex": 4511,
  "appe": 4512,
  "cale": 4513,
  "confir": 4514,
  "conce": 4515,
  "falls</w>": 4516,
  "trent</w>": 4517,
  "insu": 4518,
  "ske": 4519,
  "inner</w>": 4520,
  "grandfather</w>": 4521,
  "circum": 4522,
  "mun": 4523,
  "nurse</w>": 4524,
  "bits</w>": 4525,
  "descen": 4526,
  "birthday</w>": 4527,
  "mountains</w>": 4528,
  "photogra": 4529,
  "ends</w>": 4530,
  "lur": 4531,
  "ington</w>": 4532,
  "mo</w>": 4533,
  "rhy": 4534,
  "comment</w>": 4535,
  "thigh</w>": 4536,
  "larger</w>": 4537,
  "grand</w>": 4538,
  "frown</w>": 4539,
  "licked</w>": 4540,
  "marcus</w>": 4541,
  "checking</w>": 4542,
  "preci": 4543,
  "shooting</w>": 4544,
  "pha": 4545,
  "weather</w>": 4546,
  "gazed</w>": 4547,
  "glowing</w>": 4548,
  "attered</w>": 4549,
  "brilli": 4550,
  "anx": 4551,
  "purple</w>": 4552,
  "impati": 4553,
  "colon": 4554,
  "blonde</w>": 4555,
  "echoed</w>": 4556,
  "mask</w>": 4557,
  "limi": 4558,
  "judge</w>": 4559,
  "liter": 4560,
  "ron</w>": 4561,
  "snorted</w>": 4562,
  "marks</w>": 4563,
  "tch": 4564,
  "glimp": 4565,
  "flick": 4566,
  "riding</w>": 4567,
  "sping</w>": 4568,
  "sip</w>": 4569,
  "ame": 4570,
  "sounding</w>": 4571,
  "garage</w>": 4572,
  "shakes</w>": 4573,
  "through": 4574,
  "civi": 4575,
  "spla": 4576,
  "king": 4577,
  "ker": 4578,
  "arched</w>": 4579,
  "straightened</w>": 4580,
  "dep": 4581,
  "colored</w>": 4582,
  "footsteps</w>": 4583,
  "gus</w>": 4584,
  "bowl</w>": 4585,
  "cken</w>": 4586,
  "blan": 4587,
  "bles</w>": 4588,
  "packed</w>": 4589,
  "encou": 4590,
  "vanished</w>": 4591,
  "justi": 4592,
  "embarrassed</w>": 4593,
  "develop": 4594,
  "bra</w>": 4595,
  "experienced</w>": 4596,
  "sooner</w>": 4597,
  "shade</w>": 4598,
  "ugly</w>": 4599,
  "shir": 4600,
  "mum</w>": 4601,
  "angel": 4602,
  "dat": 4603,
  "glea": 4604,
  "tery</w>": 4605,
  "deserve</w>": 4606,
  "ish</w>": 4607,
  "bench</w>": 4608,
  "halfway</w>": 4609,
  "del</w>": 4610,
  "total</w>": 4611,
  "sofa</w>": 4612,
  "won</w>": 4613,
  "centu": 4614,
  "cutting</w>": 4615,
  "clay</w>": 4616,
  "racing</w>": 4617,
  "conclu": 4618,
  "satur": 4619,
  "friendly</w>": 4620,
  "satisfied</w>": 4621,
  "exha": 4622,
  "favor</w>": 4623,
  "grim": 4624,
  "traff": 4625,
  "nan": 4626,
  "numbers</w>": 4627,
  "sheet</w>": 4628,
  "senten": 4629,
  "consci": 4630,
  "glare</w>": 4631,
  "alco": 4632,
  "non</w>": 4633,
  "expl": 4634,
  "wash</w>": 4635,
  "matters</w>": 4636,
  "advantage</w>": 4637,
  "torn</w>": 4638,
  "rebe": 4639,
  "victoria</w>": 4640,
  "steve</w>": 4641,
  "contemp": 4642,
  "robert</w>": 4643,
  "enter": 4644,
  "o'": 4645,
  "tta</w>": 4646,
  "plat": 4647,
  "map</w>": 4648,
  "mad": 4649,
  "bo</w>": 4650,
  "mumbled</w>": 4651,
  "len</w>": 4652,
  "convince</w>": 4653,
  "catching</w>": 4654,
  "envelop": 4655,
  "approach</w>": 4656,
  "throughout</w>": 4657,
  "correct</w>": 4658,
  "source</w>": 4659,
  "fabri": 4660,
  "exit</w>": 4661,
  "hundre": 4662,
  "popu": 4663,
  "ury</w>": 4664,
  "likes</w>": 4665,
  "singly</w>": 4666,
  "paying</w>": 4667,
  "rode</w>": 4668,
  "compla": 4669,
  "heaven</w>": 4670,
  "post</w>": 4671,
  "schedu": 4672,
  "ite": 4673,
  "clan</w>": 4674,
  "shif": 4675,
  "tapped</w>": 4676,
  "assist": 4677,
  "thless</w>": 4678,
  "smu": 4679,
  "destroyed</w>": 4680,
  "erie</w>": 4681,
  "unlike</w>": 4682,
  "bowed</w>": 4683,
  "forcing</w>": 4684,
  "bay</w>": 4685,
  "trained</w>": 4686,
  "jose": 4687,
  "whispers</w>": 4688,
  "hunt</w>": 4689,
  "billy</w>": 4690,
  "ava": 4691,
  "eased</w>": 4692,
  "remaining</w>": 4693,
  "meat</w>": 4694,
  "silly</w>": 4695,
  "scott</w>": 4696,
  "neighb": 4697,
  "broad</w>": 4698,
  "task</w>": 4699,
  "maggie</w>": 4700,
  "rear</w>": 4701,
  "clearing</w>": 4702,
  "stances</w>": 4703,
  "nit": 4704,
  "sized</w>": 4705,
  "bond</w>": 4706,
  "aman": 4707,
  "painted</w>": 4708,
  "appearance</w>": 4709,
  "target</w>": 4710,
  "eager</w>": 4711,
  "spect": 4712,
  "helple": 4713,
  "elds</w>": 4714,
  "spark": 4715,
  "vide": 4716,
  "rab": 4717,
  "series</w>": 4718,
  "retri": 4719,
  "gal": 4720,
  "lucy</w>": 4721,
  "access</w>": 4722,
  "lap": 4723,
  "faith</w>": 4724,
  "cop</w>": 4725,
  "gestured</w>": 4726,
  "caleb</w>": 4727,
  "detective</w>": 4728,
  "price</w>": 4729,
  "perio": 4730,
  "address</w>": 4731,
  "grinning</w>": 4732,
  "slapped</w>": 4733,
  "blank</w>": 4734,
  "journey</w>": 4735,
  "protection</w>": 4736,
  "eter": 4737,
  "lotte</w>": 4738,
  "ratt": 4739,
  "frightened</w>": 4740,
  "wrote</w>": 4741,
  "lating</w>": 4742,
  "suit": 4743,
  "surrounding</w>": 4744,
  "games</w>": 4745,
  "kid": 4746,
  "progre": 4747,
  "images</w>": 4748,
  "responsible</w>": 4749,
  "everybody</w>": 4750,
  "enor": 4751,
  "pack": 4752,
  "ousin</w>": 4753,
  "cousin</w>": 4754,
  "tense</w>": 4755,
  "garion</w>": 4756,
  "compani": 4757,
  "aly": 4758,
  "challenge</w>": 4759,
  "fea": 4760,
  "ctors</w>": 4761,
  "dean</w>": 4762,
  "wrap</w>": 4763,
  "guessed</w>": 4764,
  "possibility</w>": 4765,
  "fled</w>": 4766,
  "cam": 4767,
  "sunlight</w>": 4768,
  "mas": 4769,
  "skull</w>": 4770,
  "drive": 4771,
  "pple</w>": 4772,
  "strike</w>": 4773,
  "cursed</w>": 4774,
  "recently</w>": 4775,
  "wan</w>": 4776,
  "depen": 4777,
  "mare</w>": 4778,
  "terror</w>": 4779,
  "wy": 4780,
  "eked</w>": 4781,
  "argue</w>": 4782,
  "trace</w>": 4783,
  "autom": 4784,
  "violet</w>": 4785,
  "member</w>": 4786,
  "athan</w>": 4787,
  "bou": 4788,
  "hitting</w>": 4789,
  "vent</w>": 4790,
  "stion</w>": 4791,
  "mented</w>": 4792,
  "shame</w>": 4793,
  "senses</w>": 4794,
  "osity</w>": 4795,
  "cere": 4796,
  "adju": 4797,
  "tristan</w>": 4798,
  "ado": 4799,
  "keeps</w>": 4800,
  "struggling</w>": 4801,
  "buzz": 4802,
  "bows</w>": 4803,
  "vehicle</w>": 4804,
  "ghten</w>": 4805,
  "raising</w>": 4806,
  "drank</w>": 4807,
  "traffic</w>": 4808,
  "ghty</w>": 4809,
  "kat</w>": 4810,
  "exclaimed</w>": 4811,
  "charles</w>": 4812,
  "liz</w>": 4813,
  "yards</w>": 4814,
  "ade": 4815,
  "tract</w>": 4816,
  "unexpe": 4817,
  "sharply</w>": 4818,
  "prison": 4819,
  "ourselves</w>": 4820,
  "jected</w>": 4821,
  "cost</w>": 4822,
  "discuss</w>": 4823,
  "home": 4824,
  "location</w>": 4825,
  "blood": 4826,
  "dining</w>": 4827,
  "foun": 4828,
  "dismi": 4829,
  "punch</w>": 4830,
  "will": 4831,
  "hunting</w>": 4832,
  "nau": 4833,
  "dian</w>": 4834,
  "colate</w>": 4835,
  "bob</w>": 4836,
  "absen": 4837,
  "stag": 4838,
  "trusted</w>": 4839,
  "sel</w>": 4840,
  "breast</w>": 4841,
  "ckle</w>": 4842,
  "oughly</w>": 4843,
  "damp</w>": 4844,
  "stroked</w>": 4845,
  "andrew</w>": 4846,
  "regular</w>": 4847,
  "tough</w>": 4848,
  "brand": 4849,
  "cia</w>": 4850,
  "driveway</w>": 4851,
  "crystal</w>": 4852,
  "chocolate</w>": 4853,
  "occurred</w>": 4854,
  "loving</w>": 4855,
  "cage</w>": 4856,
  "birth</w>": 4857,
  "cops</w>": 4858,
  "los</w>": 4859,
  "scar</w>": 4860,
  "harry</w>": 4861,
  "bothered</w>": 4862,
  "abe</w>": 4863,
  "20": 4864,
  "ision</w>": 4865,
  "dal": 4866,
  "closely</w>": 4867,
  "mn</w>": 4868,
  "chill</w>": 4869,
  "seated</w>": 4870,
  "worl": 4871,
  "cations</w>": 4872,
  "telev": 4873,
  "letters</w>": 4874,
  "nathan</w>": 4875,
  "pidly</w>": 4876,
  "thetic</w>": 4877,
  "gant</w>": 4878,
  "remembering</w>": 4879,
  "according</w>": 4880,
  "jonathan</w>": 4881,
  "smith</w>": 4882,
  "volu": 4883,
  "louder</w>": 4884,
  "sau": 4885,
  "shudd": 4886,
  "somewhat</w>": 4887,
  "patted</w>": 4888,
  "explanation</w>": 4889,
  "sympa": 4890,
  "remo": 4891,
  "vet</w>": 4892,
  "replaced</w>": 4893,
  "strated</w>": 4894,
  "palace</w>": 4895,
  "covers</w>": 4896,
  "attached</w>": 4897,
  "shell</w>": 4898,
  "version</w>": 4899,
  "ises</w>": 4900,
  "mist</w>": 4901,
  "clau": 4902,
  "dating</w>": 4903,
  "wall": 4904,
  "poten": 4905,
  "volun": 4906,
  "bullet</w>": 4907,
  "christ</w>": 4908,
  "pot</w>": 4909,
  "existence</w>": 4910,
  "settle</w>": 4911,
  "scru": 4912,
  "research</w>": 4913,
  "gown</w>": 4914,
  "butt</w>": 4915,
  "py": 4916,
  "slowed</w>": 4917,
  "assume</w>": 4918,
  "liquid</w>": 4919,
  "behavi": 4920,
  "dollars</w>": 4921,
  "vibr": 4922,
  "seless</w>": 4923,
  "proper</w>": 4924,
  "manner</w>": 4925,
  "ylan</w>": 4926,
  "ordinary</w>": 4927,
  "inged</w>": 4928,
  "therine</w>": 4929,
  "tness</w>": 4930,
  "di</w>": 4931,
  "real": 4932,
  "cali": 4933,
  "ball": 4934,
  "thought": 4935,
  "cauti": 4936,
  "moaned</w>": 4937,
  "bac": 4938,
  "ggled</w>": 4939,
  "placing</w>": 4940,
  "shine</w>": 4941,
  "yden</w>": 4942,
  "thern</w>": 4943,
  "quarters</w>": 4944,
  "roo": 4945,
  "danny</w>": 4946,
  "gasp</w>": 4947,
  "crime</w>": 4948,
  "sheets</w>": 4949,
  "charlotte</w>": 4950,
  "struction</w>": 4951,
  "nodding</w>": 4952,
  "ti</w>": 4953,
  "great": 4954,
  "tray</w>": 4955,
  "ggy</w>": 4956,
  "lightning</w>": 4957,
  "hundreds</w>": 4958,
  "alec</w>": 4959,
  "declar": 4960,
  "decor": 4961,
  "tterly</w>": 4962,
  "degre": 4963,
  "raw</w>": 4964,
  "em": 4965,
  "moon": 4966,
  "fangs</w>": 4967,
  "roman": 4968,
  "insane</w>": 4969,
  "ray</w>": 4970,
  "predi": 4971,
  "pisto": 4972,
  "accu": 4973,
  "cake</w>": 4974,
  "drag</w>": 4975,
  "faction</w>": 4976,
  "oring</w>": 4977,
  "president</w>": 4978,
  "birds</w>": 4979,
  "clue</w>": 4980,
  "event</w>": 4981,
  "genu": 4982,
  "squir": 4983,
  "previous</w>": 4984,
  "happiness</w>": 4985,
  "issue</w>": 4986,
  "noted</w>": 4987,
  "teach</w>": 4988,
  "confidence</w>": 4989,
  "invited</w>": 4990,
  "rie</w>": 4991,
  "phy</w>": 4992,
  "blind</w>": 4993,
  "kidding</w>": 4994,
  "success": 4995,
  "evan</w>": 4996,
  "squeeze</w>": 4997,
  "pation</w>": 4998,
  "abandoned</w>": 4999,
  "grasp</w>": 5000,
  "pockets</w>": 5001,
  "load</w>": 5002,
  "drinks</w>": 5003,
  "bi</w>": 5004,
  "reas": 5005,
  "sse</w>": 5006,
  "pop</w>": 5007,
  "bleeding</w>": 5008,
  "drug</w>": 5009,
  "stops</w>": 5010,
  "ress</w>": 5011,
  "drake</w>": 5012,
  "studying</w>": 5013,
  "cigarette</w>": 5014,
  "record</w>": 5015,
  "agreement</w>": 5016,
  "laughs</w>": 5017,
  "amused</w>": 5018,
  "ggs</w>": 5019,
  "fence</w>": 5020,
  "trick</w>": 5021,
  "amanda</w>": 5022,
  "ax": 5023,
  "yly</w>": 5024,
  "confident</w>": 5025,
  "ori": 5026,
  "runs</w>": 5027,
  "television</w>": 5028,
  "trailed</w>": 5029,
  "veins</w>": 5030,
  "drops</w>": 5031,
  "loves</w>": 5032,
  "threatened</w>": 5033,
  "fake</w>": 5034,
  "sexual</w>": 5035,
  "ellie</w>": 5036,
  "zom": 5037,
  "alice</w>": 5038,
  "mere</w>": 5039,
  "remind</w>": 5040,
  "commi": 5041,
  "bread</w>": 5042,
  "extremely</w>": 5043,
  "stand": 5044,
  "spa": 5045,
  "haired</w>": 5046,
  "proof</w>": 5047,
  "teacher</w>": 5048,
  "shore</w>": 5049,
  "pied</w>": 5050,
  "colin</w>": 5051,
  "wrink": 5052,
  "strode</w>": 5053,
  "sophie</w>": 5054,
  "seas": 5055,
  "property</w>": 5056,
  "extended</w>": 5057,
  "jo</w>": 5058,
  "panties</w>": 5059,
  "eral</w>": 5060,
  "lan</w>": 5061,
  "monit": 5062,
  "former</w>": 5063,
  "ators</w>": 5064,
  "lab</w>": 5065,
  "original</w>": 5066,
  "stling</w>": 5067,
  "dae": 5068,
  "ful": 5069,
  "loaded</w>": 5070,
  "dick</w>": 5071,
  "shrug</w>": 5072,
  "fascin": 5073,
  "cap</w>": 5074,
  "plun": 5075,
  "eag": 5076,
  "deserved</w>": 5077,
  "flame</w>": 5078,
  "logical</w>": 5079,
  "tened</w>": 5080,
  "exposed</w>": 5081,
  "offering</w>": 5082,
  "vulner": 5083,
  "snap</w>": 5084,
  "claws</w>": 5085,
  "slipping</w>": 5086,
  "idan</w>": 5087,
  "dish</w>": 5088,
  "sees</w>": 5089,
  "ffin</w>": 5090,
  "states</w>": 5091,
  "sue</w>": 5092,
  "gavin</w>": 5093,
  "bear": 5094,
  "dylan</w>": 5095,
  "craft</w>": 5096,
  "material</w>": 5097,
  "disappointed</w>": 5098,
  "sheri": 5099,
  "suspect</w>": 5100,
  "kevin</w>": 5101,
  "virg": 5102,
  "exe": 5103,
  "code</w>": 5104,
  "profession": 5105,
  "medical</w>": 5106,
  "rings</w>": 5107,
  "devil</w>": 5108,
  "owns</w>": 5109,
  "trea": 5110,
  "lands</w>": 5111,
  "mates</w>": 5112,
  "fingertips</w>": 5113,
  "bars</w>": 5114,
  "nerves</w>": 5115,
  "shots</w>": 5116,
  "sper": 5117,
  "otic</w>": 5118,
  "universe</w>": 5119,
  "lust</w>": 5120,
  "enormous</w>": 5121,
  "susan</w>": 5122,
  "morgan</w>": 5123,
  "andra</w>": 5124,
  "grief</w>": 5125,
  "centuries</w>": 5126,
  "icy</w>": 5127,
  "grave</w>": 5128,
  "halt</w>": 5129,
  "fellow</w>": 5130,
  "sley</w>": 5131,
  "harsh</w>": 5132,
  "fabric</w>": 5133,
  "ob</w>": 5134,
  "surve": 5135,
  "hannah</w>": 5136,
  "feared</w>": 5137,
  "alley</w>": 5138,
  "agged</w>": 5139,
  "thousands</w>": 5140,
  "finn</w>": 5141,
  "curiosity</w>": 5142,
  "robe</w>": 5143,
  "bes</w>": 5144,
  "mmer": 5145,
  "justin</w>": 5146,
  "hopefully</w>": 5147,
  "lately</w>": 5148,
  "m.</w>": 5149,
  "belonged</w>": 5150,
  "project</w>": 5151,
  "victor</w>": 5152,
  "swing</w>": 5153,
  "bren": 5154,
  "social</w>": 5155,
  "ec": 5156,
  "para": 5157,
  "paint</w>": 5158,
  "succe": 5159,
  "ghted</w>": 5160,
  "inger</w>": 5161,
  "brick</w>": 5162,
  "delicate</w>": 5163,
  "swallow</w>": 5164,
  "spending</w>": 5165,
  "invisible</w>": 5166,
  "jects</w>": 5167,
  "shuddered</w>": 5168,
  "shining</w>": 5169,
  "mony</w>": 5170,
  "brilliant</w>": 5171,
  "saturday</w>": 5172,
  "expensive</w>": 5173,
  "realizing</w>": 5174,
  "ara</w>": 5175,
  "emerged</w>": 5176,
  "rifle</w>": 5177,
  "allowing</w>": 5178,
  "mass</w>": 5179,
  "serge": 5180,
  "anybody</w>": 5181,
  "afford</w>": 5182,
  "zens</w>": 5183,
  "gen</w>": 5184,
  "answering</w>": 5185,
  "nation</w>": 5186,
  "rier</w>": 5187,
  "sations</w>": 5188,
  "crack": 5189,
  "yo": 5190,
  "freedom</w>": 5191,
  "warriors</w>": 5192,
  "jordan</w>": 5193,
  "nervously</w>": 5194,
  "passenger</w>": 5195,
  "deliber": 5196,
  "dit</w>": 5197,
  "jealous</w>": 5198,
  "collapsed</w>": 5199,
  "guests</w>": 5200,
  "dd</w>": 5201,
  "shivered</w>": 5202,
  "rushing</w>": 5203,
  "kelly</w>": 5204,
  "midnight</w>": 5205,
  "gaz": 5206,
  "shorts</w>": 5207,
  "spinning</w>": 5208,
  "mac</w>": 5209,
  "cook</w>": 5210,
  "approaching</w>": 5211,
  "pay": 5212,
  "pment</w>": 5213,
  "arely</w>": 5214,
  "distracted</w>": 5215,
  "assass": 5216,
  "amber</w>": 5217,
  "object</w>": 5218,
  "rhyth": 5219,
  "advice</w>": 5220,
  "ghed</w>": 5221,
  "az": 5222,
  "hurting</w>": 5223,
  "horiz": 5224,
  "exact</w>": 5225,
  "sedu": 5226,
  "shown</w>": 5227,
  "tionally</w>": 5228,
  "choked</w>": 5229,
  "avail": 5230,
  "tate</w>": 5231,
  "required</w>": 5232,
  "awe": 5233,
  "cards</w>": 5234,
  "dily</w>": 5235,
  "brian</w>": 5236,
  "photo</w>": 5237,
  "teasing</w>": 5238,
  "wrists</w>": 5239,
  "screams</w>": 5240,
  "display</w>": 5241,
  "background</w>": 5242,
  "paris</w>": 5243,
  "sarca": 5244,
  "crawled</w>": 5245,
  "infe": 5246,
  "video</w>": 5247,
  "band": 5248,
  "create</w>": 5249,
  "ular</w>": 5250,
  "crete</w>": 5251,
  "dante</w>": 5252,
  "strained</w>": 5253,
  "overhead</w>": 5254,
  "ay</w>": 5255,
  "exploded</w>": 5256,
  "ora</w>": 5257,
  "flicked</w>": 5258,
  "xic": 5259,
  "precious</w>": 5260,
  "conven": 5261,
  "fairly</w>": 5262,
  "suck</w>": 5263,
  "bored</w>": 5264,
  "jacob</w>": 5265,
  "jenny</w>": 5266,
  "sign": 5267,
  "digging</w>": 5268,
  "scanned</w>": 5269,
  "mile</w>": 5270,
  "sofi": 5271,
  "impro": 5272,
  "pad</w>": 5273,
  "close": 5274,
  "impressed</w>": 5275,
  "rett</w>": 5276,
  "collar</w>": 5277,
  "commander</w>": 5278,
  "tis</w>": 5279,
  "eleven</w>": 5280,
  "bike</w>": 5281,
  "knu": 5282,
  "encoura": 5283,
  "isy</w>": 5284,
  "solve</w>": 5285,
  "llan</w>": 5286,
  "drugs</w>": 5287,
  "shopping</w>": 5288,
  "revealed</w>": 5289,
  "intri": 5290,
  "tracks</w>": 5291,
  "by": 5292,
  "ited</w>": 5293,
  "painting</w>": 5294,
  "hunger</w>": 5295,
  "quit</w>": 5296,
  "stained</w>": 5297,
  "circumstances</w>": 5298,
  "society</w>": 5299,
  "desert</w>": 5300,
  "scal": 5301,
  "sits</w>": 5302,
  "groan</w>": 5303,
  "ffy</w>": 5304,
  "mixed</w>": 5305,
  "tches</w>": 5306,
  "friday</w>": 5307,
  "rows</w>": 5308,
  "knelt</w>": 5309,
  "charged</w>": 5310,
  "eaten</w>": 5311,
  "ah": 5312,
  "boxes</w>": 5313,
  "gathering</w>": 5314,
  "matthe": 5315,
  "sunday</w>": 5316,
  "available</w>": 5317,
  "rence</w>": 5318,
  "sher": 5319,
  "resist</w>": 5320,
  "daemon</w>": 5321,
  "account</w>": 5322,
  "cement</w>": 5323,
  "tics</w>": 5324,
  "kyle</w>": 5325,
  "concrete</w>": 5326,
  "darling</w>": 5327,
  "cca</w>": 5328,
  "johnny</w>": 5329,
  "fanta": 5330,
  "wounds</w>": 5331,
  "sick": 5332,
  "lac": 5333,
  "neck": 5334,
  "inion</w>": 5335,
  "core</w>": 5336,
  "flushed</w>": 5337,
  "changes</w>": 5338,
  "breaths</w>": 5339,
  "tals</w>": 5340,
  "scienti": 5341,
  "informed</w>": 5342,
  "opinion</w>": 5343,
  "basi": 5344,
  "dim</w>": 5345,
  "moder": 5346,
  "roland</w>": 5347,
  "snea": 5348,
  "patient</w>": 5349,
  "jeremy</w>": 5350,
  "tasted</w>": 5351,
  "spare</w>": 5352,
  "detail</w>": 5353,
  "motioned</w>": 5354,
  "sandwi": 5355,
  "ava</w>": 5356,
  "sweat": 5357,
  "kane</w>": 5358,
  "direct</w>": 5359,
  "sell</w>": 5360,
  "shouting</w>": 5361,
  "forming</w>": 5362,
  "soli": 5363,
  "epy</w>": 5364,
  "com</w>": 5365,
  "friend": 5366,
  "inched</w>": 5367,
  "sages</w>": 5368,
  "alty</w>": 5369,
  "jerk</w>": 5370,
  "flar": 5371,
  "rare</w>": 5372,
  "department</w>": 5373,
  "crash</w>": 5374,
  "boring</w>": 5375,
  "sacri": 5376,
  "witne": 5377,
  "dragging</w>": 5378,
  "annoyed</w>": 5379,
  "dagger</w>": 5380,
  "lover</w>": 5381,
  "ey": 5382,
  "ffing</w>": 5383,
  "dude</w>": 5384,
  "stub": 5385,
  "deny</w>": 5386,
  "knocking</w>": 5387,
  "jackson</w>": 5388,
  "ko</w>": 5389,
  "farm</w>": 5390,
  "forms</w>": 5391,
  "lad</w>": 5392,
  "tish</w>": 5393,
  "protest</w>": 5394,
  "magaz": 5395,
  "drag": 5396,
  "punched</w>": 5397,
  "amusement</w>": 5398,
  "embrace</w>": 5399,
  "trunk</w>": 5400,
  "biting</w>": 5401,
  "terms</w>": 5402,
  "colt</w>": 5403,
  "mothers</w>": 5404,
  "waving</w>": 5405,
  "mara</w>": 5406,
  "colors</w>": 5407,
  "red": 5408,
  "uri": 5409,
  "appropri": 5410,
  "jax</w>": 5411,
  "eded</w>": 5412,
  "teased</w>": 5413,
  "tyler</w>": 5414,
  "ho</w>": 5415,
  "uniform</w>": 5416,
  "alter": 5417,
  "yers</w>": 5418,
  "sheriff</w>": 5419,
  "brushing</w>": 5420,
  "disappear</w>": 5421,
  "shaped</w>": 5422,
  "devon</w>": 5423,
  "champ": 5424,
  "exist</w>": 5425,
  "delicious</w>": 5426,
  "hunters</w>": 5427,
  "remains</w>": 5428,
  "trap</w>": 5429,
  "orted</w>": 5430,
  "arm": 5431,
  "glances</w>": 5432,
  "gates</w>": 5433,
  "eved</w>": 5434,
  "diamon": 5435,
  "promp": 5436,
  "exer": 5437,
  "actual</w>": 5438,
  "holl": 5439,
  "helen</w>": 5440,
  "branches</w>": 5441,
  "clary</w>": 5442,
  "wrapping</w>": 5443,
  "guest</w>": 5444,
  "bbled</w>": 5445,
  "sta</w>": 5446,
  "ene</w>": 5447,
  "aceful</w>": 5448,
  "aye</w>": 5449,
  "ga</w>": 5450,
  "lance</w>": 5451,
  "corners</w>": 5452,
  "singing</w>": 5453,
  "deon</w>": 5454,
  "flowing</w>": 5455,
  "work": 5456,
  "disbelief</w>": 5457,
  "yep</w>": 5458,
  "nine": 5459,
  "revealing</w>": 5460,
  "blast</w>": 5461,
  "vier</w>": 5462,
  "goodbye</w>": 5463,
  "thor</w>": 5464,
  "pages</w>": 5465,
  "shattered</w>": 5466,
  "reaches</w>": 5467,
  "ribs</w>": 5468,
  "poo": 5469,
  "ideas</w>": 5470,
  "symbo": 5471,
  "cases</w>": 5472,
  "backs</w>": 5473,
  "nasty</w>": 5474,
  "sparhawk</w>": 5475,
  "nightmare</w>": 5476,
  "royal</w>": 5477,
  "ption</w>": 5478,
  "winked</w>": 5479,
  "reveal</w>": 5480,
  "dled</w>": 5481,
  "market</w>": 5482,
  "ints</w>": 5483,
  "aria</w>": 5484,
  "hid</w>": 5485,
  "rapidly</w>": 5486,
  "liar</w>": 5487,
  "stiff</w>": 5488,
  "thus</w>": 5489,
  "ore": 5490,
  "ela": 5491,
  "tated</w>": 5492,
  "fog</w>": 5493,
  "lting</w>": 5494,
  "result</w>": 5495,
  "seats</w>": 5496,
  "weal": 5497,
  "fathers</w>": 5498,
  "satisfaction</w>": 5499,
  "fierce</w>": 5500,
  "doo": 5501,
  "tighter</w>": 5502,
  "belong</w>": 5503,
  "deal": 5504,
  "mmered</w>": 5505,
  "flash": 5506,
  "jon</w>": 5507,
  "shifting</w>": 5508,
  "circles</w>": 5509,
  "sentence</w>": 5510,
  "jessi": 5511,
  "thusi": 5512,
  "furnit": 5513,
  "famous</w>": 5514,
  "archi": 5515,
  "furniture</w>": 5516,
  "melissa</w>": 5517,
  "dess</w>": 5518,
  "wishing</w>": 5519,
  "credit</w>": 5520,
  "height</w>": 5521,
  "statu": 5522,
  "mud</w>": 5523,
  "ency</w>": 5524,
  "casual</w>": 5525,
  "trevor</w>": 5526,
  "pistol</w>": 5527,
  "eves</w>": 5528,
  "incredible</w>": 5529,
  "communi": 5530,
  "julie</w>": 5531,
  "chicken</w>": 5532,
  "llas</w>": 5533,
  "ggest</w>": 5534,
  "pus</w>": 5535,
  "dealing</w>": 5536,
  "curren": 5537,
  "survived</w>": 5538,
  "russi": 5539,
  "stuffed</w>": 5540,
  "opens</w>": 5541,
  "biggest</w>": 5542,
  "begins</w>": 5543,
  "owner</w>": 5544,
  "whipped</w>": 5545,
  "ni</w>": 5546,
  "swo": 5547,
  "enthusi": 5548,
  "cocked</w>": 5549,
  "skills</w>": 5550,
  "chann": 5551,
  "resc": 5552,
  "bride</w>": 5553,
  "cheer": 5554,
  "shane</w>": 5555,
  "knight</w>": 5556,
  "edges</w>": 5557,
  "mic</w>": 5558,
  "scattered</w>": 5559,
  "crept</w>": 5560,
  "dee</w>": 5561,
  "furious</w>": 5562,
  "pse</w>": 5563,
  "wait": 5564,
  "behavior</w>": 5565,
  "cab</w>": 5566,
  "shiver</w>": 5567,
  "request</w>": 5568,
  "clutched</w>": 5569,
  "owe</w>": 5570,
  "cupped</w>": 5571,
  "deni": 5572,
  "quinn</w>": 5573,
  "tour</w>": 5574,
  "option</w>": 5575,
  "remove</w>": 5576,
  "beard</w>": 5577,
  "minds</w>": 5578,
  "calmly</w>": 5579,
  "condition</w>": 5580,
  "shout</w>": 5581,
  "happily</w>": 5582,
  "period</w>": 5583,
  "link</w>": 5584,
  "tipped</w>": 5585,
  "tile</w>": 5586,
  "cliff</w>": 5587,
  "milk</w>": 5588,
  "puts</w>": 5589,
  "kicking</w>": 5590,
  "growl</w>": 5591,
  "sensitive</w>": 5592,
  "pity</w>": 5593,
  "provided</w>": 5594,
  "nis</w>": 5595,
  "roger</w>": 5596,
  "steal</w>": 5597,
  "consider": 5598,
  "gather</w>": 5599,
  "constant</w>": 5600,
  "sport</w>": 5601,
  "react</w>": 5602,
  "dea": 5603,
  "signific": 5604,
  "speech</w>": 5605,
  "mance</w>": 5606,
  "ong": 5607,
  "vern</w>": 5608,
  "literally</w>": 5609,
  "grunted</w>": 5610,
  "sidewalk</w>": 5611,
  "courage</w>": 5612,
  "tably</w>": 5613,
  "career</w>": 5614,
  "airport</w>": 5615,
  "arranged</w>": 5616,
  "lux": 5617,
  "apologize</w>": 5618,
  "announ": 5619,
  "range</w>": 5620,
  "bath</w>": 5621,
  "eness</w>": 5622,
  "excell": 5623,
  "fur</w>": 5624,
  "learning</w>": 5625,
  "student</w>": 5626,
  "inva": 5627,
  "nope</w>": 5628,
  "martin</w>": 5629,
  "emergency</w>": 5630,
  "winced</w>": 5631,
  "makeup</w>": 5632,
  "stry</w>": 5633,
  "anxious</w>": 5634,
  "valley</w>": 5635,
  "rupt</w>": 5636,
  "gear</w>": 5637,
  "patrick</w>": 5638,
  "som": 5639,
  "savan": 5640,
  "bitter</w>": 5641,
  "emotional</w>": 5642,
  "driven</w>": 5643,
  "zard</w>": 5644,
  "exchange</w>": 5645,
  "national</w>": 5646,
  "appoin": 5647,
  "moan</w>": 5648,
  "sweethe": 5649,
  "aver": 5650,
  "strip</w>": 5651,
  "child": 5652,
  "ella</w>": 5653,
  "blink</w>": 5654,
  "secure</w>": 5655,
  "eighteen</w>": 5656,
  "unusual</w>": 5657,
  "arrive</w>": 5658,
  "jim": 5659,
  "heal</w>": 5660,
  "enemi": 5661,
  "danced</w>": 5662,
  "miranda</w>": 5663,
  "families</w>": 5664,
  "swif": 5665,
  "tank</w>": 5666,
  "gor</w>": 5667,
  "lids</w>": 5668,
  "climbing</w>": 5669,
  "crimin": 5670,
  "execu": 5671,
  "freaking</w>": 5672,
  "enemies</w>": 5673,
  "throne</w>": 5674,
  "crossing</w>": 5675,
  "argument</w>": 5676,
  "tol": 5677,
  "vement</w>": 5678,
  "house": 5679,
  "gle</w>": 5680,
  "vidu": 5681,
  "injured</w>": 5682,
  "sday</w>": 5683,
  "sphere</w>": 5684,
  "defense</w>": 5685,
  "individu": 5686,
  "roared</w>": 5687,
  "veled</w>": 5688,
  "scor": 5689,
  "naturally</w>": 5690,
  "kha": 5691,
  "rest": 5692,
  "dge": 5693,
  "dull</w>": 5694,
  "duncan</w>": 5695,
  "equipment</w>": 5696,
  "sold</w>": 5697,
  "con</w>": 5698,
  "rescue</w>": 5699,
  "humor</w>": 5700,
  "frank": 5701,
  "ali</w>": 5702,
  "fourth</w>": 5703,
  "upward</w>": 5704,
  "rip</w>": 5705,
  "jessica</w>": 5706,
  "dressing</w>": 5707,
  "football</w>": 5708,
  "accent</w>": 5709,
  "based</w>": 5710,
  "stolen</w>": 5711,
  "spen": 5712,
  "sav": 5713,
  "cloak</w>": 5714,
  "hair": 5715,
  "struggle</w>": 5716,
  "mmit</w>": 5717,
  "disappear": 5718,
  "rin": 5719,
  "human": 5720,
  "floating</w>": 5721,
  "greeted</w>": 5722,
  "bal</w>": 5723,
  "ducked</w>": 5724,
  "lawyer</w>": 5725,
  "edith</w>": 5726,
  "vices</w>": 5727,
  "recall</w>": 5728,
  "wounded</w>": 5729,
  "closest</w>": 5730,
  "threatening</w>": 5731,
  "copy</w>": 5732,
  "carpet</w>": 5733,
  "dol": 5734,
  "sweetheart</w>": 5735,
  "icious</w>": 5736,
  "directions</w>": 5737,
  "protected</w>": 5738,
  "males</w>": 5739,
  "ny": 5740,
  "stretch</w>": 5741,
  "distin": 5742,
  "officers</w>": 5743,
  "bry": 5744,
  "whimp": 5745,
  "illumin": 5746,
  "katie</w>": 5747,
  "shortly</w>": 5748,
  "religi": 5749,
  "achi": 5750,
  "scul": 5751,
  "jet</w>": 5752,
  "separate</w>": 5753,
  "dried</w>": 5754,
  "anticipation</w>": 5755,
  "grim</w>": 5756,
  "kidna": 5757,
  "rout": 5758,
  "marie</w>": 5759,
  "roar</w>": 5760,
  "mpled</w>": 5761,
  "scree": 5762,
  "adven": 5763,
  "doc</w>": 5764,
  "jumping</w>": 5765,
  "glimpse</w>": 5766,
  "ri</w>": 5767,
  "demon": 5768,
  "hol</w>": 5769,
  "logi": 5770,
  "occupied</w>": 5771,
  "seful</w>": 5772,
  "bile</w>": 5773,
  "scary</w>": 5774,
  "derly</w>": 5775,
  "duke</w>": 5776,
  "movements</w>": 5777,
  "term</w>": 5778,
  "centur": 5779,
  "nity</w>": 5780,
  "alexander</w>": 5781,
  "giggled</w>": 5782,
  "tale</w>": 5783,
  "ghters</w>": 5784,
  "drawer</w>": 5785,
  "chased</w>": 5786,
  "expan": 5787,
  "oil</w>": 5788,
  "magn": 5789,
  "kel": 5790,
  "kily</w>": 5791,
  "lucien</w>": 5792,
  "wash": 5793,
  "heartbeat</w>": 5794,
  "ics</w>": 5795,
  "ris": 5796,
  "nearest</w>": 5797,
  "crashed</w>": 5798,
  "sele": 5799,
  "excellent</w>": 5800,
  "bin": 5801,
  "rate</w>": 5802,
  "perman": 5803,
  "impression</w>": 5804,
  "brave</w>": 5805,
  "hook</w>": 5806,
  "matthew</w>": 5807,
  "till</w>": 5808,
  "frustrated</w>": 5809,
  "clin": 5810,
  "realm</w>": 5811,
  "snake</w>": 5812,
  "crowded</w>": 5813,
  "taining</w>": 5814,
  "upright</w>": 5815,
  "gence</w>": 5816,
  "darted</w>": 5817,
  "century</w>": 5818,
  "bolt</w>": 5819,
  "wicked</w>": 5820,
  "holly</w>": 5821,
  "sadness</w>": 5822,
  "ruin</w>": 5823,
  "holiday</w>": 5824,
  "vari": 5825,
  "lobby</w>": 5826,
  "stroke</w>": 5827,
  "steph": 5828,
  "top": 5829,
  "mama</w>": 5830,
  "dney</w>": 5831,
  "jesse</w>": 5832,
  "gment</w>": 5833,
  "a.": 5834,
  "mason</w>": 5835,
  "begged</w>": 5836,
  "ador": 5837,
  "ctu": 5838,
  "spy</w>": 5839,
  "sixteen</w>": 5840,
  "ority</w>": 5841,
  "sucking</w>": 5842,
  "daw": 5843,
  "micro": 5844,
  "temper": 5845,
  "ruined</w>": 5846,
  "deadly</w>": 5847,
  "advi": 5848,
  "dated</w>": 5849,
  "flow</w>": 5850,
  "heather</w>": 5851,
  "rarely</w>": 5852,
  "swore</w>": 5853,
  "dar</w>": 5854,
  "casually</w>": 5855,
  "saving</w>": 5856,
  "feli": 5857,
  "ral": 5858,
  "disappointment</w>": 5859,
  "role</w>": 5860,
  "vulnerable</w>": 5861,
  "barn</w>": 5862,
  "edu": 5863,
  "dami": 5864,
  "colu": 5865,
  "elena</w>": 5866,
  "consequ": 5867,
  "beg</w>": 5868,
  "unexpected</w>": 5869,
  "shows</w>": 5870,
  "owen</w>": 5871,
  "yelling</w>": 5872,
  "suggest</w>": 5873,
  "awesome</w>": 5874,
  "cabin": 5875,
  "arro": 5876,
  "switch</w>": 5877,
  "healthy</w>": 5878,
  "curve</w>": 5879,
  "twin</w>": 5880,
  "tessa</w>": 5881,
  "snarled</w>": 5882,
  "estab": 5883,
  "mattered</w>": 5884,
  "torture</w>": 5885,
  "frequ": 5886,
  "tape</w>": 5887,
  "suspicious</w>": 5888,
  "twisting</w>": 5889,
  "sleeve</w>": 5890,
  "handful</w>": 5891,
  "alert</w>": 5892,
  "professional</w>": 5893,
  "clicked</w>": 5894,
  "vels</w>": 5895,
  "garrett</w>": 5896,
  "cke": 5897,
  "complicated</w>": 5898,
  "assi": 5899,
  "limbs</w>": 5900,
  "wandered</w>": 5901,
  "matic</w>": 5902,
  "pir": 5903,
  "edward</w>": 5904,
  "stance</w>": 5905,
  "hero</w>": 5906,
  "ele</w>": 5907,
  "toe</w>": 5908,
  "dave</w>": 5909,
  "fort</w>": 5910,
  "rob</w>": 5911,
  "unknown</w>": 5912,
  "try": 5913,
  "aline</w>": 5914,
  "saf": 5915,
  "coach</w>": 5916,
  "ville</w>": 5917,
  "absor": 5918,
  "ulti": 5919,
  "agony</w>": 5920,
  "tempor": 5921,
  "pretending</w>": 5922,
  "pounded</w>": 5923,
  "backpack</w>": 5924,
  "disgust</w>": 5925,
  "gg</w>": 5926,
  "multi": 5927,
  "zza</w>": 5928,
  "counted</w>": 5929,
  "prefer</w>": 5930,
  "permission</w>": 5931,
  "inge</w>": 5932,
  "march</w>": 5933,
  "civili": 5934,
  "cleaning</w>": 5935,
  "condi": 5936,
  "boot</w>": 5937,
  "adrian</w>": 5938,
  "circled</w>": 5939,
  "gained</w>": 5940,
  "progress</w>": 5941,
  "tar</w>": 5942,
  "flashing</w>": 5943,
  "tri</w>": 5944,
  "techni": 5945,
  "tara</w>": 5946,
  "stagg": 5947,
  "dging</w>": 5948,
  "basement</w>": 5949,
  "provide</w>": 5950,
  "hmm</w>": 5951,
  "conveni": 5952,
  "psychi": 5953,
  "tations</w>": 5954,
  "swiftly</w>": 5955,
  "water": 5956,
  "holden</w>": 5957,
  "docu": 5958,
  "attractive</w>": 5959,
  "contra": 5960,
  "fancy</w>": 5961,
  "sergeant</w>": 5962,
  "10</w>": 5963,
  "venge</w>": 5964,
  "tub</w>": 5965,
  "stically</w>": 5966,
  "sophia</w>": 5967,
  "settling</w>": 5968,
  "sin</w>": 5969,
  "molly</w>": 5970,
  "sharing</w>": 5971,
  "erin</w>": 5972,
  "kendra</w>": 5973,
  "goddess</w>": 5974,
  "existed</w>": 5975,
  "zer</w>": 5976,
  "stares</w>": 5977,
  "elbows</w>": 5978,
  "victim</w>": 5979,
  "rome</w>": 5980,
  "forces</w>": 5981,
  "mmering</w>": 5982,
  "sugar</w>": 5983,
  "string</w>": 5984,
  "stole</w>": 5985,
  "recent</w>": 5986,
  "violent</w>": 5987,
  "laying</w>": 5988,
  "ssment</w>": 5989,
  "arch": 5990,
  "folks</w>": 5991,
  "crouched</w>": 5992,
  "aidan</w>": 5993,
  "leapt</w>": 5994,
  "spencer</w>": 5995,
  "hollow</w>": 5996,
  "sideways</w>": 5997,
  "todd</w>": 5998,
  "acknowle": 5999,
  "sum": 6000,
  "darkened</w>": 6001,
  "screwed</w>": 6002,
  "mystery</w>": 6003,
  "priest</w>": 6004,
  "serving</w>": 6005,
  "influ": 6006,
  "babe</w>": 6007,
  "aar": 6008,
  "onic</w>": 6009,
  "ylor</w>": 6010,
  "university</w>": 6011,
  "blowing</w>": 6012,
  "potential</w>": 6013,
  "mattress</w>": 6014,
  "doubted</w>": 6015,
  "alcohol</w>": 6016,
  "isle</w>": 6017,
  "bullshit</w>": 6018,
  "kim</w>": 6019,
  "cruel</w>": 6020,
  "rese": 6021,
  "heli": 6022,
  "audience</w>": 6023,
  "armor</w>": 6024,
  "screw</w>": 6025,
  "hank</w>": 6026,
  "tag": 6027,
  "tney</w>": 6028,
  "movies</w>": 6029,
  "scrambled</w>": 6030,
  "justice</w>": 6031,
  "figu": 6032,
  "possessed</w>": 6033,
  "trade</w>": 6034,
  "attempted</w>": 6035,
  "swinging</w>": 6036,
  "kinds</w>": 6037,
  "sia</w>": 6038,
  "unconscious</w>": 6039,
  "gn</w>": 6040,
  "annie</w>": 6041,
  "vast</w>": 6042,
  "nest</w>": 6043,
  "confirmed</w>": 6044,
  "pilot</w>": 6045,
  "pou": 6046,
  "healing</w>": 6047,
  "ssly</w>": 6048,
  "repu": 6049,
  "flower</w>": 6050,
  "fred</w>": 6051,
  "marble</w>": 6052,
  "andre": 6053,
  "polite</w>": 6054,
  "iming</w>": 6055,
  "valu": 6056,
  "forear": 6057,
  "associ": 6058,
  "positive</w>": 6059,
  "greater</w>": 6060,
  "tensed</w>": 6061,
  "tioning</w>": 6062,
  "program</w>": 6063,
  "chances</w>": 6064,
  "guide</w>": 6065,
  "heated</w>": 6066,
  "awa": 6067,
  "dant</w>": 6068,
  "fits</w>": 6069,
  "haven</w>": 6070,
  "reluctantly</w>": 6071,
  "contents</w>": 6072,
  "chemi": 6073,
  "frowning</w>": 6074,
  "eth": 6075,
  "flor": 6076,
  "appropriate</w>": 6077,
  "patience</w>": 6078,
  "hesitation</w>": 6079,
  "horizon</w>": 6080,
  "begging</w>": 6081,
  "hanna</w>": 6082,
  "neighbor": 6083,
  "therefore</w>": 6084,
  "chaos</w>": 6085,
  "whispering</w>": 6086,
  "endless</w>": 6087,
  "ego</w>": 6088,
  "gideon</w>": 6089,
  "tant</w>": 6090,
  "blocks</w>": 6091,
  "camp": 6092,
  "mercy</w>": 6093,
  "zer": 6094,
  "ashe</w>": 6095,
  "vivi": 6096,
  "fields</w>": 6097,
  "corpor": 6098,
  "sets</w>": 6099,
  "balcon": 6100,
  "content</w>": 6101,
  "ridge</w>": 6102,
  "souls</w>": 6103,
  "maje": 6104,
  "grandma</w>": 6105,
  "holes</w>": 6106,
  "lonely</w>": 6107,
  "incredibly</w>": 6108,
  "clutching</w>": 6109,
  "aid</w>": 6110,
  "clined</w>": 6111,
  "freak</w>": 6112,
  "jail</w>": 6113,
  "pattern</w>": 6114,
  "signal</w>": 6115,
  "buddy</w>": 6116,
  "temper</w>": 6117,
  "thick": 6118,
  "worthy</w>": 6119,
  "echo</w>": 6120,
  "astoni": 6121,
  "gabe</w>": 6122,
  "discover</w>": 6123,
  "aire</w>": 6124,
  "unsure</w>": 6125,
  "melted</w>": 6126,
  "dges</w>": 6127,
  "trembled</w>": 6128,
  "spilled</w>": 6129,
  "manu": 6130,
  "posing</w>": 6131,
  "reassur": 6132,
  "assistant</w>": 6133,
  "alien</w>": 6134,
  "mai": 6135,
  "ised</w>": 6136,
  "thful</w>": 6137,
  "post": 6138,
  "solved</w>": 6139,
  "flies</w>": 6140,
  "hooked</w>": 6141,
  "lisa</w>": 6142,
  "yaw": 6143,
  "reflection</w>": 6144,
  "classes</w>": 6145,
  "lamp</w>": 6146,
  "captured</w>": 6147,
  "laura</w>": 6148,
  "intent</w>": 6149,
  "supplies</w>": 6150,
  "ples</w>": 6151,
  "pouring</w>": 6152,
  "traveled</w>": 6153,
  "waking</w>": 6154,
  "curved</w>": 6155,
  "useless</w>": 6156,
  "note": 6157,
  "random</w>": 6158,
  "pical</w>": 6159,
  "shiny</w>": 6160,
  "route</w>": 6161,
  "wher": 6162,
  "constantly</w>": 6163,
  "carved</w>": 6164,
  "appears</w>": 6165,
  "ox": 6166,
  "ila</w>": 6167,
  "consciousness</w>": 6168,
  "edly</w>": 6169,
  "toi": 6170,
  "sively</w>": 6171,
  "inny</w>": 6172,
  "community</w>": 6173,
  "lers</w>": 6174,
  "envelope</w>": 6175,
  "orgasm</w>": 6176,
  "quir": 6177,
  "success</w>": 6178,
  "located</w>": 6179,
  "aloud</w>": 6180,
  "modern</w>": 6181,
  "protective</w>": 6182,
  "ender</w>": 6183,
  "vau": 6184,
  "pinned</w>": 6185,
  "snatched</w>": 6186,
  "forei": 6187,
  "magical</w>": 6188,
  "fashion</w>": 6189,
  "rolls</w>": 6190,
  "romantic</w>": 6191,
  "sten": 6192,
  "syl": 6193,
  "explosion</w>": 6194,
  "bies</w>": 6195,
  "attitude</w>": 6196,
  "physically</w>": 6197,
  "dipped</w>": 6198,
  "needing</w>": 6199,
  "cleaned</w>": 6200,
  "meredith</w>": 6201,
  "violence</w>": 6202,
  "helpless</w>": 6203,
  "soaked</w>": 6204,
  "atri": 6205,
  "knuckles</w>": 6206,
  "vine</w>": 6207,
  "intensity</w>": 6208,
  "oes</w>": 6209,
  "decent</w>": 6210,
  "instinct</w>": 6211,
  "show": 6212,
  "america</w>": 6213,
  "monday</w>": 6214,
  "jess</w>": 6215,
  "kri": 6216,
  "hired</w>": 6217,
  "breasts</w>": 6218,
  "bron": 6219,
  "citing</w>": 6220,
  "bot</w>": 6221,
  "cart</w>": 6222,
  "hills</w>": 6223,
  "photos</w>": 6224,
  "eron</w>": 6225,
  "fold</w>": 6226,
  "initi": 6227,
  "issues</w>": 6228,
  "smirk</w>": 6229,
  "items</w>": 6230,
  "dig</w>": 6231,
  "icky</w>": 6232,
  "blinking</w>": 6233,
  "mentally</w>": 6234,
  "hin": 6235,
  "ative</w>": 6236,
  "wherever</w>": 6237,
  "thly</w>": 6238,
  "countered</w>": 6239,
  "curls</w>": 6240,
  "werewolf</w>": 6241,
  "book": 6242,
  "imagination</w>": 6243,
  "turing</w>": 6244,
  "leg": 6245,
  "ann</w>": 6246,
  "brand</w>": 6247,
  "acts</w>": 6248,
  "loun": 6249,
  "psycho": 6250,
  "stock</w>": 6251,
  "ves": 6252,
  "row": 6253,
  "merci": 6254,
  "moonlight</w>": 6255,
  "aging</w>": 6256,
  "sheer</w>": 6257,
  "snow": 6258,
  "purpo": 6259,
  "stiffened</w>": 6260,
  "abilities</w>": 6261,
  "friendship</w>": 6262,
  "ell": 6263,
  "flung</w>": 6264,
  "berry</w>": 6265,
  "impact</w>": 6266,
  "traced</w>": 6267,
  "slumped</w>": 6268,
  "declared</w>": 6269,
  "reck": 6270,
  "ket</w>": 6271,
  "inspe": 6272,
  "jenni": 6273,
  "character</w>": 6274,
  "ghtest</w>": 6275,
  "intru": 6276,
  "mada": 6277,
  "scowled</w>": 6278,
  "gwen</w>": 6279,
  "stirred</w>": 6280,
  "cely</w>": 6281,
  "contained</w>": 6282,
  "science</w>": 6283,
  "dripping</w>": 6284,
  "jessie</w>": 6285,
  "theory</w>": 6286,
  "fruit</w>": 6287,
  "glor": 6288,
  "figures</w>": 6289,
  "stroking</w>": 6290,
  "grimaced</w>": 6291,
  "official</w>": 6292,
  "schoo": 6293,
  "branch</w>": 6294,
  "aked</w>": 6295,
  "servan": 6296,
  "wipe</w>": 6297,
  "spat</w>": 6298,
  "servant</w>": 6299,
  "swollen</w>": 6300,
  "laptop</w>": 6301,
  "pizza</w>": 6302,
  "proved</w>": 6303,
  "highway</w>": 6304,
  "panic": 6305,
  "obse": 6306,
  "arse</w>": 6307,
  "hurts</w>": 6308,
  "percent</w>": 6309,
  "lang": 6310,
  "pare</w>": 6311,
  "sticking</w>": 6312,
  "clung</w>": 6313,
  "surprisingly</w>": 6314,
  "nipple</w>": 6315,
  "chea": 6316,
  "arran": 6317,
  "gym</w>": 6318,
  "central</w>": 6319,
  "suffering</w>": 6320,
  "jimmy</w>": 6321,
  "arrow</w>": 6322,
  "dise": 6323,
  "leads</w>": 6324,
  "trigger</w>": 6325,
  "tire</w>": 6326,
  "foolish</w>": 6327,
  "safely</w>": 6328,
  "responsibility</w>": 6329,
  "lane</w>": 6330,
  "twins</w>": 6331,
  "tangled</w>": 6332,
  "milli": 6333,
  "chor": 6334,
  "coast</w>": 6335,
  "lesson</w>": 6336,
  "tattoo</w>": 6337,
  "sally</w>": 6338,
  "servants</w>": 6339,
  "slave</w>": 6340,
  "traveling</w>": 6341,
  "atic</w>": 6342,
  "device</w>": 6343,
  "arrange": 6344,
  "gripping</w>": 6345,
  "celebr": 6346,
  "properly</w>": 6347,
  "tee</w>": 6348,
  "prepare</w>": 6349,
  "useful</w>": 6350,
  "plant</w>": 6351,
  "maria</w>": 6352,
  "spreading</w>": 6353,
  "estate</w>": 6354,
  "anxi": 6355,
  "zoe</w>": 6356,
  "rhythm</w>": 6357,
  "warn</w>": 6358,
  "olas</w>": 6359,
  "treat": 6360,
  "oul</w>": 6361,
  "yell</w>": 6362,
  "brandon</w>": 6363,
  "compared</w>": 6364,
  "shone</w>": 6365,
  "cock": 6366,
  "collection</w>": 6367,
  "structure</w>": 6368,
  "faci": 6369,
  "swords</w>": 6370,
  "twist</w>": 6371,
  "dock</w>": 6372,
  "shove</w>": 6373,
  "lei": 6374,
  "stool</w>": 6375,
  "agu": 6376,
  "separated</w>": 6377,
  "enz": 6378,
  "compre": 6379,
  "var</w>": 6380,
  "flowed</w>": 6381,
  "fain": 6382,
  "shelf</w>": 6383,
  "ppers</w>": 6384,
  "eds</w>": 6385,
  "murdered</w>": 6386,
  "suffer</w>": 6387,
  "united</w>": 6388,
  "rocked</w>": 6389,
  "delivered</w>": 6390,
  "highly</w>": 6391,
  "dwar": 6392,
  "utterly</w>": 6393,
  "raven</w>": 6394,
  "planted</w>": 6395,
  "dammit</w>": 6396,
  "patch</w>": 6397,
  "cheese</w>": 6398,
  "flir": 6399,
  "erup": 6400,
  "suite</w>": 6401,
  "keeper</w>": 6402,
  "chuckle</w>": 6403,
  "mounted</w>": 6404,
  "bic": 6405,
  "tatt": 6406,
  "della</w>": 6407,
  "lyn</w>": 6408,
  "ams</w>": 6409,
  "abor": 6410,
  "witness</w>": 6411,
  "ett": 6412,
  "caring</w>": 6413,
  "drained</w>": 6414,
  "jennifer</w>": 6415,
  "click</w>": 6416,
  "occasionally</w>": 6417,
  "sweater</w>": 6418,
  "blocked</w>": 6419,
  "brings</w>": 6420,
  "tren": 6421,
  "stack</w>": 6422,
  "mond</w>": 6423,
  "tess</w>": 6424,
  "personally</w>": 6425,
  "directed</w>": 6426,
  "elli": 6427,
  "quarter</w>": 6428,
  "daisy</w>": 6429,
  "tearing</w>": 6430,
  "dur": 6431,
  "spirits</w>": 6432,
  "lations</w>": 6433,
  "rounded</w>": 6434,
  "health</w>": 6435,
  "crushed</w>": 6436,
  "nings</w>": 6437,
  "sten</w>": 6438,
  "karen</w>": 6439,
  "arrival</w>": 6440,
  "iler</w>": 6441,
  "butter": 6442,
  "ankle</w>": 6443,
  "ryder</w>": 6444,
  "seek</w>": 6445,
  "rude</w>": 6446,
  "ringing</w>": 6447,
  "aaron</w>": 6448,
  "sps</w>": 6449,
  "backwards</w>": 6450,
  "chica": 6451,
  "trash</w>": 6452,
  "sole</w>": 6453,
  "vens</w>": 6454,
  "funeral</w>": 6455,
  "exchanged</w>": 6456,
  "sore</w>": 6457,
  "preferred</w>": 6458,
  "courty": 6459,
  "balcony</w>": 6460,
  "pear": 6461,
  "intention</w>": 6462,
  "wardly</w>": 6463,
  "bio": 6464,
  "locks</w>": 6465,
  "refuse</w>": 6466,
  "facts</w>": 6467,
  "carriage</w>": 6468,
  "gau": 6469,
  "jenks</w>": 6470,
  "ppled</w>": 6471,
  "continues</w>": 6472,
  "quire</w>": 6473,
  "schedule</w>": 6474,
  "cries</w>": 6475,
  "dation</w>": 6476,
  "protecting</w>": 6477,
  "suits</w>": 6478,
  "cip": 6479,
  "childhood</w>": 6480,
  "passage</w>": 6481,
  "ential</w>": 6482,
  "dreamed</w>": 6483,
  "stable</w>": 6484,
  "pie</w>": 6485,
  "unit</w>": 6486,
  "brad</w>": 6487,
  "smirked</w>": 6488,
  "gid</w>": 6489,
  "tribu": 6490,
  "demand</w>": 6491,
  "rail</w>": 6492,
  "uten": 6493,
  "mug</w>": 6494,
  "dumb</w>": 6495,
  "scars</w>": 6496,
  "habit</w>": 6497,
  "legi": 6498,
  "grade</w>": 6499,
  "mson</w>": 6500,
  "wildly</w>": 6501,
  "salt</w>": 6502,
  "etr": 6503,
  "eggs</w>": 6504,
  "eni": 6505,
  "adren": 6506,
  "surren": 6507,
  "introduced</w>": 6508,
  "employe": 6509,
  "dale</w>": 6510,
  "yle</w>": 6511,
  "chicago</w>": 6512,
  "wiping</w>": 6513,
  "sought</w>": 6514,
  "pin</w>": 6515,
  "nerve</w>": 6516,
  "anging</w>": 6517,
  "blown</w>": 6518,
  "counting</w>": 6519,
  "joining</w>": 6520,
  "ousy</w>": 6521,
  "hammer</w>": 6522,
  "devo": 6523,
  "distri": 6524,
  "waters</w>": 6525,
  "abu": 6526,
  "citi": 6527,
  "11</w>": 6528,
  "atus</w>": 6529,
  "gloves</w>": 6530,
  "exhaled</w>": 6531,
  "ak": 6532,
  "mix</w>": 6533,
  "taylor</w>": 6534,
  "carter</w>": 6535,
  "stretching</w>": 6536,
  "strangely</w>": 6537,
  "neu": 6538,
  "maid</w>": 6539,
  "grea": 6540,
  "plates</w>": 6541,
  "pete</w>": 6542,
  "represen": 6543,
  "scare</w>": 6544,
  "nett</w>": 6545,
  "questioned</w>": 6546,
  "li</w>": 6547,
  "dley</w>": 6548,
  "discussion</w>": 6549,
  "staircase</w>": 6550,
  "neighborhood</w>": 6551,
  "ragged</w>": 6552,
  "panting</w>": 6553,
  "divor": 6554,
  "shelter</w>": 6555,
  "thirteen</w>": 6556,
  "sher</w>": 6557,
  "tane": 6558,
  "booth</w>": 6559,
  "isaac</w>": 6560,
  "quo": 6561,
  "mmm</w>": 6562,
  "matched</w>": 6563,
  "cycle</w>": 6564,
  "glu": 6565,
  "sofia</w>": 6566,
  "ita</w>": 6567,
  "crown</w>": 6568,
  "ynn</w>": 6569,
  "false</w>": 6570,
  "entering</w>": 6571,
  "repeat</w>": 6572,
  "rh": 6573,
  "o'clock</w>": 6574,
  "sorts</w>": 6575,
  "avoiding</w>": 6576,
  "preparing</w>": 6577,
  "controlled</w>": 6578,
  "revenge</w>": 6579,
  "andy</w>": 6580,
  "apple</w>": 6581,
  "unting</w>": 6582,
  "angels</w>": 6583,
  "llers</w>": 6584,
  "lawn</w>": 6585,
  "super</w>": 6586,
  "min</w>": 6587,
  "anie</w>": 6588,
  "anxiety</w>": 6589,
  "ances</w>": 6590,
  "nly</w>": 6591,
  "spit</w>": 6592,
  "spin</w>": 6593,
  "stefan</w>": 6594,
  "dragons</w>": 6595,
  "magnus</w>": 6596,
  "aiden</w>": 6597,
  "taller</w>": 6598,
  "murder": 6599,
  "pounds</w>": 6600,
  "ji</w>": 6601,
  "nich": 6602,
  "bour": 6603,
  "ump": 6604,
  "doctors</w>": 6605,
  "charm</w>": 6606,
  "slamming</w>": 6607,
  "defend</w>": 6608,
  "successful</w>": 6609,
  "concentrate</w>": 6610,
  "phra": 6611,
  "switched</w>": 6612,
  "mors</w>": 6613,
  "mysterious</w>": 6614,
  "courtyard</w>": 6615,
  "sser</w>": 6616,
  "fear": 6617,
  "solution</w>": 6618,
  "melo": 6619,
  "wren": 6620,
  "complex</w>": 6621,
  "puzzled</w>": 6622,
  "tter": 6623,
  "spraw": 6624,
  "expec": 6625,
  "cassi": 6626,
  "damon</w>": 6627,
  "crawl</w>": 6628,
  "lyn": 6629,
  "oliver</w>": 6630,
  "remote</w>": 6631,
  "joseph</w>": 6632,
  "observed</w>": 6633,
  "rily</w>": 6634,
  "heel</w>": 6635,
  "bottles</w>": 6636,
  "thra": 6637,
  "babies</w>": 6638,
  "necklace</w>": 6639,
  "restra": 6640,
  "meta": 6641,
  "privacy</w>": 6642,
  "pan</w>": 6643,
  "thal</w>": 6644,
  "tops</w>": 6645,
  "enna</w>": 6646,
  "din</w>": 6647,
  "incident</w>": 6648,
  "wire</w>": 6649,
  "crashing</w>": 6650,
  "buttons</w>": 6651,
  "asha": 6652,
  "grabs</w>": 6653,
  "eps</w>": 6654,
  "hopes</w>": 6655,
  "tance</w>": 6656,
  "cooking</w>": 6657,
  "cooper</w>": 6658,
  "suffered</w>": 6659,
  "fail</w>": 6660,
  "flickered</w>": 6661,
  "stark</w>": 6662,
  "bullets</w>": 6663,
  "lighting</w>": 6664,
  "stubborn</w>": 6665,
  "shaft</w>": 6666,
  "limp</w>": 6667,
  "overwhelming</w>": 6668,
  "ano</w>": 6669,
  "squeezing</w>": 6670,
  "vincent</w>": 6671,
  "che</w>": 6672,
  "rat</w>": 6673,
  "candy</w>": 6674,
  "fourteen</w>": 6675,
  "miracle</w>": 6676,
  "coinci": 6677,
  "prey</w>": 6678,
  "llowing</w>": 6679,
  "spite</w>": 6680,
  "sor</w>": 6681,
  "bounced</w>": 6682,
  "utter</w>": 6683,
  "guit": 6684,
  "fork</w>": 6685,
  "visited</w>": 6686,
  "flip</w>": 6687,
  "messages</w>": 6688,
  "califor": 6689,
  "jude</w>": 6690,
  "trial</w>": 6691,
  "ski</w>": 6692,
  "vance</w>": 6693,
  "mbles</w>": 6694,
  "immediate</w>": 6695,
  "velvet</w>": 6696,
  "miserable</w>": 6697,
  "tossing</w>": 6698,
  "degree</w>": 6699,
  "dity</w>": 6700,
  "inev": 6701,
  "chasing</w>": 6702,
  "interior</w>": 6703,
  "aimed</w>": 6704,
  "mingly</w>": 6705,
  "nostri": 6706,
  "nina</w>": 6707,
  "latest</w>": 6708,
  "dreaming</w>": 6709,
  "muffled</w>": 6710,
  "monsters</w>": 6711,
  "charming</w>": 6712,
  "helico": 6713,
  "instructions</w>": 6714,
  "tred</w>": 6715,
  "sadly</w>": 6716,
  "ddling</w>": 6717,
  "cautiously</w>": 6718,
  "curtain</w>": 6719,
  "ro</w>": 6720,
  "eternity</w>": 6721,
  "bend</w>": 6722,
  "ange": 6723,
  "licen": 6724,
  "related</w>": 6725,
  "commanded</w>": 6726,
  "dles</w>": 6727,
  "raz": 6728,
  "salv": 6729,
  "rain": 6730,
  "hatred</w>": 6731,
  "mali": 6732,
  "questioning</w>": 6733,
  "ain</w>": 6734,
  "included</w>": 6735,
  "bury</w>": 6736,
  "intelligence</w>": 6737,
  "leo</w>": 6738,
  "techno": 6739,
  "adver": 6740,
  "finds</w>": 6741,
  "smells</w>": 6742,
  "omi</w>": 6743,
  "tons</w>": 6744,
  "12</w>": 6745,
  "volunte": 6746,
  "mistress</w>": 6747,
  "fortune</w>": 6748,
  "offen": 6749,
  "fairy</w>": 6750,
  "numb": 6751,
  "punishment</w>": 6752,
  "slap</w>": 6753,
  "damien</w>": 6754,
  "seeking</w>": 6755,
  "pened</w>": 6756,
  "native</w>": 6757,
  "equally</w>": 6758,
  "cade</w>": 6759,
  "itable</w>": 6760,
  "sins</w>": 6761,
  "flashlight</w>": 6762,
  "p.": 6763,
  "dane</w>": 6764,
  "boar": 6765,
  "nail</w>": 6766,
  "benef": 6767,
  "mexic": 6768,
  "flared</w>": 6769,
  "impressive</w>": 6770,
  "floated</w>": 6771,
  "beth": 6772,
  "handing</w>": 6773,
  "currently</w>": 6774,
  "eing</w>": 6775,
  "odd": 6776,
  "someday</w>": 6777,
  "talent</w>": 6778,
  "outs</w>": 6779,
  "saman": 6780,
  "greatest</w>": 6781,
  "geon</w>": 6782,
  "grounds</w>": 6783,
  "contract</w>": 6784,
  "poison</w>": 6785,
  "grasped</w>": 6786,
  "scratched</w>": 6787,
  "boards</w>": 6788,
  "invitation</w>": 6789,
  "eva</w>": 6790,
  "certainty</w>": 6791,
  "refer": 6792,
  "atlan": 6793,
  "feeding</w>": 6794,
  "cotton</w>": 6795,
  "surprising</w>": 6796,
  "pha</w>": 6797,
  "shoving</w>": 6798,
  "stake</w>": 6799,
  "underground</w>": 6800,
  "brac": 6801,
  "natali": 6802,
  "rub</w>": 6803,
  "thunder</w>": 6804,
  "cti": 6805,
  "goddamn</w>": 6806,
  "daily</w>": 6807,
  "bobby</w>": 6808,
  "jew": 6809,
  "kins</w>": 6810,
  "attle</w>": 6811,
  "kies</w>": 6812,
  "swimming</w>": 6813,
  "nuts</w>": 6814,
  "bomb</w>": 6815,
  "jill</w>": 6816,
  "hei": 6817,
  "cameron</w>": 6818,
  "warmed</w>": 6819,
  "hits</w>": 6820,
  "descended</w>": 6821,
  "cain</w>": 6822,
  "bat</w>": 6823,
  "nap": 6824,
  "maged</w>": 6825,
  "prevent</w>": 6826,
  "territory</w>": 6827,
  "hearts</w>": 6828,
  "dens</w>": 6829,
  "thorne</w>": 6830,
  "cane</w>": 6831,
  "california</w>": 6832,
  "ku": 6833,
  "si</w>": 6834,
  "crush</w>": 6835,
  "regardless</w>": 6836,
  "worlds</w>": 6837,
  "laws</w>": 6838,
  "fires</w>": 6839,
  "foreign</w>": 6840,
  "underwear</w>": 6841,
  "knot</w>": 6842,
  "gland</w>": 6843,
  "dallas</w>": 6844,
  "strate": 6845,
  "mately</w>": 6846,
  "phones</w>": 6847,
  "monica</w>": 6848,
  "investigation</w>": 6849,
  "ba</w>": 6850,
  "toler": 6851,
  "sual</w>": 6852,
  "species</w>": 6853,
  "intently</w>": 6854,
  "director</w>": 6855,
  "defeat</w>": 6856,
  "veness</w>": 6857,
  "client</w>": 6858,
  "aci": 6859,
  "bilities</w>": 6860,
  "motor": 6861,
  "terr": 6862,
  "sole": 6863,
  "ladder</w>": 6864,
  "oured</w>": 6865,
  "bin</w>": 6866,
  "roads</w>": 6867,
  "kings</w>": 6868,
  "newspa": 6869,
  "lifetime</w>": 6870,
  "lif": 6871,
  "classi": 6872,
  "design</w>": 6873,
  "katherine</w>": 6874,
  "designed</w>": 6875,
  "clasped</w>": 6876,
  "'em</w>": 6877,
  "tici": 6878,
  "but": 6879,
  "neil</w>": 6880,
  "presu": 6881,
  "sinking</w>": 6882,
  "eline</w>": 6883,
  "afterward</w>": 6884,
  "pierce</w>": 6885,
  "mitch</w>": 6886,
  "lexi</w>": 6887,
  "glowed</w>": 6888,
  "pretended</w>": 6889,
  "metho": 6890,
  "intimate</w>": 6891,
  "sacrifice</w>": 6892,
  "dusty</w>": 6893,
  "gentleman</w>": 6894,
  "slender</w>": 6895,
  "cuts</w>": 6896,
  "whis": 6897,
  "basket</w>": 6898,
  "cheap</w>": 6899,
  "jenna</w>": 6900,
  "exerci": 6901,
  "thankfully</w>": 6902,
  "platform</w>": 6903,
  "decisions</w>": 6904,
  "amelia</w>": 6905,
  "crun": 6906,
  "activity</w>": 6907,
  "creating</w>": 6908,
  "communic": 6909,
  "tful</w>": 6910,
  "ankles</w>": 6911,
  "believing</w>": 6912,
  "clean": 6913,
  "tality</w>": 6914,
  "manager</w>": 6915,
  "options</w>": 6916,
  "reflected</w>": 6917,
  "delight</w>": 6918,
  "tz</w>": 6919,
  "agents</w>": 6920,
  "adrenaline</w>": 6921,
  "grumbled</w>": 6922,
  "legal</w>": 6923,
  "prisoner</w>": 6924,
  "toby</w>": 6925,
  "tre</w>": 6926,
  "sixty</w>": 6927,
  "newspaper</w>": 6928,
  "isa</w>": 6929,
  "vagu": 6930,
  "fs</w>": 6931,
  "nostrils</w>": 6932,
  "empha": 6933,
  "moment": 6934,
  "files</w>": 6935,
  "barrel</w>": 6936,
  "example</w>": 6937,
  "samantha</w>": 6938,
  "model</w>": 6939,
  "darker</w>": 6940,
  "iri": 6941,
  "indicated</w>": 6942,
  "absolute</w>": 6943,
  "atop</w>": 6944,
  "email</w>": 6945,
  "knob</w>": 6946,
  "results</w>": 6947,
  "bore</w>": 6948,
  "pat</w>": 6949,
  "jewel": 6950,
  "nik": 6951,
  "attend</w>": 6952,
  "ez</w>": 6953,
  "callum</w>": 6954,
  "mighty</w>": 6955,
  "dared</w>": 6956,
  "cups</w>": 6957,
  "twitched</w>": 6958,
  "draped</w>": 6959,
  "hire</w>": 6960,
  "shaky</w>": 6961,
  "anton": 6962,
  "jobs</w>": 6963,
  "deliberately</w>": 6964,
  "southern</w>": 6965,
  "rafe</w>": 6966,
  "persu": 6967,
  "groups</w>": 6968,
  "sack</w>": 6969,
  "england</w>": 6970,
  "wrinkled</w>": 6971,
  "atory</w>": 6972,
  "tiger</w>": 6973,
  "interview</w>": 6974,
  "rol</w>": 6975,
  "sydney</w>": 6976,
  "described</w>": 6977,
  "lauren</w>": 6978,
  "long": 6979,
  "yalty</w>": 6980,
  "sniffed</w>": 6981,
  "goal</w>": 6982,
  "authority</w>": 6983,
  "icient</w>": 6984,
  "dread</w>": 6985,
  "barked</w>": 6986,
  "cameras</w>": 6987,
  "ented</w>": 6988,
  "fears</w>": 6989,
  "betrayed</w>": 6990,
  "waitress</w>": 6991,
  "walker</w>": 6992,
  "glaring</w>": 6993,
  "seventeen</w>": 6994,
  "jay</w>": 6995,
  "blades</w>": 6996,
  "triump": 6997,
  "mos</w>": 6998,
  "color": 6999,
  "records</w>": 7000,
  "magazine</w>": 7001,
  "prophe": 7002,
  "aisle</w>": 7003,
  "tims</w>": 7004,
  "matching</w>": 7005,
  "gary</w>": 7006,
  "mayor</w>": 7007,
  "zach</w>": 7008,
  "xon</w>": 7009,
  "efforts</w>": 7010,
  "locker</w>": 7011,
  "worrying</w>": 7012,
  "clever</w>": 7013,
  "routine</w>": 7014,
  "shadow": 7015,
  "acles</w>": 7016,
  "sunshine</w>": 7017,
  "era</w>": 7018,
  "kingdom</w>": 7019,
  "cating</w>": 7020,
  "helmet</w>": 7021,
  "affected</w>": 7022,
  "weakness</w>": 7023,
  "season</w>": 7024,
  "swim</w>": 7025,
  "gossi": 7026,
  "curtains</w>": 7027,
  "nicole</w>": 7028,
  "comfortably</w>": 7029,
  "laced</w>": 7030,
  "squinted</w>": 7031,
  "syn": 7032,
  "confron": 7033,
  "roughly</w>": 7034,
  "gued</w>": 7035,
  "sneak</w>": 7036,
  "protested</w>": 7037,
  "smoking</w>": 7038,
  "tattoo": 7039,
  "recalled</w>": 7040,
  "pted</w>": 7041,
  "inhaled</w>": 7042,
  "data</w>": 7043,
  "meter</w>": 7044,
  "nan</w>": 7045,
  "flooded</w>": 7046,
  "paran": 7047,
  "adjusted</w>": 7048,
  "extra": 7049,
  "arch</w>": 7050,
  "prayed</w>": 7051,
  "chains</w>": 7052,
  "lieuten": 7053,
  "llian</w>": 7054,
  "shelves</w>": 7055,
  "bad": 7056,
  "chy</w>": 7057,
  "oddly</w>": 7058,
  "fication</w>": 7059,
  "demanding</w>": 7060,
  "bull</w>": 7061,
  "produced</w>": 7062,
  "stripped</w>": 7063,
  "base": 7064,
  "meg</w>": 7065,
  "thouse</w>": 7066,
  "reasonable</w>": 7067,
  "prints</w>": 7068,
  "paper": 7069,
  "senior</w>": 7070,
  "describe</w>": 7071,
  "bush</w>": 7072,
  "examined</w>": 7073,
  "imper": 7074,
  "entry</w>": 7075,
  "engaged</w>": 7076,
  "lighter</w>": 7077,
  "vege": 7078,
  "class": 7079,
  "along": 7080,
  "tus</w>": 7081,
  "unlocked</w>": 7082,
  "rocky</w>": 7083,
  "humili": 7084,
  "shr": 7085,
  "reputation</w>": 7086,
  "wagon</w>": 7087,
  "numb</w>": 7088,
  "ceremony</w>": 7089,
  "brightly</w>": 7090,
  "spider</w>": 7091,
  "ckling</w>": 7092,
  "visions</w>": 7093,
  "companion</w>": 7094,
  "reports</w>": 7095,
  "reads</w>": 7096,
  "caroline</w>": 7097,
  "ague</w>": 7098,
  "value</w>": 7099,
  "fade</w>": 7100,
  "investig": 7101,
  "supply</w>": 7102,
  "floors</w>": 7103,
  "sandwich</w>": 7104,
  "anticip": 7105,
  "zzled</w>": 7106,
  "oak</w>": 7107,
  "ashamed</w>": 7108,
  "assault</w>": 7109,
  "guaran": 7110,
  "parties</w>": 7111,
  "dates</w>": 7112,
  "selfish</w>": 7113,
  "fortunate</w>": 7114,
  "increased</w>": 7115,
  "outfit</w>": 7116,
  "guided</w>": 7117,
  "alongside</w>": 7118,
  "conference</w>": 7119,
  "player</w>": 7120,
  "establi": 7121,
  "jonas</w>": 7122,
  "sources</w>": 7123,
  "dishes</w>": 7124,
  "union</w>": 7125,
  "comforting</w>": 7126,
  "shouts</w>": 7127,
  "30</w>": 7128,
  "whirled</w>": 7129,
  "superi": 7130,
  "avoided</w>": 7131,
  "adding</w>": 7132,
  "touri": 7133,
  "nicholas</w>": 7134,
  "ance": 7135,
  "continuing</w>": 7136,
  "dul": 7137,
  "deter": 7138,
  "flush</w>": 7139,
  "irritated</w>": 7140,
  "elise</w>": 7141,
  "vaguely</w>": 7142,
  "vated</w>": 7143,
  "tug</w>": 7144,
  "cushi": 7145,
  "seemingly</w>": 7146,
  "shirts</w>": 7147,
  "gritted</w>": 7148,
  "pill": 7149,
  "victory</w>": 7150,
  "fading</w>": 7151,
  "embarrassment</w>": 7152,
  "ranch</w>": 7153,
  "shoe</w>": 7154,
  "steam</w>": 7155,
  "railing</w>": 7156,
  "outer</w>": 7157,
  "ece</w>": 7158,
  "cine</w>": 7159,
  "colonel</w>": 7160,
  "panicked</w>": 7161,
  "juice</w>": 7162,
  "sang</w>": 7163,
  "spots</w>": 7164,
  "bushes</w>": 7165,
  "specific</w>": 7166,
  "rant</w>": 7167,
  "genuine</w>": 7168,
  "dollar</w>": 7169,
  "exp": 7170,
  "gazing</w>": 7171,
  "franti": 7172,
  "majesty</w>": 7173,
  "limited</w>": 7174,
  "langdon</w>": 7175,
  "prie": 7176,
  "lump</w>": 7177,
  "phs</w>": 7178,
  "victims</w>": 7179,
  "electric</w>": 7180,
  "gasping</w>": 7181,
  "accompli": 7182,
  "tap</w>": 7183,
  "suspicion</w>": 7184,
  "ban</w>": 7185,
  "savannah</w>": 7186,
  "xi</w>": 7187,
  "tugging</w>": 7188,
  "assuming</w>": 7189,
  "ggling</w>": 7190,
  "jean</w>": 7191,
  "typical</w>": 7192,
  "enne</w>": 7193,
  "gur": 7194,
  "witches</w>": 7195,
  "ounce</w>": 7196,
  "basically</w>": 7197,
  "wha": 7198,
  "kira</w>": 7199,
  "aggre": 7200,
  "condu": 7201,
  "alo": 7202,
  "gust</w>": 7203,
  "bber</w>": 7204,
  "slick</w>": 7205,
  "operation</w>": 7206,
  "plants</w>": 7207,
  "agement</w>": 7208,
  "green": 7209,
  "propped</w>": 7210,
  "beam</w>": 7211,
  "neat": 7212,
  "io</w>": 7213,
  "determination</w>": 7214,
  "dling</w>": 7215,
  "counts</w>": 7216,
  "nora</w>": 7217,
  "sser": 7218,
  "quality</w>": 7219,
  "commen": 7220,
  "realization</w>": 7221,
  "ming": 7222,
  "acade": 7223,
  "accur": 7224,
  "eli</w>": 7225,
  "shre": 7226,
  "fav": 7227,
  "erection</w>": 7228,
  "anch": 7229,
  "lingering</w>": 7230,
  "instinctively</w>": 7231,
  "steering</w>": 7232,
  "servation</w>": 7233,
  "ee</w>": 7234,
  "thur": 7235,
  "snapping</w>": 7236,
  "reported</w>": 7237,
  "greg</w>": 7238,
  "haunted</w>": 7239,
  "cured</w>": 7240,
  "amazed</w>": 7241,
  "cler": 7242,
  "box": 7243,
  "peering</w>": 7244,
  "elegant</w>": 7245,
  "cah</w>": 7246,
  "exasper": 7247,
  "campus</w>": 7248,
  "summon": 7249,
  "dish": 7250,
  "occasion</w>": 7251,
  "rod</w>": 7252,
  "subtle</w>": 7253,
  "doll</w>": 7254,
  "fireplace</w>": 7255,
  "room": 7256,
  "fant": 7257,
  "noticing</w>": 7258,
  "nak</w>": 7259,
  "passion": 7260,
  "curl</w>": 7261,
  "rocking</w>": 7262,
  "au</w>": 7263,
  "mity</w>": 7264,
  "lion</w>": 7265,
  "cabinet</w>": 7266,
  "blush</w>": 7267,
  "adult</w>": 7268,
  "studi": 7269,
  "collect</w>": 7270,
  "ada</w>": 7271,
  "esti": 7272,
  "pipe</w>": 7273,
  "giggle</w>": 7274,
  "buying</w>": 7275,
  "tell": 7276,
  "immortal</w>": 7277,
  "icide</w>": 7278,
  "shallow</w>": 7279,
  "daylight</w>": 7280,
  "angrily</w>": 7281,
  "aden</w>": 7282,
  "arguing</w>": 7283,
  "vey</w>": 7284,
  "juni": 7285,
  "tube</w>": 7286,
  "toilet</w>": 7287,
  "ities</w>": 7288,
  "frantically</w>": 7289,
  "blur</w>": 7290,
  "liber": 7291,
  "tia</w>": 7292,
  "poked</w>": 7293,
  "staggered</w>": 7294,
  "pine</w>": 7295,
  "leaped</w>": 7296,
  "anytime</w>": 7297,
  "han</w>": 7298,
  "folding</w>": 7299,
  "blankets</w>": 7300,
  "sports</w>": 7301,
  "sanity</w>": 7302,
  "diamond</w>": 7303,
  "sev": 7304,
  "ign</w>": 7305,
  "jar</w>": 7306,
  "sometime</w>": 7307,
  "breaks</w>": 7308,
  "ghing</w>": 7309,
  "elder</w>": 7310,
  "choices</w>": 7311,
  "flinched</w>": 7312,
  "fridge</w>": 7313,
  "goodness</w>": 7314,
  "ende": 7315,
  "soothing</w>": 7316,
  "hem</w>": 7317,
  "inting</w>": 7318,
  "competi": 7319,
  "bothering</w>": 7320,
  "marched</w>": 7321,
  "prayer</w>": 7322,
  "homes</w>": 7323,
  "atically</w>": 7324,
  "respe": 7325,
  "package</w>": 7326,
  "eyelids</w>": 7327,
  "sul": 7328,
  "alpha</w>": 7329,
  "mister</w>": 7330,
  "grandpa</w>": 7331,
  "gentlemen</w>": 7332,
  "stalked</w>": 7333,
  "intend</w>": 7334,
  "surroun": 7335,
  "painfully</w>": 7336,
  "luckily</w>": 7337,
  "inity</w>": 7338,
  "lashes</w>": 7339,
  "jai": 7340,
  "swirling</w>": 7341,
  "pathetic</w>": 7342,
  "lana</w>": 7343,
  "film</w>": 7344,
  "popular</w>": 7345,
  "exciting</w>": 7346,
  "rhe": 7347,
  "unks</w>": 7348,
  "paced</w>": 7349,
  "zzle</w>": 7350,
  "fantasy</w>": 7351,
  "breathless</w>": 7352,
  "guardian</w>": 7353,
  "surroundings</w>": 7354,
  "ehouse</w>": 7355,
  "travis</w>": 7356,
  "cers</w>": 7357,
  "destruction</w>": 7358,
  "candles</w>": 7359,
  "strangers</w>": 7360,
  "tanner</w>": 7361,
  "slightest</w>": 7362,
  "spike</w>": 7363,
  "sipped</w>": 7364,
  "pitch</w>": 7365,
  "corpse</w>": 7366,
  "statue</w>": 7367,
  "awar": 7368,
  "smashed</w>": 7369,
  "nes</w>": 7370,
  "rison</w>": 7371,
  "atmo": 7372,
  "ghosts</w>": 7373,
  "moni": 7374,
  "ira</w>": 7375,
  "assure</w>": 7376,
  "sily</w>": 7377,
  "jah</w>": 7378,
  "ev</w>": 7379,
  "blocking</w>": 7380,
  "attempting</w>": 7381,
  "horrified</w>": 7382,
  "blushed</w>": 7383,
  "pray</w>": 7384,
  "sealed</w>": 7385,
  "congr": 7386,
  "key": 7387,
  "awe</w>": 7388,
  "hopped</w>": 7389,
  "western</w>": 7390,
  "mares</w>": 7391,
  "gregor": 7392,
  "anth": 7393,
  "elyn</w>": 7394,
  "inf": 7395,
  "schi": 7396,
  "ier</w>": 7397,
  "frantic</w>": 7398,
  "sei": 7399,
  "cara</w>": 7400,
  "achers</w>": 7401,
  "penetr": 7402,
  "acu": 7403,
  "momentarily</w>": 7404,
  "throbbing</w>": 7405,
  "youth</w>": 7406,
  "occasional</w>": 7407,
  "spray</w>": 7408,
  "xa": 7409,
  "granted</w>": 7410,
  "grin": 7411,
  "secretary</w>": 7412,
  "leap</w>": 7413,
  "instructed</w>": 7414,
  "josie</w>": 7415,
  "candle</w>": 7416,
  "lieutenant</w>": 7417,
  "consumed</w>": 7418,
  "british</w>": 7419,
  "isabella</w>": 7420,
  "lunged</w>": 7421,
  "guitar</w>": 7422,
  "dumped</w>": 7423,
  "aks</w>": 7424,
  "neatly</w>": 7425,
  "steadily</w>": 7426,
  "omin": 7427,
  "relen": 7428,
  "dove</w>": 7429,
  "licking</w>": 7430,
  "broad": 7431,
  "rand": 7432,
  "mansion</w>": 7433,
  "bid</w>": 7434,
  "slim</w>": 7435,
  "pound</w>": 7436,
  "visiting</w>": 7437,
  "polished</w>": 7438,
  "beaten</w>": 7439,
  "focu": 7440,
  "realised</w>": 7441,
  "shifter</w>": 7442,
  "skill</w>": 7443,
  "sticks</w>": 7444,
  "fiona</w>": 7445,
  "suppor": 7446,
  "maneu": 7447,
  "elding</w>": 7448,
  "avery</w>": 7449,
  "title</w>": 7450,
  "moo": 7451,
  "landsca": 7452,
  "coa": 7453,
  "bands</w>": 7454,
  "healed</w>": 7455,
  "odds</w>": 7456,
  "collected</w>": 7457,
  "inher": 7458,
  "hesitate</w>": 7459,
  "tionless</w>": 7460,
  "peaceful</w>": 7461,
  "depths</w>": 7462,
  "precisely</w>": 7463,
  "gst</w>": 7464,
  "clit</w>": 7465,
  "affection</w>": 7466,
  "gene": 7467,
  "llon</w>": 7468,
  "compound</w>": 7469,
  "natalie</w>": 7470,
  "stily</w>": 7471,
  "wasted</w>": 7472,
  "amongst</w>": 7473,
  "vest</w>": 7474,
  "committed</w>": 7475,
  "fae</w>": 7476,
  "overwhelmed</w>": 7477,
  "remark": 7478,
  "braced</w>": 7479,
  "benefit</w>": 7480,
  "divi": 7481,
  "grocer": 7482,
  "distraction</w>": 7483,
  "dozens</w>": 7484,
  "approval</w>": 7485,
  "softened</w>": 7486,
  "miller</w>": 7487,
  "mour": 7488,
  "dal</w>": 7489,
  "iley</w>": 7490,
  "sob</w>": 7491,
  "russian</w>": 7492,
  "mpy</w>": 7493,
  "status</w>": 7494,
  "pick": 7495,
  "surance</w>": 7496,
  "toss</w>": 7497,
  "attracted</w>": 7498,
  "measure</w>": 7499,
  "muse": 7500,
  "mol": 7501,
  "cross": 7502,
  "fin</w>": 7503,
  "hop": 7504,
  "uttered</w>": 7505,
  "blurted</w>": 7506,
  "mirr": 7507,
  "samu": 7508,
  "zzie</w>": 7509,
  "hh</w>": 7510,
  "politely</w>": 7511,
  "grac": 7512,
  "contrac": 7513,
  "wishes</w>": 7514,
  "pitched</w>": 7515,
  "temperature</w>": 7516,
  "stabbed</w>": 7517,
  "internet</w>": 7518,
  "deva": 7519,
  "zack</w>": 7520,
  "rebecca</w>": 7521,
  "hyster": 7522,
  "marshall</w>": 7523,
  "deliver</w>": 7524,
  "midst</w>": 7525,
  "ffle</w>": 7526,
  "helicopter</w>": 7527,
  "ille": 7528,
  "tite</w>": 7529,
  "washing</w>": 7530,
  "tto</w>": 7531,
  "alan</w>": 7532,
  "pher</w>": 7533,
  "agers</w>": 7534,
  "dresser</w>": 7535,
  "clari": 7536,
  "fishing</w>": 7537,
  "yton</w>": 7538,
  "zel</w>": 7539,
  "burns</w>": 7540,
  "combination</w>": 7541,
  "aa": 7542,
  "strands</w>": 7543,
  "ouri": 7544,
  "headache</w>": 7545,
  "pushes</w>": 7546,
  "wizard</w>": 7547,
  "skirts</w>": 7548,
  "hauled</w>": 7549,
  "gap</w>": 7550,
  "mel</w>": 7551,
  "ults</w>": 7552,
  "coughed</w>": 7553,
  "pour</w>": 7554,
  "horn</w>": 7555,
  "electricity</w>": 7556,
  "gifts</w>": 7557,
  "perfor": 7558,
  "argued</w>": 7559,
  "ww": 7560,
  "aly</w>": 7561,
  "fitting</w>": 7562,
  "areas</w>": 7563,
  "mouths</w>": 7564,
  "author</w>": 7565,
  "agne</w>": 7566,
  "trey</w>": 7567,
  "washington</w>": 7568,
  "ep": 7569,
  "sympathy</w>": 7570,
  "jasmine</w>": 7571,
  "mus</w>": 7572,
  "mobile</w>": 7573,
  "wary</w>": 7574,
  "warren</w>": 7575,
  "fragi": 7576,
  "plea": 7577,
  "cup": 7578,
  "hovering</w>": 7579,
  "joking</w>": 7580,
  "jungle</w>": 7581,
  "gues</w>": 7582,
  "defi": 7583,
  "patri": 7584,
  "formal</w>": 7585,
  "nega": 7586,
  "tration</w>": 7587,
  "automatically</w>": 7588,
  "stealing</w>": 7589,
  "ancy</w>": 7590,
  "fail": 7591,
  "ares</w>": 7592,
  "wallet</w>": 7593,
  "pacing</w>": 7594,
  "tings</w>": 7595,
  "escort</w>": 7596,
  "reminding</w>": 7597,
  "media</w>": 7598,
  "rac": 7599,
  "body": 7600,
  "recovered</w>": 7601,
  "etings</w>": 7602,
  "web</w>": 7603,
  "needle</w>": 7604,
  "curling</w>": 7605,
  "anya</w>": 7606,
  "uneasy</w>": 7607,
  "admi": 7608,
  "misty</w>": 7609,
  "aven": 7610,
  "ma'": 7611,
  "crawling</w>": 7612,
  "swift</w>": 7613,
  "crimson</w>": 7614,
  "spon": 7615,
  "dominic</w>": 7616,
  "cam</w>": 7617,
  "mitri</w>": 7618,
  "wink</w>": 7619,
  "annoying</w>": 7620,
  "izzy</w>": 7621,
  "firing</w>": 7622,
  "zone</w>": 7623,
  "bbling</w>": 7624,
  "sition</w>": 7625,
  "cities</w>": 7626,
  "seized</w>": 7627,
  "grins</w>": 7628,
  "texas</w>": 7629,
  "graham</w>": 7630,
  "latter</w>": 7631,
  "spear</w>": 7632,
  "yi": 7633,
  "earned</w>": 7634,
  "monitor</w>": 7635,
  "summ": 7636,
  "baseball</w>": 7637,
  "technology</w>": 7638,
  "rowing</w>": 7639,
  "lick</w>": 7640,
  "itali": 7641,
  "disappearing</w>": 7642,
  "dna</w>": 7643,
  "zzed</w>": 7644,
  "appointment</w>": 7645,
  "fluttered</w>": 7646,
  "goti": 7647,
  "mall": 7648,
  "significant</w>": 7649,
  "bearing</w>": 7650,
  "political</w>": 7651,
  "basic</w>": 7652,
  "surge</w>": 7653,
  "help": 7654,
  "financi": 7655,
  "sweeping</w>": 7656,
  "tommy</w>": 7657,
  "desperation</w>": 7658,
  "clapped</w>": 7659,
  "contain": 7660,
  "ashley</w>": 7661,
  "ralph</w>": 7662,
  "rights</w>": 7663,
  "oon</w>": 7664,
  "sighs</w>": 7665,
  "painter</w>": 7666,
  "where": 7667,
  "locking</w>": 7668,
  "wheels</w>": 7669,
  "thur</w>": 7670,
  "toast</w>": 7671,
  "absence</w>": 7672,
  "striking</w>": 7673,
  "slam</w>": 7674,
  "consequences</w>": 7675,
  "vacation</w>": 7676,
  "telephone</w>": 7677,
  "ensure</w>": 7678,
  "lic</w>": 7679,
  "20</w>": 7680,
  "ffling</w>": 7681,
  "fon": 7682,
  "joy": 7683,
  "ulty</w>": 7684,
  "kay": 7685,
  "squad</w>": 7686,
  "thrilled</w>": 7687,
  "eff": 7688,
  "nightmares</w>": 7689,
  "chelle</w>": 7690,
  "shot": 7691,
  "brai": 7692,
  "cottage</w>": 7693,
  "croo": 7694,
  "stephen</w>": 7695,
  "inven": 7696,
  "nai": 7697,
  "greeting</w>": 7698,
  "psychic</w>": 7699,
  "cruci": 7700,
  "noises</w>": 7701,
  "brady</w>": 7702,
  "encounter</w>": 7703,
  "guessing</w>": 7704,
  "wandering</w>": 7705,
  "identity</w>": 7706,
  "dresses</w>": 7707,
  "revel": 7708,
  "tempted</w>": 7709,
  "print</w>": 7710,
  "framed</w>": 7711,
  "isabelle</w>": 7712,
  "megan</w>": 7713,
  "oke</w>": 7714,
  "elabor": 7715,
  "shudder</w>": 7716,
  "jeep</w>": 7717,
  "dimen": 7718,
  "naomi</w>": 7719,
  "mused</w>": 7720,
  "curiously</w>": 7721,
  "dson</w>": 7722,
  "neighbors</w>": 7723,
  "standard</w>": 7724,
  "luc</w>": 7725,
  "engine": 7726,
  "teria</w>": 7727,
  "developed</w>": 7728,
  "judgment</w>": 7729,
  "drifting</w>": 7730,
  "manipu": 7731,
  "sprang</w>": 7732,
  "influence</w>": 7733,
  "uses</w>": 7734,
  "vities</w>": 7735,
  "musi": 7736,
  "minor</w>": 7737,
  "violently</w>": 7738,
  "trailer</w>": 7739,
  "troops</w>": 7740,
  "vic</w>": 7741,
  "affair</w>": 7742,
  "bage</w>": 7743,
  "drift</w>": 7744,
  "equal</w>": 7745,
  "regarded</w>": 7746,
  "dex</w>": 7747,
  "treating</w>": 7748,
  "margar": 7749,
  "twink": 7750,
  "outra": 7751,
  "whore</w>": 7752,
  "apology</w>": 7753,
  "jase</w>": 7754,
  "sided</w>": 7755,
  "linda</w>": 7756,
  "lingered</w>": 7757,
  "15</w>": 7758,
  "combat</w>": 7759,
  "adin</w>": 7760,
  "annoy": 7761,
  "suv</w>": 7762,
  "longing</w>": 7763,
  "nik</w>": 7764,
  "boston</w>": 7765,
  "peeked</w>": 7766,
  "ma'am</w>": 7767,
  "mouse</w>": 7768,
  "becomes</w>": 7769,
  "rumors</w>": 7770,
  "touches</w>": 7771,
  "monk</w>": 7772,
  "confli": 7773,
  "parker</w>": 7774,
  "fbi</w>": 7775,
  "nic</w>": 7776,
  "champagne</w>": 7777,
  "anish</w>": 7778,
  "guarded</w>": 7779,
  "helps</w>": 7780,
  "jection</w>": 7781,
  "treasure</w>": 7782,
  "robin</w>": 7783,
  "reception</w>": 7784,
  "moi": 7785,
  "eden</w>": 7786,
  "tapping</w>": 7787,
  "urged</w>": 7788,
  "casting</w>": 7789,
  "receive</w>": 7790,
  "channel</w>": 7791,
  "instincts</w>": 7792,
  "inju": 7793,
  "mount</w>": 7794,
  "seeming</w>": 7795,
  "atmosphere</w>": 7796,
  "accompani": 7797,
  "earl</w>": 7798,
  "skinny</w>": 7799,
  "rin</w>": 7800,
  "gail</w>": 7801,
  "muscular</w>": 7802,
  "joey</w>": 7803,
  "resist": 7804,
  "speaks</w>": 7805,
  "teenth</w>": 7806,
  "erupted</w>": 7807,
  "apparent</w>": 7808,
  "individual</w>": 7809,
  "sleeves</w>": 7810,
  "nels</w>": 7811,
  "net": 7812,
  "eking</w>": 7813,
  "acciden": 7814,
  "eh</w>": 7815,
  "nudged</w>": 7816,
  "rusty</w>": 7817,
  "piercing</w>": 7818,
  "completed</w>": 7819,
  "thumbs</w>": 7820,
  "survival</w>": 7821,
  "leah</w>": 7822,
  "sliced</w>": 7823,
  "neat</w>": 7824,
  "piss</w>": 7825,
  "songs</w>": 7826,
  "wider</w>": 7827,
  "chat</w>": 7828,
  "tenta": 7829,
  "hide": 7830,
  "disease</w>": 7831,
  "seal</w>": 7832,
  "av": 7833,
  "preston</w>": 7834,
  "terribly</w>": 7835,
  "fragile</w>": 7836,
  "bbles</w>": 7837,
  "retor": 7838,
  "chal": 7839,
  "vom": 7840,
  "fifth</w>": 7841,
  "ripping</w>": 7842,
  "barrier</w>": 7843,
  "tucker</w>": 7844,
  "hovered</w>": 7845,
  "destination</w>": 7846,
  "entine</w>": 7847,
  "hugging</w>": 7848,
  "effects</w>": 7849,
  "oid</w>": 7850,
  "sper</w>": 7851,
  "carson</w>": 7852,
  "scratch</w>": 7853,
  "stoo": 7854,
  "despair</w>": 7855,
  "laurence</w>": 7856,
  "forearm</w>": 7857,
  "nonsense</w>": 7858,
  "tious</w>": 7859,
  "14</w>": 7860,
  "philli": 7861,
  "shrugs</w>": 7862,
  "thunder": 7863,
  "louis</w>": 7864,
  "electr": 7865,
  "beings</w>": 7866,
  "lea</w>": 7867,
  "folk</w>": 7868,
  "soap</w>": 7869,
  "aim</w>": 7870,
  "bucket</w>": 7871,
  "piled</w>": 7872,
  "stored</w>": 7873,
  "gravel</w>": 7874,
  "dizzy</w>": 7875,
  "ctable</w>": 7876,
  "active</w>": 7877,
  "roman</w>": 7878,
  "teddy</w>": 7879,
  "tling</w>": 7880,
  "humanity</w>": 7881,
  "arian</w>": 7882,
  "backing</w>": 7883,
  "quin": 7884,
  "arthur</w>": 7885,
  "scout</w>": 7886,
  "inspir": 7887,
  "panel</w>": 7888,
  "nick": 7889,
  "tumbled</w>": 7890,
  "suitcase</w>": 7891,
  "thanked</w>": 7892,
  "advanced</w>": 7893,
  "disturbed</w>": 7894,
  "angie</w>": 7895,
  "dece": 7896,
  "mau": 7897,
  "jen</w>": 7898,
  "las</w>": 7899,
  "invite</w>": 7900,
  "mated</w>": 7901,
  "torso</w>": 7902,
  "pony": 7903,
  "knights</w>": 7904,
  "host</w>": 7905,
  "conversations</w>": 7906,
  "gia</w>": 7907,
  "gleaming</w>": 7908,
  "stor</w>": 7909,
  "hardened</w>": 7910,
  "cies</w>": 7911,
  "wis": 7912,
  "worries</w>": 7913,
  "notebook</w>": 7914,
  "zombie</w>": 7915,
  "mae</w>": 7916,
  "lifts</w>": 7917,
  "ambi": 7918,
  "allie</w>": 7919,
  "assig": 7920,
  "mples</w>": 7921,
  "frey</w>": 7922,
  "chewed</w>": 7923,
  "ids</w>": 7924,
  "ques</w>": 7925,
  "declan</w>": 7926,
  "way": 7927,
  "chuck</w>": 7928,
  "jones</w>": 7929,
  "pillows</w>": 7930,
  "xture</w>": 7931,
  "bending</w>": 7932,
  "000</w>": 7933,
  "jealousy</w>": 7934,
  "bration</w>": 7935,
  "ribb": 7936,
  "roses</w>": 7937,
  "exhi": 7938,
  "knives</w>": 7939,
  "slice</w>": 7940,
  "withdrew</w>": 7941,
  "histor": 7942,
  "sweep</w>": 7943,
  "empire</w>": 7944,
  "harb": 7945,
  "distract</w>": 7946,
  "freezing</w>": 7947,
  "treatment</w>": 7948,
  "launched</w>": 7949,
  "sandy</w>": 7950,
  "casey</w>": 7951,
  "permanent</w>": 7952,
  "bills</w>": 7953,
  "circling</w>": 7954,
  "possession</w>": 7955,
  "wood": 7956,
  "pron": 7957,
  "sanctu": 7958,
  "messed</w>": 7959,
  "navy</w>": 7960,
  "cue</w>": 7961,
  ".s</w>": 7962,
  "joshu": 7963,
  "rem": 7964,
  "powder</w>": 7965,
  "redu": 7966,
  "boul": 7967,
  "zero</w>": 7968,
  "anthony</w>": 7969,
  "dice</w>": 7970,
  "finishing</w>": 7971,
  "deserted</w>": 7972,
  "testing</w>": 7973,
  "glory</w>": 7974,
  "capture</w>": 7975,
  "ticket</w>": 7976,
  "packing</w>": 7977,
  "imagining</w>": 7978,
  "tip": 7979,
  "stin": 7980,
  "dg": 7981,
  "valentine</w>": 7982,
  "generally</w>": 7983,
  "cable</w>": 7984,
  "vegas</w>": 7985,
  "hurri": 7986,
  "cells</w>": 7987,
  "concentrated</w>": 7988,
  "drama</w>": 7989,
  "ram</w>": 7990,
  "gloo": 7991,
  "downtown</w>": 7992,
  "kable</w>": 7993,
  "destiny</w>": 7994,
  "license</w>": 7995,
  "gated</w>": 7996,
  "differently</w>": 7997,
  "curb</w>": 7998,
  "13</w>": 7999,
  "june</w>": 8000,
  "wes</w>": 8001,
  "cats</w>": 8002,
  "smoothed</w>": 8003,
  "negoti": 8004,
  "maintain</w>": 8005,
  "quali": 8006,
  "hugh</w>": 8007,
  "sies</w>": 8008,
  "penny</w>": 8009,
  "gang</w>": 8010,
  "madness</w>": 8011,
  "corrected</w>": 8012,
  "gic</w>": 8013,
  "workers</w>": 8014,
  "unique</w>": 8015,
  "rational</w>": 8016,
  "disor": 8017,
  "purchase</w>": 8018,
  "explode</w>": 8019,
  "alle": 8020,
  "evi": 8021,
  "pavement</w>": 8022,
  "topic</w>": 8023,
  "pinched</w>": 8024,
  "mber": 8025,
  "inclined</w>": 8026,
  "recover</w>": 8027,
  "magnific": 8028,
  "criminal</w>": 8029,
  "judging</w>": 8030,
  "ut</w>": 8031,
  "reminder</w>": 8032,
  "refusing</w>": 8033,
  "warehouse</w>": 8034,
  "bouncing</w>": 8035,
  "county</w>": 8036,
  "tine</w>": 8037,
  "tina</w>": 8038,
  "madame</w>": 8039,
  "scanning</w>": 8040,
  "accompanied</w>": 8041,
  "ssen": 8042,
  "poison": 8043,
  "mat</w>": 8044,
  "cans</w>": 8045,
  "tests</w>": 8046,
  "medicine</w>": 8047,
  "assho": 8048,
  "emper": 8049,
  "smacked</w>": 8050,
  "mock</w>": 8051,
  "layer</w>": 8052,
  "sman</w>": 8053,
  "secu": 8054,
  "border</w>": 8055,
  "smoothly</w>": 8056,
  "afri": 8057,
  "soup</w>": 8058,
  "dors</w>": 8059,
  "explaining</w>": 8060,
  "counter": 8061,
  "trait": 8062,
  "bee": 8063,
  "buzz</w>": 8064,
  "vague</w>": 8065,
  "clients</w>": 8066,
  "chip</w>": 8067,
  "failure</w>": 8068,
  "lazy</w>": 8069,
  "volume</w>": 8070,
  "mers</w>": 8071,
  "sca</w>": 8072,
  "twir": 8073,
  "misery</w>": 8074,
  "regarding</w>": 8075,
  "boats</w>": 8076,
  "troubled</w>": 8077,
  "creepy</w>": 8078,
  "whoo": 8079,
  "zombies</w>": 8080,
  "attor": 8081,
  "d'": 8082,
  "portal</w>": 8083,
  "socks</w>": 8084,
  "tex</w>": 8085,
  "bud": 8086,
  "ruby</w>": 8087,
  "stit": 8088,
  "swirled</w>": 8089,
  "missi": 8090,
  "weary</w>": 8091,
  "daughters</w>": 8092,
  "decades</w>": 8093,
  "rum": 8094,
  "corn</w>": 8095,
  "gregor</w>": 8096,
  "landscape</w>": 8097,
  "valuable</w>": 8098,
  "impatient</w>": 8099,
  "clamped</w>": 8100,
  "italian</w>": 8101,
  "german</w>": 8102,
  "selling</w>": 8103,
  "atedly</w>": 8104,
  "concen": 8105,
  "saw": 8106,
  "cass": 8107,
  "bon</w>": 8108,
  "balan": 8109,
  "gradually</w>": 8110,
  "views</w>": 8111,
  "nette</w>": 8112,
  "marco</w>": 8113,
  "convic": 8114,
  "whip</w>": 8115,
  "stride</w>": 8116,
  ".com</w>": 8117,
  "suggestion</w>": 8118,
  "insides</w>": 8119,
  "becky</w>": 8120,
  "services</w>": 8121,
  "anni": 8122,
  "facility</w>": 8123,
  "posure</w>": 8124,
  "one": 8125,
  "trous": 8126,
  "ponytail</w>": 8127,
  "beck": 8128,
  "maddie</w>": 8129,
  "mechan": 8130,
  "plunged</w>": 8131,
  "inese</w>": 8132,
  "witnessed</w>": 8133,
  "pies</w>": 8134,
  "kan": 8135,
  "damaged</w>": 8136,
  "bucks</w>": 8137,
  "cuffs</w>": 8138,
  "drun": 8139,
  "vo</w>": 8140,
  "blouse</w>": 8141,
  "replies</w>": 8142,
  "surg": 8143,
  "eyeing</w>": 8144,
  "tortured</w>": 8145,
  "kellan</w>": 8146,
  "elijah</w>": 8147,
  "tease</w>": 8148,
  "pole</w>": 8149,
  "sighing</w>": 8150,
  "spilling</w>": 8151,
  "gossip</w>": 8152,
  "tier</w>": 8153,
  "cord</w>": 8154,
  "scale</w>": 8155,
  "saddle</w>": 8156,
  "injuries</w>": 8157,
  "trailing</w>": 8158,
  "experim": 8159,
  "madi": 8160,
  "stilled</w>": 8161,
  "envir": 8162,
  "assassin</w>": 8163,
  "breath": 8164,
  "arrested</w>": 8165,
  "thoroughly</w>": 8166,
  "pleaded</w>": 8167,
  "anna": 8168,
  "perched</w>": 8169,
  "inely</w>": 8170,
  "itute</w>": 8171,
  "celer": 8172,
  "chinese</w>": 8173,
  "sail": 8174,
  "bang</w>": 8175,
  "mistakes</w>": 8176,
  "edged</w>": 8177,
  "winning</w>": 8178,
  "noble</w>": 8179,
  "temporary</w>": 8180,
  "passes</w>": 8181,
  "eva": 8182,
  "sunglasses</w>": 8183,
  "museum</w>": 8184,
  "sim": 8185,
  "yson</w>": 8186,
  "cavern</w>": 8187,
  "perry</w>": 8188,
  "decorated</w>": 8189,
  "customers</w>": 8190,
  "clinging</w>": 8191,
  "shotgun</w>": 8192,
  "introduce</w>": 8193,
  "ony": 8194,
  "rescu": 8195,
  "calcu": 8196,
  "shades</w>": 8197,
  "samuel</w>": 8198,
  "formation</w>": 8199,
  "griffin</w>": 8200,
  "exited</w>": 8201,
  "vehicles</w>": 8202,
  "mck": 8203,
  "pol": 8204,
  "dimitri</w>": 8205,
  "melody</w>": 8206,
  "rattled</w>": 8207,
  "abs</w>": 8208,
  "adventure</w>": 8209,
  "madel": 8210,
  "shifters</w>": 8211,
  "aries</w>": 8212,
  "spark</w>": 8213,
  "discussed</w>": 8214,
  "displa": 8215,
  "wealth</w>": 8216,
  "flicker</w>": 8217,
  "contain</w>": 8218,
  "praying</w>": 8219,
  "joshua</w>": 8220,
  "storage</w>": 8221,
  "dealt</w>": 8222,
  "handled</w>": 8223,
  "constru": 8224,
  "personality</w>": 8225,
  "sorrow</w>": 8226,
  "disaster</w>": 8227,
  "rabbit</w>": 8228,
  "enelle</w>": 8229,
  "bug</w>": 8230,
  "shivering</w>": 8231,
  "ana": 8232,
  "scowl</w>": 8233,
  "regard</w>": 8234,
  "vas</w>": 8235,
  "average</w>": 8236,
  "acqua": 8237,
  "yo</w>": 8238,
  "mont</w>": 8239,
  "rigid</w>": 8240,
  "ii</w>": 8241,
  "tradi": 8242,
  "iced</w>": 8243,
  "leaders</w>": 8244,
  "interro": 8245,
  "bol": 8246,
  "ases</w>": 8247,
  "pursu": 8248,
  "promises</w>": 8249,
  "aura</w>": 8250,
  "waiter</w>": 8251,
  "colli": 8252,
  "require</w>": 8253,
  "scarlet</w>": 8254,
  "ham": 8255,
  "werewolves</w>": 8256,
  "loyal</w>": 8257,
  "kinda</w>": 8258,
  "tune</w>": 8259,
  "rhys</w>": 8260,
  "nut</w>": 8261,
  "foyer</w>": 8262,
  "cakes</w>": 8263,
  "web": 8264,
  "teaching</w>": 8265,
  "ez": 8266,
  "foul</w>": 8267,
  "beasts</w>": 8268,
  "positioned</w>": 8269,
  "deciding</w>": 8270,
  "indepen": 8271,
  "sworn</w>": 8272,
  "kneeling</w>": 8273,
  "whiskey</w>": 8274,
  "expert</w>": 8275,
  "register</w>": 8276,
  "sep": 8277,
  "momen": 8278,
  "retreat</w>": 8279,
  "buck</w>": 8280,
  "suicide</w>": 8281,
  "som</w>": 8282,
  "pru": 8283,
  "rot</w>": 8284,
  "vicious</w>": 8285,
  "hastily</w>": 8286,
  "hector</w>": 8287,
  "thoughtful</w>": 8288,
  "macy</w>": 8289,
  "beds</w>": 8290,
  "admini": 8291,
  "deer</w>": 8292,
  "intelligent</w>": 8293,
  "loyalty</w>": 8294,
  "egg</w>": 8295,
  "pecu": 8296,
  "jaenelle</w>": 8297,
  "watch": 8298,
  "appreciated</w>": 8299,
  "numer": 8300,
  "18": 8301,
  "kor": 8302,
  "annon</w>": 8303,
  "charges</w>": 8304,
  "profile</w>": 8305,
  "portion</w>": 8306,
  "levels</w>": 8307,
  "article</w>": 8308,
  "sparks</w>": 8309,
  "heaved</w>": 8310,
  "terrifying</w>": 8311,
  "annoyance</w>": 8312,
  "ssively</w>": 8313,
  "cooper": 8314,
  "tools</w>": 8315,
  "echoing</w>": 8316,
  "elo": 8317,
  "creek</w>": 8318,
  "winding</w>": 8319,
  "mortals</w>": 8320,
  "oppon": 8321,
  "yu": 8322,
  "costu": 8323,
  "haze</w>": 8324,
  "deaths</w>": 8325,
  "beloved</w>": 8326,
  "stall</w>": 8327,
  "surrender</w>": 8328,
  "fantastic</w>": 8329,
  "junior</w>": 8330,
  "choking</w>": 8331,
  "awkwardly</w>": 8332,
  "brains</w>": 8333,
  "zz</w>": 8334,
  "assignment</w>": 8335,
  "burden</w>": 8336,
  "prisoners</w>": 8337,
  "heck</w>": 8338,
  "gle": 8339,
  "picks</w>": 8340,
  "garath</w>": 8341,
  "awareness</w>": 8342,
  "wob": 8343,
  "saint</w>": 8344,
  "theater</w>": 8345,
  "ggle</w>": 8346,
  "whoa</w>": 8347,
  "maker</w>": 8348,
  "blows</w>": 8349,
  "toy</w>": 8350,
  "remarked</w>": 8351,
  "stened</w>": 8352,
  "scope</w>": 8353,
  "pol</w>": 8354,
  "refri": 8355,
  "zzling</w>": 8356,
  "bruises</w>": 8357,
  "frost</w>": 8358,
  "extreme</w>": 8359,
  "temples</w>": 8360,
  "impatiently</w>": 8361,
  "commo": 8362,
  "shuffled</w>": 8363,
  "generous</w>": 8364,
  "studio</w>": 8365,
  "melanie</w>": 8366,
  "mother": 8367,
  "cals</w>": 8368,
  "salu": 8369,
  "dangling</w>": 8370,
  "ida</w>": 8371,
  "mit": 8372,
  "gil": 8373,
  "addition</w>": 8374,
  "belgarath</w>": 8375,
  "wer</w>": 8376,
  "pleading</w>": 8377,
  "environ": 8378,
  "virgin</w>": 8379,
  "inqui": 8380,
  "brutal</w>": 8381,
  "awak": 8382,
  "blazing</w>": 8383,
  "lasted</w>": 8384,
  "slides</w>": 8385,
  "ruth</w>": 8386,
  "thoughtfully</w>": 8387,
  "refriger": 8388,
  "symbol</w>": 8389,
  "warming</w>": 8390,
  "never": 8391,
  "exhaustion</w>": 8392,
  "fuel</w>": 8393,
  "harper</w>": 8394,
  "cover": 8395,
  "bartender</w>": 8396,
  "frightening</w>": 8397,
  "arrogant</w>": 8398,
  "spill</w>": 8399,
  "trave": 8400,
  "quest</w>": 8401,
  "itated</w>": 8402,
  "intentions</w>": 8403,
  "garbage</w>": 8404,
  "lah</w>": 8405,
  "appre": 8406,
  "crumpled</w>": 8407,
  "uncertain</w>": 8408,
  "transl": 8409,
  "esa</w>": 8410,
  "tunnels</w>": 8411,
  "beats</w>": 8412,
  "michelle</w>": 8413,
  "sian</w>": 8414,
  "scur": 8415,
  "safer</w>": 8416,
  "skyla</w>": 8417,
  "carl</w>": 8418,
  "unts</w>": 8419,
  "recru": 8420,
  "lucivar</w>": 8421,
  "reporter</w>": 8422,
  "pig</w>": 8423,
  "newly</w>": 8424,
  "pher": 8425,
  "patiently</w>": 8426,
  "butter</w>": 8427,
  "dorian</w>": 8428,
  "construction</w>": 8429,
  "connect</w>": 8430,
  "wen": 8431,
  "lowering</w>": 8432,
  "curves</w>": 8433,
  "charity</w>": 8434,
  "strings</w>": 8435,
  "soil</w>": 8436,
  "emperor</w>": 8437,
  "bell": 8438,
  "concentration</w>": 8439,
  "tend</w>": 8440,
  "initial</w>": 8441,
  "conclusion</w>": 8442,
  "morti": 8443,
  "enthusiasm</w>": 8444,
  "lessons</w>": 8445,
  "cares</w>": 8446,
  "lizzie</w>": 8447,
  "offended</w>": 8448,
  "accused</w>": 8449,
  "ically</w>": 8450,
  "stung</w>": 8451,
  "chant</w>": 8452,
  "insult</w>": 8453,
  "step": 8454,
  "divorce</w>": 8455,
  "pauses</w>": 8456,
  "stella</w>": 8457,
  "sparkling</w>": 8458,
  "math</w>": 8459,
  "wayne</w>": 8460,
  "sweaty</w>": 8461,
  "thud</w>": 8462,
  "taneously</w>": 8463,
  "mouthed</w>": 8464,
  "tracking</w>": 8465,
  "chad</w>": 8466,
  "dne": 8467,
  "int": 8468,
  "bubble</w>": 8469,
  "description</w>": 8470,
  "log</w>": 8471,
  "revol": 8472,
  "pills</w>": 8473,
  "bark</w>": 8474,
  "cassidy</w>": 8475,
  "bourne</w>": 8476,
  "allison</w>": 8477,
  "sincer": 8478,
  "releasing</w>": 8479,
  "strolled</w>": 8480,
  "strap</w>": 8481,
  "lings</w>": 8482,
  "fiery</w>": 8483,
  "maxi": 8484,
  "ax</w>": 8485,
  "tha": 8486,
  "philo": 8487,
  "indul": 8488,
  "xavier</w>": 8489,
  "chap": 8490,
  "acceler": 8491,
  "online</w>": 8492,
  "dium</w>": 8493,
  "visitors</w>": 8494,
  "claw</w>": 8495,
  "folds</w>": 8496,
  "raged</w>": 8497,
  "prime</w>": 8498,
  "sas</w>": 8499,
  "perfu": 8500,
  "faintly</w>": 8501,
  "dramatic</w>": 8502,
  "discussing</w>": 8503,
  "population</w>": 8504,
  "focusing</w>": 8505,
  "slope</w>": 8506,
  "phil</w>": 8507,
  "shrieked</w>": 8508,
  "crushing</w>": 8509,
  "watches</w>": 8510,
  "hart</w>": 8511,
  "injury</w>": 8512,
  "fashioned</w>": 8513,
  "vik": 8514,
  "distinct</w>": 8515,
  "wisdom</w>": 8516,
  "awhile</w>": 8517,
  "word": 8518,
  "arrest</w>": 8519,
  "jewelry</w>": 8520,
  "lanter": 8521,
  "jerry</w>": 8522,
  "stove</w>": 8523,
  "hatch</w>": 8524,
  "ambul": 8525,
  "tack": 8526,
  "ures</w>": 8527,
  "journal</w>": 8528,
  "jules</w>": 8529,
  "read": 8530,
  "coin</w>": 8531,
  "confin": 8532,
  "taxi</w>": 8533,
  "centre</w>": 8534,
  "flood</w>": 8535,
  "requi": 8536,
  "bubb": 8537,
  "ambulance</w>": 8538,
  "messy</w>": 8539,
  "micah</w>": 8540,
  "inevitable</w>": 8541,
  "officially</w>": 8542,
  "roots</w>": 8543,
  "reacted</w>": 8544,
  "freeze</w>": 8545,
  "pearl</w>": 8546,
  "ceme": 8547,
  "fiercely</w>": 8548,
  "assigned</w>": 8549,
  "bites</w>": 8550,
  "chips</w>": 8551,
  "barre": 8552,
  "mack</w>": 8553,
  "tightening</w>": 8554,
  "tick</w>": 8555,
  "oxy": 8556,
  "inda</w>": 8557,
  "slung</w>": 8558,
  "calvin</w>": 8559,
  "altar</w>": 8560,
  "a.m.</w>": 8561,
  "bolted</w>": 8562,
  "dial</w>": 8563,
  "cookies</w>": 8564,
  "innoc": 8565,
  "dispo": 8566,
  "sucks</w>": 8567,
  "shorter</w>": 8568,
  "logic</w>": 8569,
  "spoon</w>": 8570,
  "unbeliev": 8571,
  "retreated</w>": 8572,
  "icial</w>": 8573,
  "torch</w>": 8574,
  "resistance</w>": 8575,
  "chess</w>": 8576,
  "cassandra</w>": 8577,
  "interf": 8578,
  "rack</w>": 8579,
  "irritation</w>": 8580,
  "dashed</w>": 8581,
  "presented</w>": 8582,
  "menu</w>": 8583,
  "barbar": 8584,
  "huddled</w>": 8585,
  "hunched</w>": 8586,
  "strapped</w>": 8587,
  "rober": 8588,
  "duck</w>": 8589,
  "wrath</w>": 8590,
  "altogether</w>": 8591,
  "cracking</w>": 8592,
  "overcome</w>": 8593,
  "skipped</w>": 8594,
  "malcol": 8595,
  "swell</w>": 8596,
  "exercise</w>": 8597,
  "bald</w>": 8598,
  "stunning</w>": 8599,
  "bold</w>": 8600,
  "cian</w>": 8601,
  "face": 8602,
  "thread</w>": 8603,
  "tland</w>": 8604,
  "mischi": 8605,
  "zeke</w>": 8606,
  "phoeni": 8607,
  "paperwork</w>": 8608,
  "tire": 8609,
  "disappro": 8610,
  "claiming</w>": 8611,
  "speaker</w>": 8612,
  "apri": 8613,
  "attempts</w>": 8614,
  "year": 8615,
  "complained</w>": 8616,
  "embarrassing</w>": 8617,
  "pierced</w>": 8618,
  "streaming</w>": 8619,
  "sobbing</w>": 8620,
  "asp": 8621,
  "reed</w>": 8622,
  "hum</w>": 8623,
  "roof": 8624,
  "bewil": 8625,
  "seventy</w>": 8626,
  "thankful</w>": 8627,
  "aboard</w>": 8628,
  "surged</w>": 8629,
  "courte": 8630,
  "madison</w>": 8631,
  "thump</w>": 8632,
  "commented</w>": 8633,
  "alized</w>": 8634,
  "yna</w>": 8635,
  "analy": 8636,
  "melt</w>": 8637,
  "dismissed</w>": 8638,
  "sco</w>": 8639,
  "fen": 8640,
  "crooked</w>": 8641,
  "skye</w>": 8642,
  "agger": 8643,
  "femin": 8644,
  "eagerly</w>": 8645,
  "limits</w>": 8646,
  "dryly</w>": 8647,
  "razor</w>": 8648,
  "jar": 8649,
  "simul": 8650,
  "furrowed</w>": 8651,
  "else": 8652,
  "multiple</w>": 8653,
  "vie</w>": 8654,
  "presses</w>": 8655,
  "slaves</w>": 8656,
  "urgent</w>": 8657,
  "ander": 8658,
  "registered</w>": 8659,
  "technically</w>": 8660,
  "archer</w>": 8661,
  "session</w>": 8662,
  "scan</w>": 8663,
  "luther</w>": 8664,
  "cherry</w>": 8665,
  "jade</w>": 8666,
  "greet</w>": 8667,
  "fare</w>": 8668,
  "shaken</w>": 8669,
  "tee": 8670,
  "llic</w>": 8671,
  "gos</w>": 8672,
  "sweating</w>": 8673,
  "mack": 8674,
  "tues": 8675,
  "mire</w>": 8676,
  "removing</w>": 8677,
  "forgetting</w>": 8678,
  "flickering</w>": 8679,
  "depu": 8680,
  "antonio</w>": 8681,
  "rand</w>": 8682,
  "tended</w>": 8683,
  "bruised</w>": 8684,
  "sab": 8685,
  "malcolm</w>": 8686,
  "apollo</w>": 8687,
  "gene</w>": 8688,
  "gil</w>": 8689,
  "rogue</w>": 8690,
  "fever</w>": 8691,
  "exagger": 8692,
  "prou": 8693,
  "france": 8694,
  "derness</w>": 8695,
  "anor</w>": 8696,
  "dead": 8697,
  "crisp</w>": 8698,
  "kyrian</w>": 8699,
  "fically</w>": 8700,
  "bidden</w>": 8701,
  "arou": 8702,
  "incredul": 8703,
  "lene</w>": 8704,
  "spanish</w>": 8705,
  "partially</w>": 8706,
  "attraction</w>": 8707,
  "supper</w>": 8708,
  "willingly</w>": 8709,
  "angles</w>": 8710,
  "senator</w>": 8711,
  "shops</w>": 8712,
  "stray</w>": 8713,
  "coincidence</w>": 8714,
  "gravity</w>": 8715,
  "resen": 8716,
  "cursing</w>": 8717,
  "navi": 8718,
  "mar</w>": 8719,
  "mixture</w>": 8720,
  "10": 8721,
  "unpleasant</w>": 8722,
  "levi</w>": 8723,
  "discom": 8724,
  "mira</w>": 8725,
  "savor": 8726,
  "hosti": 8727,
  "llest</w>": 8728,
  "awoke</w>": 8729,
  "christop": 8730,
  "northern</w>": 8731,
  "roth</w>": 8732,
  "communication</w>": 8733,
  "rory</w>": 8734,
  "oblivious</w>": 8735,
  "darius</w>": 8736,
  "absently</w>": 8737,
  "trousers</w>": 8738,
  "performance</w>": 8739,
  "raises</w>": 8740,
  "resolve</w>": 8741,
  "backseat</w>": 8742,
  "tcher</w>": 8743,
  "flipping</w>": 8744,
  "shapes</w>": 8745,
  "cancer</w>": 8746,
  "intimid": 8747,
  "func": 8748,
  "catherine</w>": 8749,
  "acknowledge</w>": 8750,
  "bishop</w>": 8751,
  "exce": 8752,
  "blackness</w>": 8753,
  "machines</w>": 8754,
  "tones</w>": 8755,
  "kit</w>": 8756,
  "cargo</w>": 8757,
  "stab</w>": 8758,
  "gaining</w>": 8759,
  "nadia</w>": 8760,
  "ware</w>": 8761,
  "notion</w>": 8762,
  "noo": 8763,
  "jagged</w>": 8764,
  "smug</w>": 8765,
  "brooke</w>": 8766,
  "straw</w>": 8767,
  "catches</w>": 8768,
  "sunset</w>": 8769,
  "disturbing</w>": 8770,
  "carlos</w>": 8771,
  "conspir": 8772,
  "internal</w>": 8773,
  "phoenix</w>": 8774,
  "meanwhile</w>": 8775,
  "perform</w>": 8776,
  "jeff": 8777,
  "financial</w>": 8778,
  "rubber</w>": 8779,
  "sanctuary</w>": 8780,
  "sensing</w>": 8781,
  "combined</w>": 8782,
  "saun": 8783,
  "infin": 8784,
  "apprehen": 8785,
  "cha</w>": 8786,
  "cheek": 8787,
  "outw": 8788,
  "sasha</w>": 8789,
  "dumb": 8790,
  "sorcer": 8791,
  "zipped</w>": 8792,
  "mono": 8793,
  "passionate</w>": 8794,
  "genuinely</w>": 8795,
  "rex</w>": 8796,
  "backyard</w>": 8797,
  "rece": 8798,
  "closes</w>": 8799,
  "mall</w>": 8800,
  "tum</w>": 8801,
  "reluctant</w>": 8802,
  "attacks</w>": 8803,
  "meaning": 8804,
  "snick": 8805,
  "lounge</w>": 8806,
  "ige</w>": 8807,
  "doubts</w>": 8808,
  "pictured</w>": 8809,
  "ram": 8810,
  "ckers</w>": 8811,
  "artist</w>": 8812,
  "apy</w>": 8813,
  "delu": 8814,
  "swallowing</w>": 8815,
  "bonnie</w>": 8816,
  "evol": 8817,
  "swayed</w>": 8818,
  "illusion</w>": 8819,
  "tac": 8820,
  "elaborate</w>": 8821,
  "drivers</w>": 8822,
  "cit": 8823,
  "imagin": 8824,
  "sly</w>": 8825,
  "lining</w>": 8826,
  "ettes</w>": 8827,
  "att</w>": 8828,
  "france</w>": 8829,
  "companions</w>": 8830,
  "surreal</w>": 8831,
  "downward</w>": 8832,
  "helpful</w>": 8833,
  "starving</w>": 8834,
  "portra": 8835,
  "rapid</w>": 8836,
  "inviting</w>": 8837,
  "autu": 8838,
  "rats</w>": 8839,
  "hiss</w>": 8840,
  "vation</w>": 8841,
  "winds</w>": 8842,
  "disagre": 8843,
  "spells</w>": 8844,
  "bumps</w>": 8845,
  "napkin</w>": 8846,
  "disci": 8847,
  "tires</w>": 8848,
  "lilly</w>": 8849,
  "serena</w>": 8850,
  "skele": 8851,
  "dalton</w>": 8852,
  "tested</w>": 8853,
  "cemetery</w>": 8854,
  "gyp": 8855,
  "elded</w>": 8856,
  "flashes</w>": 8857,
  "magnificent</w>": 8858,
  "caressed</w>": 8859,
  "vince</w>": 8860,
  "comments</w>": 8861,
  "murmur</w>": 8862,
  "inse": 8863,
  "cel</w>": 8864,
  "pausing</w>": 8865,
  "ots</w>": 8866,
  "citizens</w>": 8867,
  "kaladin</w>": 8868,
  "yl</w>": 8869,
  "oldest</w>": 8870,
  "pel": 8871,
  "secured</w>": 8872,
  "bumped</w>": 8873,
  "strain</w>": 8874,
  "greek</w>": 8875,
  "laundry</w>": 8876,
  "pencil</w>": 8877,
  "eleanor</w>": 8878,
  "igni": 8879,
  "provo": 8880,
  "ropes</w>": 8881,
  "delighted</w>": 8882,
  "sprawled</w>": 8883,
  "clad</w>": 8884,
  "tremble</w>": 8885,
  "accepting</w>": 8886,
  "50</w>": 8887,
  "filthy</w>": 8888,
  "spur": 8889,
  "diana</w>": 8890,
  "vivian</w>": 8891,
  "cheer</w>": 8892,
  "senti": 8893,
  "illegal</w>": 8894,
  "goin</w>": 8895,
  "rapha": 8896,
  "function</w>": 8897,
  "stir</w>": 8898,
  "arriving</w>": 8899,
  "refrigerator</w>": 8900,
  "pu</w>": 8901,
  "cass</w>": 8902,
  "explore</w>": 8903,
  "longed</w>": 8904,
  "unlikely</w>": 8905,
  "fighter</w>": 8906,
  "sie": 8907,
  "whistle</w>": 8908,
  "kenne": 8909,
  "arrows</w>": 8910,
  "blasted</w>": 8911,
  "feathers</w>": 8912,
  "alu": 8913,
  "battle": 8914,
  "desig": 8915,
  "pregnancy</w>": 8916,
  "caution</w>": 8917,
  "dread": 8918,
  "venge": 8919,
  ".a</w>": 8920,
  "nap</w>": 8921,
  "adri": 8922,
  "acheron</w>": 8923,
  "lovers</w>": 8924,
  "attacking</w>": 8925,
  "clerk</w>": 8926,
  "disgusted</w>": 8927,
  "leak</w>": 8928,
  "ope</w>": 8929,
  "acity</w>": 8930,
  "arrange</w>": 8931,
  "immen": 8932,
  "fond</w>": 8933,
  "shutting</w>": 8934,
  "fox</w>": 8935,
  "weighed</w>": 8936,
  "scenari": 8937,
  "mper</w>": 8938,
  "teenager</w>": 8939,
  "serva": 8940,
  "kur": 8941,
  "felix</w>": 8942,
  "positions</w>": 8943,
  "yd</w>": 8944,
  "insurance</w>": 8945,
  "vamp</w>": 8946,
  "luis</w>": 8947,
  "ela</w>": 8948,
  "china</w>": 8949,
  "superior</w>": 8950,
  "denied</w>": 8951,
  "kara</w>": 8952,
  "audre": 8953,
  "claude</w>": 8954,
  "unhappy</w>": 8955,
  "meetings</w>": 8956,
  "tiff": 8957,
  "hal</w>": 8958,
  "dary</w>": 8959,
  "reserved</w>": 8960,
  "goose</w>": 8961,
  "savage</w>": 8962,
  "scooped</w>": 8963,
  "bethany</w>": 8964,
  "flick</w>": 8965,
  "retrieve</w>": 8966,
  "dash</w>": 8967,
  "europe</w>": 8968,
  "sobs</w>": 8969,
  "jonah</w>": 8970,
  "tales</w>": 8971,
  "guts</w>": 8972,
  "cessi": 8973,
  "fresh": 8974,
  "april</w>": 8975,
  "enthusia": 8976,
  "sacred</w>": 8977,
  "factory</w>": 8978,
  "returns</w>": 8979,
  "variety</w>": 8980,
  "photograph</w>": 8981,
  "cracks</w>": 8982,
  "repeatedly</w>": 8983,
  "mommy</w>": 8984,
  "buzzing</w>": 8985,
  "females</w>": 8986,
  "tuesday</w>": 8987,
  "pples</w>": 8988,
  "sture</w>": 8989,
  "static</w>": 8990,
  "types</w>": 8991,
  "talks</w>": 8992,
  "roy</w>": 8993,
  "bizar": 8994,
  "stain</w>": 8995,
  "wedne": 8996,
  "additional</w>": 8997,
  "sensual</w>": 8998,
  "smelling</w>": 8999,
  "claims</w>": 9000,
  "cowboy</w>": 9001,
  "education</w>": 9002,
  "rounds</w>": 9003,
  "exclu": 9004,
  "demands</w>": 9005,
  "anked</w>": 9006,
  "prize</w>": 9007,
  "hoarse</w>": 9008,
  "objects</w>": 9009,
  "attack": 9010,
  "callie</w>": 9011,
  "stumbling</w>": 9012,
  "scoffed</w>": 9013,
  "millions</w>": 9014,
  "examine</w>": 9015,
  "buzzed</w>": 9016,
  "eo</w>": 9017,
  "oa": 9018,
  "chewing</w>": 9019,
  "betrayal</w>": 9020,
  "ppling</w>": 9021,
  "fling</w>": 9022,
  "disgusting</w>": 9023,
  "sunny</w>": 9024,
  "asshole</w>": 9025,
  "specu": 9026,
  "maya</w>": 9027,
  "banks</w>": 9028,
  "dome</w>": 9029,
  "depar": 9030,
  "eighty</w>": 9031,
  "undead</w>": 9032,
  "spects</w>": 9033,
  "xie</w>": 9034,
  "moti": 9035,
  "proceeded</w>": 9036,
  "bastar": 9037,
  "ui": 9038,
  "applau": 9039,
  "kest</w>": 9040,
  "cringed</w>": 9041,
  "adults</w>": 9042,
  "dazed</w>": 9043,
  "romance</w>": 9044,
  "paths</w>": 9045,
  "motionless</w>": 9046,
  "ritual</w>": 9047,
  "barri": 9048,
  "pursed</w>": 9049,
  "dwarf</w>": 9050,
  "identify</w>": 9051,
  "accidentally</w>": 9052,
  "loading</w>": 9053,
  "reminds</w>": 9054,
  "motel</w>": 9055,
  "heavens</w>": 9056,
  "zach": 9057,
  "asher</w>": 9058,
  "humming</w>": 9059,
  "abandon</w>": 9060,
  "summoned</w>": 9061,
  "canvas</w>": 9062,
  "lurched</w>": 9063,
  "indian</w>": 9064,
  "dians</w>": 9065,
  "sleepy</w>": 9066,
  "ket": 9067,
  "murphy</w>": 9068,
  "trusting</w>": 9069,
  "duties</w>": 9070,
  "bris</w>": 9071,
  "lewi": 9072,
  "accustom": 9073,
  "joel</w>": 9074,
  "silky</w>": 9075,
  "giggling</w>": 9076,
  "novel</w>": 9077,
  "sour</w>": 9078,
  "linked</w>": 9079,
  "leon": 9080,
  "accustomed</w>": 9081,
  "sticky</w>": 9082,
  "systems</w>": 9083,
  "lords</w>": 9084,
  "grave": 9085,
  "blinding</w>": 9086,
  "score</w>": 9087,
  "swoo": 9088,
  "madeline</w>": 9089,
  "upside</w>": 9090,
  "concerns</w>": 9091,
  "exqui": 9092,
  "pre</w>": 9093,
  "rumbled</w>": 9094,
  "etan</w>": 9095,
  "kitten</w>": 9096,
  "brighter</w>": 9097,
  "exter": 9098,
  "dous</w>": 9099,
  "wander</w>": 9100,
  "referring</w>": 9101,
  "pairs</w>": 9102,
  "reassuring</w>": 9103,
  "supernatural</w>": 9104,
  "acefully</w>": 9105,
  "swam</w>": 9106,
  "religious</w>": 9107,
  "dedi": 9108,
  "infected</w>": 9109,
  "ckey</w>": 9110,
  "steep</w>": 9111,
  "sawyer</w>": 9112,
  "glittering</w>": 9113,
  "dialed</w>": 9114,
  "tailed</w>": 9115,
  "defensive</w>": 9116,
  "hot": 9117,
  "elsewhere</w>": 9118,
  "congre": 9119,
  "drain</w>": 9120,
  "abbed</w>": 9121,
  "encountered</w>": 9122,
  "freely</w>": 9123,
  "tide</w>": 9124,
  "angui": 9125,
  "yment</w>": 9126,
  "lena</w>": 9127,
  "expressions</w>": 9128,
  "largest</w>": 9129,
  "defeated</w>": 9130,
  "lle": 9131,
  "autumn</w>": 9132,
  "fountain</w>": 9133,
  "evidently</w>": 9134,
  "gible</w>": 9135,
  "activities</w>": 9136,
  "promising</w>": 9137,
  "audrey</w>": 9138,
  "margaret</w>": 9139,
  "plain": 9140,
  "furiously</w>": 9141,
  "det": 9142,
  "sale</w>": 9143,
  "pond</w>": 9144,
  "replace</w>": 9145,
  "cautious</w>": 9146,
  "raphael</w>": 9147,
  "merry</w>": 9148,
  "wheel": 9149,
  "pest</w>": 9150,
  "transpor": 9151,
  "proudly</w>": 9152,
  "liking</w>": 9153,
  "calmed</w>": 9154,
  "francesca</w>": 9155,
  "gaping</w>": 9156,
  "talon</w>": 9157,
  "basis</w>": 9158,
  "elet</w>": 9159,
  "parent</w>": 9160,
  "countless</w>": 9161,
  "dana</w>": 9162,
  "neighbor</w>": 9163,
  "feminine</w>": 9164,
  "stressed</w>": 9165,
  "piper</w>": 9166,
  "whitney</w>": 9167,
  "nineteen</w>": 9168,
  "obsc": 9169,
  "pumping</w>": 9170,
  "motions</w>": 9171,
  "grunt</w>": 9172,
  "spective</w>": 9173,
  "amm": 9174,
  "stomped</w>": 9175,
  "orn</w>": 9176,
  "thursday</w>": 9177,
  "andrea</w>": 9178,
  "unaware</w>": 9179,
  "convincing</w>": 9180,
  "shay</w>": 9181,
  "ousal</w>": 9182,
  "absorbed</w>": 9183,
  "fascinated</w>": 9184,
  "affect</w>": 9185,
  "squi": 9186,
  "virus</w>": 9187,
  "ascen": 9188,
  "chick</w>": 9189,
  "tag</w>": 9190,
  "exception</w>": 9191,
  "tating</w>": 9192,
  "resisted</w>": 9193,
  "ric</w>": 9194,
  "stuart</w>": 9195,
  "patrol</w>": 9196,
  "tiffany</w>": 9197,
  "eland</w>": 9198,
  "possibilities</w>": 9199,
  "restless</w>": 9200,
  "stormed</w>": 9201,
  "strand</w>": 9202,
  "mis</w>": 9203,
  "phrase</w>": 9204,
  "attorney</w>": 9205,
  "force": 9206,
  "battered</w>": 9207,
  "path": 9208,
  "viewed</w>": 9209,
  "pupi": 9210,
  "identical</w>": 9211,
  "glorious</w>": 9212,
  "creeping</w>": 9213,
  "clear": 9214,
  "axe</w>": 9215,
  "absur": 9216,
  "beamed</w>": 9217,
  "ction": 9218,
  "players</w>": 9219,
  "ile</w>": 9220,
  "depends</w>": 9221,
  "pardon</w>": 9222,
  "loop</w>": 9223,
  "poe": 9224,
  "bedside</w>": 9225,
  "dise</w>": 9226,
  "fat": 9227,
  "mption</w>": 9228,
  "hopeful</w>": 9229,
  "ledge</w>": 9230,
  "drowning</w>": 9231,
  "shifts</w>": 9232,
  "congratu": 9233,
  "oxygen</w>": 9234,
  "tad</w>": 9235,
  "lucian</w>": 9236,
  "august</w>": 9237,
  "produce</w>": 9238,
  "strokes</w>": 9239,
  "bacon</w>": 9240,
  "teachers</w>": 9241,
  "lica</w>": 9242,
  "apologe": 9243,
  "mascul": 9244,
  "stephan": 9245,
  "paintings</w>": 9246,
  "retrieved</w>": 9247,
  "clipped</w>": 9248,
  "zio</w>": 9249,
  "strongly</w>": 9250,
  "skep": 9251,
  "peculiar</w>": 9252,
  "preven": 9253,
  "scraped</w>": 9254,
  "caress</w>": 9255,
  "leon</w>": 9256,
  "trucks</w>": 9257,
  "district</w>": 9258,
  "lodge</w>": 9259,
  "unfamiliar</w>": 9260,
  "veron": 9261,
  "avenue</w>": 9262,
  "hl</w>": 9263,
  "isabel</w>": 9264,
  "festi": 9265,
  "assistance</w>": 9266,
  "puppy</w>": 9267,
  "yel": 9268,
  "raging</w>": 9269,
  "obey</w>": 9270,
  "choosing</w>": 9271,
  "timing</w>": 9272,
  "stays</w>": 9273,
  "stine</w>": 9274,
  "sienna</w>": 9275,
  "papa</w>": 9276,
  "paul": 9277,
  "twitch</w>": 9278,
  "saetan</w>": 9279,
  "happier</w>": 9280,
  "cody</w>": 9281,
  "stirring</w>": 9282,
  "peeled</w>": 9283,
  "diner</w>": 9284,
  "lement</w>": 9285,
  "meantime</w>": 9286,
  "larry</w>": 9287,
  "tribe</w>": 9288,
  "scarf</w>": 9289,
  "offers</w>": 9290,
  "sarcasm</w>": 9291,
  "index</w>": 9292,
  "degrees</w>": 9293,
  "gulped</w>": 9294,
  "secretly</w>": 9295,
  "love": 9296,
  "arousal</w>": 9297,
  "adjust</w>": 9298,
  "drowned</w>": 9299,
  "discre": 9300,
  "league</w>": 9301,
  "tracked</w>": 9302,
  "roaring</w>": 9303,
  "gin</w>": 9304,
  "stics</w>": 9305,
  "specifically</w>": 9306,
  "disin": 9307,
  "confessed</w>": 9308,
  "reacher</w>": 9309,
  "script</w>": 9310,
  "difficulty</w>": 9311,
  "gallery</w>": 9312,
  "alike</w>": 9313,
  "ligh": 9314,
  "patients</w>": 9315,
  "piano</w>": 9316,
  "highest</w>": 9317,
  "compliment</w>": 9318,
  "econ": 9319,
  "eerie</w>": 9320,
  "suited</w>": 9321,
  "ninety</w>": 9322,
  "delay</w>": 9323,
  "genius</w>": 9324,
  "harm": 9325,
  "prompted</w>": 9326,
  "fumbled</w>": 9327,
  "stacked</w>": 9328,
  "necessarily</w>": 9329,
  "ee": 9330,
  "enzie</w>": 9331,
  "salad</w>": 9332,
  "bastards</w>": 9333,
  "ads</w>": 9334,
  "sunk</w>": 9335,
  "logist</w>": 9336,
  "0s</w>": 9337,
  "beams</w>": 9338,
  "gular</w>": 9339,
  "obje": 9340,
  "husky</w>": 9341,
  "delivery</w>": 9342,
  "offices</w>": 9343,
  "acknowledged</w>": 9344,
  "gunner</w>": 9345,
  "nephe": 9346,
  "vote</w>": 9347,
  "fingernails</w>": 9348,
  "wednesday</w>": 9349,
  "elliot</w>": 9350,
  "frankly</w>": 9351,
  "trau": 9352,
  "iest</w>": 9353,
  "halls</w>": 9354,
  "bells</w>": 9355,
  "semi</w>": 9356,
  "collapse</w>": 9357,
  "gesturing</w>": 9358,
  "wasting</w>": 9359,
  "quet</w>": 9360,
  "follows</w>": 9361,
  "welcom": 9362,
  "foster</w>": 9363,
  "relationships</w>": 9364,
  "stench</w>": 9365,
  "suspiciously</w>": 9366,
  "des": 9367,
  "police": 9368,
  "layla</w>": 9369,
  "blurred</w>": 9370,
  "coal</w>": 9371,
  "fluid</w>": 9372,
  "hayden</w>": 9373,
  "hazel</w>": 9374,
  "ou</w>": 9375,
  "hates</w>": 9376,
  "abbe": 9377,
  "practical</w>": 9378,
  "masters</w>": 9379,
  "sened</w>": 9380,
  "gaped</w>": 9381,
  "bump</w>": 9382,
  "bizarre</w>": 9383,
  "prospect</w>": 9384,
  "stores</w>": 9385,
  "rung</w>": 9386,
  "fans</w>": 9387,
  "cousins</w>": 9388,
  "resources</w>": 9389,
  "offense</w>": 9390,
  "transmi": 9391,
  "transport</w>": 9392,
  "threats</w>": 9393,
  "bryn": 9394,
  "hairs</w>": 9395,
  "minister</w>": 9396,
  "celebrate</w>": 9397,
  "mistaken</w>": 9398,
  "agency</w>": 9399,
  "amaz": 9400,
  "sers</w>": 9401,
  "item</w>": 9402,
  "grinding</w>": 9403,
  "disco": 9404,
  "thrill</w>": 9405,
  "feder": 9406,
  "theirs</w>": 9407,
  "employees</w>": 9408,
  "pained</w>": 9409,
  "popping</w>": 9410,
  "jerking</w>": 9411,
  "weakly</w>": 9412,
  "coats</w>": 9413,
  "desser": 9414,
  "ghtness</w>": 9415,
  "brow": 9416,
  "stes</w>": 9417,
  "outstretched</w>": 9418,
  "correctly</w>": 9419,
  "cyn": 9420,
  "motorcycle</w>": 9421,
  "requested</w>": 9422,
  "eastern</w>": 9423,
  "rei": 9424,
  "sneaking</w>": 9425,
  "root</w>": 9426,
  "straining</w>": 9427,
  "mead": 9428,
  "gratitude</w>": 9429,
  "cooked</w>": 9430,
  "ush": 9431,
  "tissue</w>": 9432,
  "severe</w>": 9433,
  "applied</w>": 9434,
  "alexia</w>": 9435,
  "appearing</w>": 9436,
  "dripped</w>": 9437,
  "welcomed</w>": 9438,
  "waist": 9439,
  "paja": 9440,
  "tripped</w>": 9441,
  "choke</w>": 9442,
  "heap</w>": 9443,
  "partly</w>": 9444,
  "xy</w>": 9445,
  "void</w>": 9446,
  "llo": 9447,
  "tattoos</w>": 9448,
  "msy</w>": 9449,
  "rises</w>": 9450,
  "persua": 9451,
  "effective</w>": 9452,
  "sweetie</w>": 9453,
  "moist</w>": 9454,
  "gies</w>": 9455,
  "recognition</w>": 9456,
  "negative</w>": 9457,
  "wren</w>": 9458,
  "fitted</w>": 9459,
  "mini</w>": 9460,
  "lacey</w>": 9461,
  "drum</w>": 9462,
  "advance</w>": 9463,
  "crai": 9464,
  "confid": 9465,
  "debris</w>": 9466,
  "studies</w>": 9467,
  "arte": 9468,
  "rose": 9469,
  "skip</w>": 9470,
  "rowan</w>": 9471,
  "dive</w>": 9472,
  "adds</w>": 9473,
  "numerous</w>": 9474,
  "clenching</w>": 9475,
  "rays</w>": 9476,
  "muttering</w>": 9477,
  "diver": 9478,
  "shea": 9479,
  "addressed</w>": 9480,
  "elderly</w>": 9481,
  "huffed</w>": 9482,
  "hay": 9483,
  "kindly</w>": 9484,
  "relaxing</w>": 9485,
  "vors</w>": 9486,
  "diego</w>": 9487,
  "gardens</w>": 9488,
  "tice</w>": 9489,
  "tricks</w>": 9490,
  "rumble</w>": 9491,
  "column</w>": 9492,
  "conner</w>": 9493,
  "tton</w>": 9494,
  "consciously</w>": 9495,
  "originally</w>": 9496,
  "lecture</w>": 9497,
  "rho": 9498,
  "crow</w>": 9499,
  "growth</w>": 9500,
  "agues</w>": 9501,
  "lucan</w>": 9502,
  "thing": 9503,
  "capital</w>": 9504,
  "joint</w>": 9505,
  "amaze": 9506,
  "clare</w>": 9507,
  "essence</w>": 9508,
  "lewis</w>": 9509,
  "believes</w>": 9510,
  "complain</w>": 9511,
  "passengers</w>": 9512,
  "smack</w>": 9513,
  "melting</w>": 9514,
  "thresho": 9515,
  "grimly</w>": 9516,
  "sober</w>": 9517,
  "peek</w>": 9518,
  "escaping</w>": 9519,
  "vial</w>": 9520,
  "susan": 9521,
  "circular</w>": 9522,
  "stors</w>": 9523,
  "appli": 9524,
  "swaying</w>": 9525,
  "depth</w>": 9526,
  "possess</w>": 9527,
  "nightstand</w>": 9528,
  "burnt</w>": 9529,
  "elessly</w>": 9530,
  "blessed</w>": 9531,
  "enced</w>": 9532,
  "importance</w>": 9533,
  "unfortunate</w>": 9534,
  "dream": 9535,
  "puzzle</w>": 9536,
  "insist": 9537,
  "tian</w>": 9538,
  "ultimate</w>": 9539,
  "guarantee</w>": 9540,
  "hut</w>": 9541,
  "freaked</w>": 9542,
  "albert</w>": 9543,
  "joked</w>": 9544,
  "teenage</w>": 9545,
  "santa</w>": 9546,
  "attended</w>": 9547,
  "emerald</w>": 9548,
  "illuminated</w>": 9549,
  "daring</w>": 9550,
  "convenient</w>": 9551,
  "failing</w>": 9552,
  "jokes</w>": 9553,
  "poking</w>": 9554,
  "murmurs</w>": 9555,
  "amazement</w>": 9556,
  "innocence</w>": 9557,
  "cami": 9558,
  "homework</w>": 9559,
  "kil": 9560,
  "ronan</w>": 9561,
  "mild</w>": 9562,
  "discovery</w>": 9563,
  "willow</w>": 9564,
  "olive</w>": 9565,
  "steven</w>": 9566,
  "sorted</w>": 9567,
  "tech</w>": 9568,
  "pam</w>": 9569,
  "orleans</w>": 9570,
  "ceived</w>": 9571,
  "mexico</w>": 9572,
  "slips</w>": 9573,
  "ero": 9574,
  "phillip</w>": 9575,
  "explains</w>": 9576,
  "confirm</w>": 9577,
  "organization</w>": 9578,
  "16</w>": 9579,
  "depre": 9580,
  "arrangement</w>": 9581,
  "keen</w>": 9582,
  "diag": 9583,
  "cow</w>": 9584,
  "ddles</w>": 9585,
  "sali": 9586,
  "caden</w>": 9587,
  "eliza</w>": 9588,
  "admired</w>": 9589,
  "tail": 9590,
  "~~": 9591,
  "nancy</w>": 9592,
  "marine</w>": 9593,
  "horse": 9594,
  "soda</w>": 9595,
  "pierre</w>": 9596,
  "nell</w>": 9597,
  "moaning</w>": 9598,
  "tighten</w>": 9599,
  "perfume</w>": 9600,
  "hilt</w>": 9601,
  "accommo": 9602,
  "murderer</w>": 9603,
  "threshold</w>": 9604,
  "abigail</w>": 9605,
  "desired</w>": 9606,
  "coward</w>": 9607,
  "relatively</w>": 9608,
  "hell": 9609,
  "campa": 9610,
  "coordin": 9611,
  "nath": 9612,
  "flag</w>": 9613,
  "patio</w>": 9614,
  "tracing</w>": 9615,
  "plague</w>": 9616,
  "theless</w>": 9617,
  "lethal</w>": 9618,
  "bubba</w>": 9619,
  "console</w>": 9620,
  "flinch</w>": 9621,
  "hop</w>": 9622,
  "uncomfortably</w>": 9623,
  "buff": 9624,
  "still": 9625,
  "nevertheless</w>": 9626,
  "inser": 9627,
  "headlights</w>": 9628,
  "governor</w>": 9629,
  "bitter": 9630,
  "races</w>": 9631,
  "academy</w>": 9632,
  "determine</w>": 9633,
  "janet</w>": 9634,
  "honesty</w>": 9635,
  "fiction</w>": 9636,
  "plays</w>": 9637,
  "lara</w>": 9638,
  "buckled</w>": 9639,
  "flare</w>": 9640,
  "dono": 9641,
  "fucked</w>": 9642,
  "succeeded</w>": 9643,
  "resumed</w>": 9644,
  "mored</w>": 9645,
  "lest</w>": 9646,
  "kindness</w>": 9647,
  "banged</w>": 9648,
  "debt</w>": 9649,
  "vessel</w>": 9650,
  "minded</w>": 9651,
  "brass</w>": 9652,
  "elders</w>": 9653,
  "inges</w>": 9654,
  "gasps</w>": 9655,
  "17</w>": 9656,
  "splin": 9657,
  "ging": 9658,
  "maddy</w>": 9659,
  "cough</w>": 9660,
  "mblance</w>": 9661,
  "computers</w>": 9662,
  "wealthy</w>": 9663,
  "aliens</w>": 9664,
  "meters</w>": 9665,
  "engines</w>": 9666,
  "committ": 9667,
  "interpre": 9668,
  "ray": 9669,
  "distress</w>": 9670,
  "robot</w>": 9671,
  "christopher</w>": 9672,
  "discomfort</w>": 9673,
  "include</w>": 9674,
  "az</w>": 9675,
  "ang</w>": 9676,
  "mari</w>": 9677,
  "yells</w>": 9678,
  "perfection</w>": 9679,
  "nikki</w>": 9680,
  "mies</w>": 9681,
  "stephanie</w>": 9682,
  "fulness</w>": 9683,
  "octo": 9684,
  "entertain": 9685,
  "stur": 9686,
  "industri": 9687,
  "concept</w>": 9688,
  "thrusting</w>": 9689,
  "eternal</w>": 9690,
  "berg</w>": 9691,
  "hailey</w>": 9692,
  "luxury</w>": 9693,
  "theo</w>": 9694,
  "tavi</w>": 9695,
  "hunted</w>": 9696,
  "elimin": 9697,
  "comprehen": 9698,
  "cellar</w>": 9699,
  "halted</w>": 9700,
  "austin</w>": 9701,
  "mature</w>": 9702,
  "bliss</w>": 9703,
  "meals</w>": 9704,
  "ories</w>": 9705,
  "timi": 9706,
  "carol</w>": 9707,
  "warily</w>": 9708,
  "intact</w>": 9709,
  "dall</w>": 9710,
  "examining</w>": 9711,
  "peer</w>": 9712,
  "strous</w>": 9713,
  "wreck</w>": 9714,
  "indicating</w>": 9715,
  "calli": 9716,
  "belongs</w>": 9717,
  "honey": 9718,
  "fetch</w>": 9719,
  "abra": 9720,
  "robes</w>": 9721,
  "displayed</w>": 9722,
  "thias</w>": 9723,
  "carmine</w>": 9724,
  "slowing</w>": 9725,
  "afterwards</w>": 9726,
  "mode</w>": 9727,
  "goods</w>": 9728,
  "forgi": 9729,
  "lincol": 9730,
  "corn": 9731,
  "dense</w>": 9732,
  "freed</w>": 9733,
  "slit</w>": 9734,
  "lor</w>": 9735,
  "tool</w>": 9736,
  "proven</w>": 9737,
  "overly</w>": 9738,
  "plucked</w>": 9739,
  "respect": 9740,
  "boom</w>": 9741,
  "dennis</w>": 9742,
  "sail</w>": 9743,
  "intrigued</w>": 9744,
  "oly": 9745,
  "ts": 9746,
  "recep": 9747,
  "encouraged</w>": 9748,
  "rim</w>": 9749,
  "rav": 9750,
  "competition</w>": 9751,
  "kidnapped</w>": 9752,
  "fero": 9753,
  "seed</w>": 9754,
  "concluded</w>": 9755,
  "fights</w>": 9756,
  "legend</w>": 9757,
  "guer": 9758,
  "surgery</w>": 9759,
  "'l</w>": 9760,
  "messen": 9761,
  "coughing</w>": 9762,
  "jolt</w>": 9763,
  "scratching</w>": 9764,
  "marsha": 9765,
  "growling</w>": 9766,
  "throws</w>": 9767,
  "lized</w>": 9768,
  "unison</w>": 9769,
  "messenger</w>": 9770,
  "insist</w>": 9771,
  "splashed</w>": 9772,
  "purchased</w>": 9773,
  "sheep</w>": 9774,
  "ruins</w>": 9775,
  "audible</w>": 9776,
  "locate</w>": 9777,
  "tral</w>": 9778,
  "veil</w>": 9779,
  "grocery</w>": 9780,
  "unlea": 9781,
  "taut</w>": 9782,
  "condom</w>": 9783,
  "teri": 9784,
  "rens</w>": 9785,
  "grasping</w>": 9786,
  "respected</w>": 9787,
  "sum</w>": 9788,
  "network</w>": 9789,
  "resort</w>": 9790,
  "bible</w>": 9791,
  "wraps</w>": 9792,
  "joan</w>": 9793,
  "sweetly</w>": 9794,
  "sleek</w>": 9795,
  "enhan": 9796,
  "hill": 9797,
  "minent</w>": 9798,
  "culture</w>": 9799,
  "neal</w>": 9800,
  "snaps</w>": 9801,
  "exposing</w>": 9802,
  "tasting</w>": 9803,
  "nicol": 9804,
  "rion</w>": 9805,
  "thee</w>": 9806,
  "rug</w>": 9807,
  "repair</w>": 9808,
  "fati": 9809,
  "conscience</w>": 9810,
  "limit</w>": 9811,
  "ceased</w>": 9812,
  "ami": 9813,
  "breed</w>": 9814,
  "magne": 9815,
  "ural</w>": 9816,
  "noneth": 9817,
  "packs</w>": 9818,
  "noelle</w>": 9819,
  "impli": 9820,
  "patterns</w>": 9821,
  "escorted</w>": 9822,
  "nicely</w>": 9823,
  "writer</w>": 9824,
  "lush</w>": 9825,
  "thief</w>": 9826,
  "startling</w>": 9827,
  "roy": 9828,
  "layers</w>": 9829,
  "chel": 9830,
  "arrangements</w>": 9831,
  "nonetheless</w>": 9832,
  "bitten</w>": 9833,
  "towers</w>": 9834,
  "ison</w>": 9835,
  "ghtens</w>": 9836,
  "coffin</w>": 9837,
  "nurses</w>": 9838,
  "windshield</w>": 9839,
  "remarkable</w>": 9840,
  "cradled</w>": 9841,
  "documents</w>": 9842,
  "politics</w>": 9843,
  "bared</w>": 9844,
  "mina</w>": 9845,
  "lattered</w>": 9846,
  "domen</w>": 9847,
  "dorm</w>": 9848,
  "challenged</w>": 9849,
  "doms</w>": 9850,
  "earn</w>": 9851,
  "sible</w>": 9852,
  "harley</w>": 9853,
  "infer": 9854,
  "lind": 9855,
  "coins</w>": 9856,
  "deepened</w>": 9857,
  "lip": 9858,
  "photographs</w>": 9859,
  "warlord</w>": 9860,
  "sloane</w>": 9861,
  "toys</w>": 9862,
  "gel</w>": 9863,
  "vlad</w>": 9864,
  "flirting</w>": 9865,
  "metallic</w>": 9866,
  "temer": 9867,
  "troy</w>": 9868,
  "'cause</w>": 9869,
  "fing</w>": 9870,
  "tabi": 9871,
  "generation</w>": 9872,
  "forbidden</w>": 9873,
  "regretted</w>": 9874,
  "wee</w>": 9875,
  "isol": 9876,
  "p.m.</w>": 9877,
  "strategy</w>": 9878,
  "tlessly</w>": 9879,
  "glove</w>": 9880,
  "cora</w>": 9881,
  "phic</w>": 9882,
  "gna": 9883,
  "graceful</w>": 9884,
  "wil</w>": 9885,
  "reward</w>": 9886,
  "abdu": 9887,
  "custo": 9888,
  "gaw": 9889,
  "divine</w>": 9890,
  "scooted</w>": 9891,
  "stess</w>": 9892,
  "pulsed</w>": 9893,
  "practiced</w>": 9894,
  "muddy</w>": 9895,
  "essa</w>": 9896,
  "veling</w>": 9897,
  "banging</w>": 9898,
  "tacti": 9899,
  "prior</w>": 9900,
  "fau": 9901,
  "pupp": 9902,
  "shimmering</w>": 9903,
  "concealed</w>": 9904,
  "princip": 9905,
  "classroom</w>": 9906,
  "pod</w>": 9907,
  "headquarters</w>": 9908,
  "sheepi": 9909,
  "characters</w>": 9910,
  "inar</w>": 9911,
  "slapping</w>": 9912,
  "tangle</w>": 9913,
  "azar</w>": 9914,
  "accurate</w>": 9915,
  "ywood</w>": 9916,
  "cafe": 9917,
  "destroying</w>": 9918,
  "d.": 9919,
  "express</w>": 9920,
  "outline</w>": 9921,
  "demean": 9922,
  "vivid</w>": 9923,
  "investigate</w>": 9924,
  "commerci": 9925,
  "oma</w>": 9926,
  "etta</w>": 9927,
  "philip</w>": 9928,
  "18</w>": 9929,
  "coke</w>": 9930,
  "dys</w>": 9931,
  "vit": 9932,
  "stock": 9933,
  "pulsing</w>": 9934,
  "chatting</w>": 9935,
  "twenti": 9936,
  "launch</w>": 9937,
  "neared</w>": 9938,
  "harbor</w>": 9939,
  "silhou": 9940,
  "scheduled</w>": 9941,
  "caine</w>": 9942,
  "conditions</w>": 9943,
  "reapp": 9944,
  "anticipated</w>": 9945,
  "cere</w>": 9946,
  "aj</w>": 9947,
  "tying</w>": 9948,
  "indication</w>": 9949,
  "thea</w>": 9950,
  "viewing</w>": 9951,
  "playfully</w>": 9952,
  "earth": 9953,
  "lame</w>": 9954,
  "woken</w>": 9955,
  "jaws</w>": 9956,
  "mech": 9957,
  "dump</w>": 9958,
  "streaked</w>": 9959,
  "fleet</w>": 9960,
  "environment</w>": 9961,
  "leen</w>": 9962,
  "deserves</w>": 9963,
  "padded</w>": 9964,
  "partners</w>": 9965,
  "rad</w>": 9966,
  "suppre": 9967,
  "ci</w>": 9968,
  "richar": 9969,
  "mick</w>": 9970,
  "simultaneously</w>": 9971,
  "hudson</w>": 9972,
  "dedly</w>": 9973,
  "thom</w>": 9974,
  "robo": 9975,
  "lli</w>": 9976,
  "ckin</w>": 9977,
  "swiped</w>": 9978,
  "loosened</w>": 9979,
[...]
